▁the 4049393
. 2141597
▁of 2012365
, 1840038
s 1593045
▁to 1412458
▁in 1372831
▁and 1228074
▁. 859060
▁a 811998
▁is 759596
▁, 759504
▁that 658852
▁on 542932
▁ 532811
▁for 437868
▁has 430820
▁The 411079
▁be 392963
ing 374218
▁this 372215
▁was 366984
▁will 351400
▁not 341090
' 331350
ed 312763
▁from 305694
▁with 281238
▁are 271906
▁said 271858
▁have 257438
▁it 255947
▁also 235915
▁by 232446
- 225755
▁he 208156
d 205367
▁- 203914
▁been 196144
▁In 195874
▁' 193990
▁his 186151
▁as 177002
▁you 174661
▁( 174292
▁He 163959
▁who 159476
▁s 157395
ly 153774
▁they 151679
▁had 148828
▁government 148143
▁which 146355
▁people 141732
▁were 138464
▁Minister 138252
▁them 137325
▁at 136719
▁their 133504
▁Delhi 125376
▁I 125272
y 124146
▁but 123895
▁there 123563
▁A 123401
er 123283
: 121652
▁or 119656
▁can 119177
▁an 116121
▁India 112672
e 110273
▁all 109803
▁It 108605
al 107718
a 107607
▁after 102145
▁time 101138
▁about 93943
▁" 90778
▁) 90727
▁Congress 87380
▁one 87033
▁This 86643
i 86116
▁two 84706
▁him 82651
▁no 81404
▁Singh 80968
▁BJP 79652
▁other 79423
▁Read 78702
▁then 77752
▁By 77087
n 76789
▁only 76633
▁its 75909
▁do 74994
▁against 74937
▁: 74917
▁case 74327
▁new 74088
in 73859
▁being 73096
th 72774
▁made 72761
▁On 72590
▁police 72172
▁Modi 72035
▁country 71827
▁we 70186
t 70162
▁go 69733
▁should 69665
▁so 68801
▁To 67803
▁when 67442
▁We 67138
or 67032
▁After 66578
▁any 66245
▁see 64819
▁m 64563
es 63947
▁state 63791
r 61531
▁S 61434
▁Chief 61334
▁these 61232
▁out 60841
▁; 60719
▁given 60403
ur 59966
▁Allah 59781
▁if 59690
▁news 59535
▁re 59498
▁party 59356
▁such 58779
▁And 58156
▁more 57294
▁court 56739
▁[ 56462
▁your 55483
) 54463
▁Court 54374
ation 54352
▁But 54192
m 54163
▁some 53292
k 53157
com 52637
▁According 52203
▁years 51775
▁than 51739
▁There 51328
▁those 51304
ar 50573
▁B 50554
▁New 50135
an 49990
▁many 49986
▁P 49960
▁did 49383
▁first 49265
▁live 48967
▁up 48839
▁under 48831
▁three 48802
o 48795
▁mobile 48526
li 48436
▁Indian 48310
▁year 47939
▁her 47927
le 47508
▁over 47406
▁? 47335
▁They 47229
▁would 47181
▁now 46935
▁what 46244
▁like 45158
▁before 44783
it 44693
▁between 44576
ers 43862
g 43772
▁latest 43734
ion 43671
▁Prime 43303
▁come 42971
▁last 42753
▁work 42587
▁photos 42356
▁same 42247
ri 42101
▁videos 41338
▁take 40915
▁while 40891
am 40743
jagran 40722
▁due 40721
▁scores 40562
▁make 40529
▁started 40198
▁get 39950
▁told 39818
▁day 39792
▁meeting 39553
▁came 38386
ta 38384
re 37922
▁God 37766
▁So 37551
S 37549
▁Pradesh 37358
▁information 37235
c 37232
▁At 37188
▁If 36942
▁our 36740
▁taken 36723
▁Pakistan 36473
ity 36464
▁during 36404
▁accused 36321
▁into 36099
▁may 36067
very 36050
▁days 35797
il 35780
w 35590
▁me 35552
▁say 35338
h 35321
▁President 35299
▁here 35279
ma 35033
▁C 34799
la 34381
▁elections 34361
▁19 34073
b 33768
u 33735
▁D 33676
M 33628
▁Lord 33510
na 33448
ll 33379
▁Government 33289
▁give 33280
▁life 33171
▁way 33053
able 32793
▁Gandhi 32754
▁order 32754
▁world 32711
st 32625
▁used 32609
▁un 32549
ti 32520
ic 32402
▁through 32193
ir 32091
ate 32032
pur 31946
▁could 31907
▁Sabha 31873
▁de 31734
ment 31696
▁issue 31482
▁even 31425
▁where 31387
% 31367
▁leader 31339
▁! 31302
A 31245
▁matter 31139
▁number 31094
▁asked 31064
▁name 31044
ra 30986
▁help 30965
▁my 30848
▁Rs 30609
at 30418
▁Kumar 30289
f 30272
▁sent 30128
sh 30105
▁women 29937
▁water 29903
▁T 29786
▁For 29783
▁G 29669
▁going 29669
▁N 29279
▁Supreme 29207
▁every 29175
▁both 29134
B 29043
se 28903
▁present 28860
▁know 28782
” 28725
ent 28716
▁done 28635
id 28587
on 28562
el 28472
I 28404
▁Re 28390
ul 28343
▁security 28333
z 28287
▁us 28287
▁decision 28239
ol 28191
▁e 28178
▁area 28158
▁got 28074
▁power 28023
▁Police 28002
▁place 27927
▁four 27925
▁family 27714
▁His 27668
▁including 27584
▁O 27548
▁does 27509
▁public 27463
“ 27386
▁leaders 27150
▁Kashmir 27128
▁she 27056
▁good 27034
▁F 27026
▁five 27019
▁most 26966
▁house 26941
D 26907
▁10 26781
▁Mumbai 26772
▁When 26686
▁man 26583
▁report 26466
▁read 26305
▁because 26164
▁As 26144
▁shall 25683
▁situation 25579
▁took 25562
te 25523
▁M 25510
▁State 25415
▁political 25396
▁High 25342
▁right 25340
▁Ministry 25215
▁per 25134
▁action 25073
▁land 24986
▁found 24922
▁village 24854
ive 24826
▁reached 24710
▁Narendra 24694
▁All 24666
▁district 24610
▁/ 24508
di 24506
▁hand 24467
▁money 24213
▁CBI 24173
j 24168
▁percent 24119
▁t 24118
▁children 24111
man 24032
et 23983
ist 23878
? 23872
▁former 23783
P 23621
▁election 23605
ro 23552
vi 23483
▁special 23464
▁E 23349
▁attack 23328
▁rupees 23313
4 23281
ya 23220
en 23129
▁c 23092
G 22923
▁become 22918
▁con 22849
as 22827
▁countries 22818
ce 22810
▁Rahul 22733
▁National 22689
▁death 22654
▁However 22621
▁minister 22603
▁states 22559
▁system 22556
ant 22462
ness 22359
▁development 22313
6 22289
▁An 22192
▁Yadav 22107
N 22100
tra 22060
▁Lok 22028
um 22025
ch 21995
wa 21963
▁Gujarat 21962
▁down 21912
▁Dur 21881
▁crore 21840
▁again 21736
▁till 21662
▁called 21522
▁statement 21504
ary 21501
▁part 21486
▁night 21458
▁near 21285
▁lakh 21222
▁how 21209
▁Ram 21174
▁incident 21128
▁back 21112
▁Do 21057
▁gave 21048
l 21024
de 21016
▁law 20856
▁Dr 20851
T 20807
▁says 20795
▁long 20758
▁Ra 20756
▁important 20724
▁Uttar 20722
▁De 20669
▁away 20518
▁well 20488
▁thousand 20453
▁support 20337
▁arrested 20261
8 20160
est 20155
▁parties 20144
ish 20133
un 20119
▁12 20087
▁different 20040
▁person 20025
▁end 20016
▁f 19956
▁Union 19905
▁2 19878
▁next 19814
▁own 19679
▁related 19650
▁dis 19649
▁level 19628
O 19612
▁filed 19600
▁areas 19532
▁Central 19500
▁These 19449
▁today 19433
] 19417
▁use 19410
ated 19395
▁6 19390
▁Commission 19379
▁K 19340
▁investigation 19320
▁Ma 19280
▁killed 19203
▁increase 19198
▁terrorists 19175
▁far 19105
ty 19081
▁clear 19068
▁woman 19055
▁second 19022
us 18918
age 18904
). 18899
▁among 18878
▁China 18849
▁PM 18794
▁petition 18777
▁officials 18776
▁form 18762
C 18761
ck 18681
▁Monday 18658
▁] 18653
▁Party 18640
▁1 18621
▁want 18571
ak 18564
▁believe 18545
▁am 18543
▁You 18521
▁chief 18520
▁set 18520
p 18498
im 18416
▁post 18408
3 18333
▁15 18322
▁Justice 18276
▁p 18249
▁process 18244
▁team 18228
1 18180
7 18173
▁Now 18137
ia 18127
▁co 18078
ter 18047
▁SP 18036
▁old 18035
▁just 18019
ance 18017
▁son 18005
▁H 17983
▁need 17897
▁Also 17773
▁members 17758
▁six 17709
▁campaign 17693
▁soon 17640
▁without 17590
ous 17575
▁20 17568
▁station 17528
▁8 17525
ba 17502
▁army 17492
ut 17457
U 17452
▁making 17312
▁social 17230
5 17214
▁seen 17111
▁another 17083
ni 17079
▁students 17077
▁months 17063
▁Tuesday 17050
ted 17033
▁father 17029
▁General 17027
▁big 17018
▁Ka 16977
less 16970
▁left 16954
▁company 16934
ka 16934
ne 16933
▁held 16929
ism 16926
▁full 16920
▁While 16914
▁body 16894
▁Bihar 16864
▁morning 16854
▁change 16853
▁coming 16837
▁L 16834
▁decided 16825
▁Jammu 16664
▁taking 16640
▁Wednesday 16620
▁senior 16613
▁went 16553
▁much 16532
▁5 16528
▁Home 16515
up 16513
▁Day 16510
▁able 16487
▁regard 16473
ad 16452
▁11 16413
kar 16406
▁letter 16362
▁issued 16337
▁3 16320
2 16319
▁few 16300
▁great 16260
F 16234
▁Friday 16219
▁media 16178
▁hearing 16169
ating 16167
ci 16134
▁cases 16111
▁around 16077
▁increased 16067
K 16065
▁Parliament 16012
▁assembly 16006
▁question 15994
▁central 15986
▁too 15980
▁why 15965
▁national 15961
▁9 15841
da 15780
▁18 15770
]. 15749
R 15740
old 15736
▁car 15710
▁Raj 15674
▁wife 15673
is 15667
▁Jagaran 15642
▁U 15613
ver 15583
▁already 15565
H 15532
00 15480
▁along 15465
▁Thursday 15414
▁fire 15410
▁Su 15377
har 15355
▁opposition 15346
mo 15341
▁whole 15337
L 15322
▁sources 15274
▁front 15263
▁With 15238
Q 15233
▁Shah 15221
▁times 15207
▁Ba 15171
▁giving 15143
▁visit 15132
▁Sa 15124
ga 15090
ha 15063
▁V 15039
▁things 14996
▁high 14969
ot 14943
▁received 14930
▁bring 14898
va 14884
▁Department 14875
▁earth 14851
▁office 14756
▁face 14744
ence 14732
ful 14676
▁J 14663
▁himself 14653
▁Then 14611
▁Kejriwal 14601
to 14554
▁large 14539
▁7 14483
▁mother 14450
▁Secretary 14406
▁Act 14397
▁seats 14350
ting 14348
▁list 14322
▁kept 14310
▁injured 14277
op 14277
▁border 14265
▁each 14260
▁ago 14256
he 14249
▁still 14238
▁Saturday 14229
▁upon 14204
▁Apart 14186
▁reason 14162
▁getting 14161
▁young 14148
▁That 14071
▁b 14066
▁home 14041
ure 14041
▁committee 14029
▁program 14004
▁written 14004
▁May 13999
▁Na 13938
▁several 13934
▁account 13934
pe 13911
▁men 13891
▁girl 13838
▁provide 13780
▁bank 13767
▁since 13756
▁ten 13751
▁local 13746
▁tax 13738
▁basis 13719
▁workers 13687
ru 13682
▁city 13676
▁fear 13676
▁No 13674
ani 13665
tic 13656
▁created 13589
▁What 13580
ry 13570
▁brought 13563
▁nor 13559
9 13524
▁farmers 13499
▁known 13499
▁small 13480
▁seven 13451
▁working 13449
▁companies 13436
▁jail 13403
▁month 13395
E 13393
▁put 13382
▁official 13373
▁considered 13299
sa 13272
▁school 13249
▁leave 13219
▁Man 13207
▁keep 13193
ical 13163
▁head 13159
▁Maharashtra 13152
▁Me 13143
ies 13122
ge 13099
▁officers 13077
▁amount 13074
▁return 13059
hu 13044
▁start 13037
▁Committee 13027
▁Center 13023
▁lot 13023
▁president 13014
▁30 13009
▁temple 12954
▁road 12936
▁education 12920
ud 12914
▁MP 12900
▁candidate 12884
▁fact 12883
Z 12882
▁child 12866
▁mind 12860
▁25 12846
▁Him 12832
▁within 12819
▁free 12815
▁g 12807
▁14 12803
▁view 12789
▁ex 12745
▁Sunday 12728
ve 12715
▁must 12707
▁ban 12695
▁became 12690
rs 12688
▁demand 12660
▁sector 12648
▁La 12621
▁food 12573
▁saying 12573
▁W 12543
ine 12524
v 12522
▁show 12521
▁raised 12500
▁run 12493
▁hospital 12467
▁died 12444
hi 12433
▁House 12414
▁politics 12403
▁whom 12372
x 12360
▁Even 12343
▁open 12340
▁R 12338
▁Bengal 12307
▁various 12295
▁stop 12283
ja 12268
▁etc 12257
▁meet 12254
▁strong 12253
▁bureau 12241
▁better 12231
▁16 12231
▁entire 12226
▁4 12225
▁wrong 12217
pa 12171
▁met 12163
▁never 12158
ide 12128
▁problem 12119
▁market 12069
year 12066
▁kind 12059
▁pro 12053
▁Due 12029
▁deal 11987
▁movement 11964
▁US 11946
▁hours 11939
▁towards 11938
▁find 11927
not 11925
▁Army 11920
V 11909
ig 11893
▁o 11867
▁million 11831
co 11825
▁condition 11818
▁She 11808
▁corruption 11797
▁half 11747
▁officer 11740
▁war 11738
▁Lucknow 11726
▁Our 11718
▁possible 11705
ling 11683
▁tell 11672
▁period 11671
J 11659
▁ye 11647
▁light 11622
go 11615
▁file 11613
em 11601
▁business 11581
▁general 11578
▁March 11555
▁policy 11551
▁en 11550
▁organization 11531
▁foreign 11517
▁book 11512
▁train 11490
▁truth 11487
no 11483
▁Khan 11465
▁Be 11459
▁One 11435
ag 11431
ari 11419
▁main 11395
▁Lo 11385
▁service 11382
▁together 11368
▁non 11347
▁50 11328
▁forces 11321
▁later 11319
▁terrorist 11317
con 11284
▁Punjab 11273
▁others 11273
▁13 11257
▁group 11247
▁living 11238
▁d 11211
day 11203
▁w 11197
▁pre 11197
▁youth 11181
▁evening 11170
▁Sharma 11167
▁daughter 11158
▁involved 11148
min 11124
▁health 11123
▁Rajya 11118
▁society 11083
▁Muslim 11082
▁turn 11066
▁April 11049
▁expressed 11026
▁role 11026
gu 11010
▁Cha 11003
▁answer 10999
▁resident 10986
lo 10983
▁capital 10964
▁announced 10953
▁bill 10948
tu 10936
▁call 10927
▁eight 10909
▁side 10873
▁Shiv 10866
_ 10858
▁Go 10848
▁Air 10816
▁West 10811
▁major 10809
▁Bureau 10807
▁poor 10803
os 10800
mp 10787
▁available 10764
▁issues 10753
▁age 10750
▁notice 10723
▁victim 10719
▁charge 10695
▁yet 10679
▁December 10668
mi 10650
▁love 10649
▁Con 10648
▁places 10637
ram 10633
▁black 10617
▁Sonia 10589
han 10581
▁wants 10580
▁act 10560
lu 10548
▁control 10544
dar 10540
▁behind 10540
ah 10534
▁ready 10521
▁Under 10516
kh 10516
▁interest 10489
▁session 10486
tri 10479
▁common 10475
nd 10474
▁People 10450
▁themselves 10444
war 10433
▁human 10431
▁necessary 10422
▁economic 10420
one 10403
▁message 10393
▁Vi 10387
▁administration 10385
▁less 10373
fi 10355
▁alleged 10345
▁total 10327
▁Th 10313
▁June 10295
▁Not 10293
ho 10287
▁husband 10285
▁believed 10274
▁Earlier 10260
per 10255
▁project 10253
▁according 10250
tar 10236
▁dead 10233
), 10221
▁Un 10197
shi 10183
ang 10172
▁Bank 10172
▁date 10140
▁January 10139
▁accident 10122
ious 10112
▁thing 10111
▁prepared 10106
▁private 10099
ach 10096
▁think 10096
▁air 10078
ab 10062
▁pay 10046
▁st 10045
▁bench 10043
▁week 10040
▁financial 10034
▁worth 10021
▁Al 10017
▁Who 10013
▁demanded 10008
▁once 9964
▁murder 9963
▁mis 9928
▁Mo 9928
’ 9921
▁except 9916
▁railway 9911
▁top 9897
▁tried 9881
▁past 9868
▁look 9865
▁crores 9860
▁cent 9859
▁class 9854
▁cost 9835
ities 9828
▁St 9827
▁member 9806
▁Verma 9804
▁reach 9786
▁17 9783
▁registered 9771
▁scheme 9732
qu 9729
▁July 9714
▁soldiers 9710
▁cause 9688
men 9670
▁Ga 9665
▁included 9664
ever 9651
▁term 9629
▁doing 9624
▁occasion 9621
▁24 9588
▁Sha 9585
▁Pro 9569
▁problems 9564
ors 9553
▁worship 9550
▁further 9527
ji 9522
▁fast 9501
▁Ta 9498
▁command 9492
▁brother 9491
▁send 9491
▁religion 9471
▁hands 9455
▁knowledge 9424
▁test 9397
ial 9394
iya 9384
▁marriage 9376
▁unto 9371
▁Some 9371
▁Haryana 9356
me 9355
▁di 9348
ts 9339
▁November 9337
▁whether 9335
▁Development 9326
rat 9318
ther 9316
▁operation 9300
▁passed 9280
ee 9274
▁close 9270
▁center 9264
▁Say 9260
▁result 9258
▁provided 9242
▁University 9242
▁dispute 9225
▁point 9216
▁scam 9198
▁fight 9195
▁Ko 9191
ai 9190
che 9180
▁off 9175
▁current 9172
▁sub 9166
▁department 9150
raj 9120
▁talk 9120
iv 9112
▁candidates 9109
be 9106
▁Hindu 9100
▁rule 9090
▁August 9083
▁anti 9076
▁Meanwhile 9066
▁Pra 9060
▁Kha 9054
bi 9031
▁leadership 9028
▁proposal 9024
▁Ar 9008
pal 9002
▁means 8998
▁stopped 8997
▁let 8987
▁Pakistani 8979
▁responsibility 8954
▁third 8953
▁behalf 8948
▁punishment 8946
▁hope 8934
▁heart 8921
▁best 8917
und 8911
esh 8909
▁effect 8906
▁released 8901
▁My 8893
▁indeed 8886
W 8876
▁rain 8875
▁complete 8870
▁Finance 8860
▁Anna 8857
▁Election 8818
▁Sena 8816
▁relief 8810
▁Muslims 8807
▁ma 8792
▁September 8790
▁create 8785
▁itself 8783
▁save 8781
▁Rajasthan 8775
▁Par 8770
▁always 8764
▁property 8759
▁whose 8755
po 8751
ub 8721
▁something 8714
▁ch 8685
▁questions 8673
▁path 8673
mon 8670
▁South 8667
eet 8664
mb 8644
ke 8643
▁complaint 8620
> 8615
ten 8614
▁From 8612
▁trying 8605
▁Manish 8600
ect 8591
▁future 8589
▁plan 8575
▁i 8571
▁ground 8569
▁serious 8566
▁Board 8563
▁outside 8557
▁evidence 8557
▁Wa 8556
ions 8553
nagar 8544
▁Prasad 8536
▁treatment 8533
▁formed 8497
▁position 8493
gan 8483
om 8467
▁ministers 8413
▁heaven 8411
▁February 8407
▁Maha 8404
▁film 8398
▁building 8380
▁spot 8378
▁located 8351
led 8341
tur 8334
▁connection 8332
and 8331
▁comes 8328
▁Assembly 8322
▁Defense 8312
av 8303
▁Council 8303
▁stand 8302
▁community 8292
▁search 8291
& 8282
ush 8276
▁student 8268
▁agreement 8258
▁ask 8254
ana 8244
▁Railway 8237
▁services 8221
▁Force 8204
▁violence 8196
▁Tamil 8185
▁budget 8184
der 8181
▁forward 8174
▁running 8168
▁organized 8154
bo 8149
▁banks 8144
▁efforts 8129
▁Sachin 8120
< 8120
▁arrest 8117
ning 8116
▁Le 8108
▁anything 8107
▁allegations 8098
▁21 8092
." 8081
▁protest 8074
son 8074
▁activities 8070
q 8056
▁100 8051
▁Va 8046
du 8046
▁success 8044
val 8037
▁self 8033
do 8023
▁nothing 8011
▁data 8008
▁concern 7993
▁line 7989
▁October 7979
gi 7973
ca 7972
▁international 7966
bha 7959
▁sought 7954
▁crime 7939
▁rules 7930
▁Although 7927
▁Many 7927
▁language 7924
▁evil 7923
▁increasing 7918
▁eyes 7917
▁Po 7916
gg 7911
▁rate 7910
▁claim 7910
▁Kan 7907
▁Bar 7896
▁investigating 7896
▁Affairs 7888
▁22 7887
▁Ro 7881
ip 7879
▁revealed 7874
▁Mishra 7858
ian 7851
▁comp 7849
▁field 7848
▁Sanjay 7835
▁happened 7831
▁Bal 7828
▁seat 7826
▁North 7825
▁40 7820
▁vi 7819
▁Ha 7813
▁hard 7810
▁addition 7803
▁follow 7802
▁instead 7772
▁address 7768
▁conference 7767
▁examination 7765
▁force 7763
▁MPs 7763
king 7759
▁card 7759
▁step 7754
▁names 7754
pl 7753
▁peace 7731
▁Nitish 7731
▁Ganga 7724
▁districts 7722
ward 7720
▁Those 7718
▁response 7712
tan 7709
out 7702
ki 7686
▁refused 7681
ens 7675
▁surely 7663
▁Bo 7663
▁presented 7662
land 7660
▁phone 7656
ative 7654
ac 7645
▁Therefore 7641
mit 7634
▁price 7632
▁Patel 7631
▁named 7623
▁How 7621
▁pressure 7616
▁above 7611
dh 7611
▁Tiwari 7608
▁website 7604
▁based 7604
▁benefit 7599
▁Jaitley 7597
▁check 7585
▁nation 7584
▁room 7579
▁income 7579
,000 7567
▁Manmohan 7567
rit 7565
▁Kolkata 7560
way 7559
ster 7559
▁true 7558
▁prevent 7557
cl 7550
▁Jan 7542
▁contact 7541
▁Vijay 7531
▁respect 7521
▁British 7513
▁share 7512
ice 7503
▁late 7500
ized 7496
▁completely 7492
▁k 7490
▁inter 7487
▁judge 7483
▁understand 7479
nath 7475
▁UP 7464
The 7460
ite 7459
▁faith 7453
bu 7452
gra 7452
▁affected 7446
▁agencies 7443
▁imp 7442
▁Rajnath 7440
▁MLA 7438
▁play 7429
▁World 7428
▁video 7425
tal 7424
▁favor 7423
▁application 7420
▁Let 7400
tion 7388
▁protect 7384
▁move 7381
▁region 7381
▁lost 7374
▁attacked 7368
▁Hindi 7364
wal 7363
▁Karnataka 7362
▁changed 7359
▁rest 7357
▁Da 7353
▁United 7341
▁purpose 7337
▁Bas 7337
▁removed 7324
▁bail 7322
▁Two 7310
▁Most 7307
▁po 7301
▁rally 7296
▁allowed 7291
▁across 7290
▁parts 7289
▁app 7289
▁UPA 7273
▁BSP 7265
▁Pa 7264
ally 7262
▁spread 7261
▁Kerala 7259
▁include 7256
▁bar 7253
▁admitted 7240
▁Madhya 7234
▁declared 7234
▁real 7232
▁personnel 7227
Jagaran 7227
clock 7226
▁construction 7203
▁example 7200
▁relations 7197
▁clean 7195
ard 7189
▁Arvind 7188
▁ordered 7183
eth 7183
▁wrote 7181
red 7177
dha 7176
▁accept 7176
▁direction 7175
row 7168
▁difficult 7168
▁Jagran 7165
▁steps 7153
▁passengers 7147
▁image 7136
▁disbelieve 7133
▁Baba 7128
▁remove 7121
ture 7118
vo 7106
▁Pratap 7099
▁villages 7098
▁pi 7094
▁Governor 7093
par 7093
▁trains 7076
▁aircraft 7075
▁Ri 7064
nk 7054
fa 7051
▁English 7045
▁thought 7043
▁rights 7042
▁notes 7037
▁discussion 7033
▁Srinagar 7027
▁District 7027
ction 7025
▁blood 7022
▁Bill 7006
wan 7003
▁equal 7001
▁Rai 7000
▁population 6988
ship 6986
▁travel 6986
hal 6971
▁temperature 6970
▁results 6969
▁Book 6959
▁Rajesh 6959
▁Click 6955
▁Indeed 6954
▁heavy 6953
▁employees 6942
▁Arun 6940
▁Sri 6939
▁completed 6931
▁continue 6931
▁closed 6919
having 6913
▁Nadu 6912
▁course 6910
▁words 6903
ations 6891
van 6889
▁Gupta 6885
the 6876
▁2014 6875
▁Commissioner 6858
▁Bi 6855
▁river 6855
▁research 6851
▁GST 6851
ft 6849
▁legal 6845
▁hold 6845
ill 6839
▁Significantly 6838
▁block 6835
▁little 6826
▁encounter 6816
▁earlier 6814
▁won 6814
▁Mi 6803
▁relationship 6795
▁though 6791
▁window 6791
▁hundred 6787
lic 6781
ph 6772
▁strike 6759
ual 6759
▁plant 6753
▁status 6739
ap 6738
▁terrorism 6737
dra 6736
▁Amit 6730
▁target 6710
▁appointed 6703
▁firing 6700
▁26 6696
▁history 6693
ise 6688
▁permission 6685
▁personal 6681
ex 6679
▁Akhilesh 6675
▁desire 6670
▁fixed 6669
▁girls 6666
▁Ja 6666
unt 6661
▁23 6653
▁ra 6647
▁phase 6637
▁military 6636
▁medical 6630
▁mo 6627
▁lives 6622
▁bus 6620
▁wanted 6616
ible 6616
▁External 6613
▁Director 6605
ists 6599
▁Chandra 6593
▁nine 6590
▁im 6578
▁returned 6577
▁Deputy 6574
▁Uttarakhand 6573
▁Can 6570
▁immediately 6563
▁subject 6554
ization 6543
▁28 6534
od 6534
▁agency 6533
▁consider 6530
tt 6525
▁vote 6521
▁Vice 6519
▁needs 6516
▁care 6515
▁Special 6512
ng 6509
ran 6506
▁expected 6502
▁ho 6502
▁record 6502
ring 6498
▁religious 6495
bb 6495
▁Both 6488
▁opinion 6469
▁2017 6467
▁schools 6464
▁changes 6462
ow 6457
▁families 6456
▁Ni 6454
▁remain 6446
▁Co 6443
▁heard 6441
▁Such 6440
▁informed 6435
▁discussed 6429
▁using 6419
▁cut 6418
les 6417
▁27 6406
▁Mu 6405
▁Mulayam 6404
▁press 6400
▁Here 6398
▁flow 6398
▁Foreign 6394
▁km 6393
▁handed 6376
▁industry 6376
▁attempt 6371
▁rape 6368
▁Of 6366
▁cr 6363
▁Kamal 6358
▁Opposition 6354
▁States 6354
▁story 6354
▁cities 6344
▁trust 6339
▁reservation 6339
▁Har 6339
▁Or 6337
▁secretary 6334
▁hear 6330
▁loss 6329
▁release 6317
▁normal 6314
▁Ru 6309
law 6309
▁enter 6305
▁Kar 6305
▁final 6298
▁questioned 6294
▁training 6293
▁Mar 6273
ize 6269
ified 6268
▁organizations 6258
▁decide 6251
▁Nagar 6251
dic 6242
▁Li 6241
▁accepted 6234
▁avoid 6232
▁pass 6231
▁carri 6231
▁speed 6227
▁Se 6220
▁lack 6218
tre 6213
▁Information 6206
▁built 6202
▁ever 6202
▁limit 6200
ify 6195
ign 6191
hy 6189
▁loan 6183
▁Joshi 6180
▁Messenger 6180
ile 6179
▁stay 6172
▁sc 6172
▁rejected 6169
▁Ne 6162
ber 6156
si 6154
▁signs 6149
▁until 6145
▁America 6139
▁responsible 6139
▁Assam 6138
▁gone 6137
▁victory 6132
▁CM 6128
▁Pur 6127
30 6124
▁2016 6121
ug 6117
▁sitting 6112
▁Sam 6112
▁Mukherjee 6101
▁freedom 6096
▁works 6096
ration 6092
▁Kh 6091
▁speak 6089
▁opened 6082
▁illegal 6078
▁Am 6076
▁job 6074
▁recovered 6062
ore 6060
▁speech 6060
▁San 6057
▁break 6048
▁key 6046
▁selected 6039
▁thou 6032
▁exp 6027
▁short 6026
cha 6026
▁Hospital 6023
▁led 6021
▁try 6014
▁31 6008
▁technology 6008
▁parents 6001
▁Negi 5999
hra 5997
pat 5997
▁votes 5993
tor 5992
▁ve 5992
▁join 5991
▁recorded 5984
▁growth 5974
▁bad 5973
▁MLAs 5971
▁least 5969
▁everyone 5967
▁safe 5961
▁birth 5958
ging 5956
▁doctors 5956
▁active 5943
▁production 5941
line 5921
▁commission 5913
▁reward 5912
▁shown 5905
▁note 5904
▁management 5902
▁spokesman 5901
▁board 5900
▁Law 5898
fo 5895
ev 5895
▁cash 5893
▁network 5893
ven 5886
▁forest 5884
tro 5881
ator 5872
▁details 5869
▁remember 5860
▁directly 5856
▁driver 5853
▁caught 5848
▁ac 5848
▁houses 5841
mar 5837
▁talks 5836
▁Muhammad 5836
▁Express 5832
pri 5825
ability 5825
▁En 5817
▁claimed 5817
▁sta 5816
▁60 5815
▁certain 5815
▁Patna 5810
endra 5809
▁crowd 5809
▁anyone 5808
ble 5807
▁similar 5806
▁Pal 5805
▁Since 5804
▁might 5804
▁bomb 5803
cent 5798
▁provision 5798
▁Is 5796
▁Jharkhand 5785
bit 5784
▁reported 5777
▁NDA 5771
▁progress 5771
50 5770
▁l 5769
▁Lal 5766
▁suicide 5764
▁Constitution 5759
▁stage 5759
▁deep 5759
res 5758
ner 5755
nu 5751
▁documents 5750
za 5746
▁ha 5742
▁maintain 5739
▁n 5730
▁base 5729
▁va 5727
▁Security 5722
▁remained 5720
▁2012 5719
ple 5718
▁possibility 5713
▁bo 5713
▁Bharat 5709
▁separate 5706
▁art 5702
▁looking 5699
▁almost 5694
▁Only 5694
▁alone 5691
▁concerned 5683
▁event 5677
▁Ali 5675
▁Fa 5670
ec 5666
▁huge 5665
IC 5662
▁allow 5644
chi 5644
▁cold 5644
▁supporters 5641
▁knows 5640
▁fall 5636
▁prime 5636
▁engaged 5633
▁director 5633
fl 5630
ik 5629
▁incidents 5628
▁Te 5628
▁don 5628
sha 5626
▁bear 5626
▁appointment 5622
▁continued 5619
gen 5618
▁institutions 5606
▁Cabinet 5599
▁investment 5593
▁0 5591
▁ensure 5591
▁Hyderabad 5589
▁therefore 5585
▁neither 5581
▁turned 5579
▁voice 5577
▁vehicles 5573
▁terror 5566
PC 5562
▁fake 5561
▁Krishna 5560
ned 5550
▁appear 5537
▁joint 5530
▁Sanjeev 5524
▁prove 5520
▁1. 5519
ay 5518
cess 5517
▁soul 5517
▁effective 5515
fe 5510
ping 5510
▁lower 5504
ff 5503
▁Nepal 5499
▁Officer 5498
ants 5497
▁creat 5497
▁Ahmedabad 5494
▁appeal 5492
▁Former 5491
▁Because 5490
▁Road 5480
dy 5480
▁justice 5476
▁projects 5475
▁Pan 5472
▁becoming 5463
▁environment 5463
▁American 5461
▁preparing 5458
▁Ad 5458
▁lo 5438
▁ticket 5436
▁Health 5433
▁value 5433
kha 5425
▁saw 5423
ving 5421
ree 5417
▁ba 5415
▁Andhra 5410
abad 5405
▁duty 5402
▁began 5402
▁journey 5399
▁disc 5392
▁Goa 5390
▁Ca 5389
▁coal 5389
cr 5386
▁computer 5384
▁dozen 5383
▁sign 5382
▁economy 5380
▁caste 5373
▁Ju 5371
▁rid 5370
▁hearts 5369
▁oil 5369
▁Prakash 5366
▁Sushma 5360
▁inquiry 5358
▁function 5358
▁Di 5356
▁la 5352
▁mentioned 5352
mer 5349
▁experience 5348
▁pm 5346
tain 5340
▁Shi 5333
▁defeat 5333
▁successful 5332
▁win 5330
▁feet 5329
▁v 5320
▁buy 5316
▁seek 5312
▁sea 5311
▁ti 5311
▁manner 5305
▁Guru 5304
▁camp 5300
▁electricity 5300
▁pa 5300
qui 5297
▁al 5296
▁option 5294
▁type 5294
▁study 5289
▁married 5287
▁FIR 5286
▁sun 5283
rap 5280
▁doubt 5274
ved 5272
▁qu 5269
▁International 5264
▁goods 5264
▁Trinamool 5260
▁beginning 5258
▁Bha 5253
ification 5248
cul 5247
ct 5246
▁ne 5245
▁touch 5241
ight 5234
▁keeping 5234
bar 5234
▁2011 5232
▁sin 5231
▁energy 5230
ib 5226
ctor 5222
▁often 5217
act 5215
fer 5214
▁Dev 5204
▁conspiracy 5202
ium 5202
ala 5199
▁presence 5197
▁Institute 5194
▁challenge 5193
▁add 5193
▁gives 5193
▁trade 5191
▁low 5191
X 5188
ali 5187
▁gang 5180
▁facilities 5176
▁proposed 5176
▁associated 5175
▁Mal 5173
▁contain 5173
▁strength 5171
▁born 5170
▁word 5167
▁die 5166
▁2013 5161
▁Aam 5159
‘ 5156
▁aware 5151
▁firm 5149
▁conduct 5148
▁writing 5143
▁Ojha 5140
▁following 5140
▁Aadmi 5139
acy 5138
▁ministry 5137
▁Dis 5136
▁whatever 5133
tin 5128
ara 5127
▁Their 5125
den 5121
▁disease 5120
▁material 5120
ton 5117
▁natural 5116
▁previous 5114
▁spent 5111
▁flood 5110
▁airport 5109
▁29 5107
▁strategy 5100
▁feel 5096
▁rural 5091
▁single 5087
▁industrial 5085
▁character 5084
▁Sub 5084
uddin 5083
– 5083
ans 5082
▁eat 5075
▁Pranab 5074
▁nature 5073
▁raise 5069
Y 5068
▁dream 5068
▁prices 5068
▁lead 5066
▁supply 5066
▁charges 5063
ie 5062
▁color 5062
▁flight 5062
▁judges 5052
▁Us 5052
▁majority 5050
umb 5044
▁terms 5043
▁protection 5040
▁witness 5037
▁Pak 5036
▁threat 5035
▁biggest 5026
▁debate 5024
ient 5023
▁Chinese 5013
▁friend 5013
▁friends 5012
▁killing 5001
▁Chidambaram 5001
▁highest 4996
▁lawyer 4991
▁town 4987
▁Patra 4985
▁track 4980
▁direct 4979
▁Ban 4979
▁everything 4978
▁despite 4974
▁Chand 4974
ash 4969
▁Reporter 4964
▁quality 4963
▁gas 4963
ep 4962
▁Bangladesh 4961
▁Swaraj 4957
gar 4956
ini 4952
▁Education 4950
▁higher 4949
▁Chhattisgarh 4946
▁inside 4945
▁custody 4943
▁joined 4939
pi 4935
▁mercy 4935
▁Lalu 4933
▁sense 4931
▁hour 4920
▁attacks 4920
▁formation 4920
▁minutes 4919
▁Chennai 4919
▁arrived 4918
▁Indians 4918
▁Public 4917
▁newspaper 4911
▁gold 4906
▁cover 4904
put 4903
▁write 4890
▁defense 4887
▁moment 4886
▁route 4886
▁flag 4885
▁enough 4885
▁approved 4880
▁eye 4875
▁Ex 4873
▁paid 4867
▁reduced 4866
spect 4866
▁believers 4862
▁helicopter 4860
▁Corporation 4858
our 4858
▁implemented 4856
▁Gunat 4855
pul 4854
▁arrangements 4853
charge 4852
▁required 4849
▁Advani 4847
▁Before 4843
▁opportunity 4839
▁roads 4838
med 4827
▁failed 4827
pt 4826
▁broke 4825
▁impact 4810
ung 4810
▁developed 4810
▁modern 4810
▁Dal 4809
▁tour 4808
▁fair 4806
▁advocate 4805
cc 4804
▁Later 4802
▁unit 4802
▁Shri 4800
▁plea 4795
▁happy 4795
▁launch 4792
▁... 4788
▁attention 4784
▁besides 4782
▁Lokpal 4780
▁deeds 4780
▁talked 4772
mal 4771
▁payment 4765
▁cabinet 4763
▁sp 4762
tter 4761
▁largest 4758
hold 4758
▁talking 4757
ped 4753
▁page 4748
▁established 4747
▁culture 4743
▁Facebook 4740
▁voters 4737
▁investigate 4734
▁accounts 4731
▁bodies 4730
▁Group 4730
▁reply 4726
▁Your 4722
▁Devi 4712
▁famous 4711
▁schemes 4705
▁decisions 4703
ham 4698
▁degree 4698
▁Judge 4697
▁described 4691
hil 4687
▁female 4684
espite 4681
▁conditions 4679
▁voting 4677
▁wish 4677
▁Jo 4675
ency 4668
▁survey 4668
▁initiative 4662
▁villagers 4659
▁Right 4657
▁Sinha 4654
▁jawans 4651
▁Mohan 4651
▁easy 4650
▁task 4650
▁recent 4648
▁owner 4647
▁abroad 4644
▁pain 4640
▁Today 4640
tha 4636
▁Gu 4635
▁trial 4634
▁announcement 4632
gh 4632
▁method 4629
▁Chairman 4626
ganj 4626
We 4625
▁Where 4617
▁stone 4615
▁Pre 4615
▁2015 4613
▁Bajpai 4611
▁section 4611
▁reasons 4611
▁recently 4610
▁statements 4610
▁r 4604
▁35 4603
▁College 4602
▁Why 4598
▁files 4598
▁attend 4595
▁correct 4594
que 4594
▁Banerjee 4591
" 4589
▁products 4581
▁Jam 4581
▁CPI 4581
▁launched 4580
▁Ahmed 4577
▁weather 4576
▁Women 4575
▁quite 4574
bri 4572
▁comment 4571
▁Nav 4569
▁credit 4568
▁lakhs 4566
▁fine 4562
▁attitude 4559
▁round 4551
▁currently 4551
▁Along 4548
▁fully 4548
▁Sal 4548
▁se 4547
▁contest 4546
▁seems 4544
▁prayer 4542
▁standing 4539
▁School 4536
een 4535
▁structure 4533
dia 4531
▁News 4530
▁Three 4528
▁Sar 4523
▁ill 4522
roll 4521
▁either 4513
▁especially 4509
▁victims 4509
▁Janata 4508
▁deployed 4500
▁caused 4500
▁Himachal 4493
▁middle 4493
▁demanding 4492
▁global 4492
▁red 4492
▁someone 4490
▁Anand 4489
▁Jaipur 4488
▁riots 4484
art 4476
▁certainly 4476
▁strict 4474
▁trans 4472
▁space 4464
hor 4462
▁blast 4461
▁becomes 4461
pro 4461
▁reports 4455
end 4450
▁access 4450
garh 4448
▁2009 4447
▁employment 4447
▁About 4446
▁link 4445
▁supported 4443
▁atmosphere 4440
▁70 4436
ition 4436
▁capacity 4433
@ 4432
▁sentence 4425
lor 4418
▁resignation 4414
▁Gadkari 4413
▁machine 4413
▁Panchayat 4410
▁2008 4409
▁discuss 4408
▁Com 4400
oc 4400
▁2010 4400
▁nuclear 4398
▁maximum 4397
▁Maoists 4396
▁500 4394
if 4394
▁gets 4393
▁improve 4392
ray 4392
▁seeing 4391
▁early 4390
▁generation 4390
▁reduce 4389
▁Ashok 4388
inder 4383
▁build 4381
▁Ke 4376
▁site 4375
▁Mah 4375
▁imposed 4374
▁committed 4374
uff 4373
lan 4372
ery 4372
ew 4370
lar 4370
▁East 4361
▁def 4361
▁Sangh 4357
▁affect 4353
▁growing 4350
▁text 4349
▁intelligence 4348
▁controversy 4344
▁Islam 4343
▁Will 4343
▁Mamta 4343
▁agreed 4340
▁criminal 4337
▁Shankar 4336
▁Raja 4336
▁poet 4334
▁Si 4328
ath 4328
▁tradition 4322
vent 4322
20 4321
mark 4318
▁crisis 4316
▁Ravi 4316
JnN 4314
▁Moses 4312
ef 4309
▁na 4306
rate 4304
▁kill 4302
▁More 4299
▁Tax 4296
▁Ho 4294
▁guide 4294
▁sides 4293
▁Cho 4290
▁star 4288
▁denied 4287
▁Char 4286
ged 4286
▁Work 4285
▁battle 4282
▁distance 4281
▁Allahabad 4273
▁pollution 4271
vis 4269
gram 4264
east 4264
ates 4259
▁instructed 4257
▁harm 4257
▁thinking 4254
▁divorce 4252
▁Israel 4252
▁relatives 4247
▁Mayawati 4247
▁missile 4247
▁Sources 4246
atory 4244
char 4243
▁Rajiv 4237
▁played 4235
▁Y 4232
thi 4232
▁identified 4231
▁Min 4230
shan 4229
are 4226
▁practice 4221
oo 4221
▁promote 4218
▁super 4217
▁groups 4212
▁promise 4210
▁reaching 4210
▁opposed 4207
gn 4206
ger 4198
▁Chaudhary 4197
▁believes 4193
for 4192
▁paper 4185
▁makes 4185
▁door 4184
▁Whe 4184
▁leaving 4179
▁instructions 4176
{ 4174
▁angry 4172
▁authority 4171
dev 4168
▁secret 4166
▁coalition 4163
▁review 4158
dhi 4157
▁Fire 4153
lam 4150
▁cur 4149
▁residence 4146
▁Senior 4142
▁Please 4139
▁parliamentary 4137
▁teachers 4136
▁Research 4136
} 4135
mor 4130
▁Narayan 4130
das 4129
▁followed 4126
▁wide 4125
▁canceled 4123
▁Jha 4122
▁elected 4121
▁Among 4119
▁request 4119
▁missing 4118
▁placed 4113
izing 4113
▁Rao 4112
▁game 4111
ny 4111
▁transport 4109
▁forth 4100
▁pen 4099
▁festival 4097
▁doctor 4095
▁clearly 4093
lin 4090
▁ahead 4089
ory 4089
az 4084
▁Rama 4083
▁Dalit 4082
▁additional 4081
AT 4081
▁seized 4079
▁degrees 4078
CA 4077
▁minor 4076
istic 4073
we 4072
▁transfer 4068
▁port 4067
▁advantage 4063
▁offer 4062
▁Last 4062
▁afternoon 4059
▁minimum 4059
▁folder 4059
▁Das 4055
▁plane 4053
▁verdict 4050
▁Mr 4050
▁compensation 4048
▁Comp 4048
▁stations 4046
▁effort 4046
▁intention 4043
▁billion 4043
▁happen 4039
▁democracy 4039
▁receive 4039
▁War 4035
▁scandal 4034
▁lodged 4027
▁rescue 4026
▁proceedings 4025
ments 4024
▁match 4022
▁weeks 4022
▁resources 4022
▁author 4020
▁Per 4019
▁contract 4018
▁Lalit 4018
ron 4018
▁however 4017
▁weapons 4015
▁wall 4014
▁online 4011
▁Railways 4008
▁express 4007
/ 4001
ute 3991
ze 3990
▁sheet 3990
▁original 3988
▁individual 3984
▁delay 3982
▁waiting 3977
▁books 3974
▁guilty 3974
▁correspondent 3970
▁feeling 3970
▁basic 3970
anda 3970
duct 3970
▁Jayalalitha 3969
▁deposit 3969
bra 3967
$ 3964
▁Every 3962
▁influence 3960
▁teacher 3957
▁model 3952
reafter 3951
▁green 3942
▁80 3941
under 3941
▁import 3940
▁Manoj 3935
▁felt 3933
▁physical 3931
ST 3930
▁staff 3930
▁published 3930
▁else 3930
▁1, 3929
▁emb 3928
▁mental 3926
hath 3925
▁Sun 3924
▁mentioning 3923
▁Speaker 3920
▁Thus 3918
▁rains 3918
IM 3913
anand 3911
▁hit 3910
▁ver 3908
rant 3908
▁importance 3906
▁Varanasi 3906
▁spend 3903
▁citizens 3902
RB 3902
▁safety 3893
▁Nehru 3891
▁false 3891
▁trouble 3890
▁particular 3889
▁judicial 3887
CP 3881
cus 3880
▁providing 3877
▁matters 3876
▁purchase 3874
▁2. 3873
pic 3869
▁Mun 3864
▁constituency 3864
0 3861
▁guard 3861
▁danger 3859
▁difference 3859
▁Section 3856
▁Jain 3856
▁Sur 3852
soever 3846
uk 3845
▁Sad 3845
og 3842
ators 3840
▁performance 3839
* 3839
▁Abhishek 3837
▁Are 3836
▁exercise 3836
▁Ji 3835
▁Prophet 3831
▁communal 3828
su 3826
▁whereas 3823
▁rise 3821
▁Car 3818
▁bullet 3817
ult 3817
▁below 3817
▁Kanpur 3815
▁Inter 3813
dal 3813
▁ob 3812
▁rich 3806
▁regular 3806
▁considering 3804
▁Agra 3804
▁goes 3803
rah 3798
▁ran 3798
lal 3797
▁takes 3795
▁entered 3793
▁para 3792
▁mistake 3789
▁grant 3789
ries 3789
▁guidance 3787
▁sister 3785
bal 3784
ANI 3784
DA 3783
▁Sc 3780
ju 3779
▁meetings 3777
▁patient 3776
▁picture 3773
▁export 3773
▁sky 3768
▁solution 3767
▁Office 3765
pir 3763
▁register 3763
▁goal 3760
▁seriously 3760
▁sure 3759
▁idea 3758
▁Plan 3757
▁laws 3753
▁rivers 3753
▁Bhopal 3752
▁immediate 3752
▁conversation 3751
▁mark 3751
▁hotel 3751
▁comm 3751
time 3750
▁creation 3749
▁Russia 3747
▁legislators 3747
▁Up 3746
▁focus 3745
had 3742
use 3741
let 3738
▁deny 3738
▁assured 3737
▁dismissed 3736
▁Jai 3734
▁traffic 3733
▁appealed 3726
ika 3726
var 3726
▁returning 3720
▁honor 3717
▁Celsius 3713
▁warned 3712
▁Conference 3710
▁Kal 3709
▁really 3708
yan 3706
▁seeking 3706
▁TV 3705
chan 3697
▁posts 3695
▁Twitter 3695
▁measures 3694
▁Mamata 3694
▁ED 3693
▁couple 3693
▁adopt 3691
▁approval 3690
▁domestic 3690
▁likely 3689
▁object 3688
▁ruling 3684
▁showing 3683
▁Tri 3683
▁numbers 3683
▁tree 3682
▁Test 3680
pra 3679
▁Service 3677
▁points 3676
▁veri 3667
▁policies 3662
▁foot 3662
▁funds 3661
▁remains 3661
▁rather 3661
▁reporters 3656
▁ship 3656
▁Asia 3655
▁sleep 3655
▁monsoon 3655
▁Sharad 3654
rein 3653
▁alliance 3652
▁proved 3652
▁vehicle 3652
las 3651
▁implementation 3650
▁saved 3649
PA 3647
fect 3646
gam 3644
▁scale 3643
▁Show 3643
▁severe 3641
▁Bangalore 3640
▁constantly 3640
▁earthquake 3636
ler 3636
▁certificate 3636
▁Surely 3632
▁division 3629
vin 3625
▁lines 3625
▁chance 3619
▁fulfill 3618
▁directed 3617
▁needed 3613
▁submitted 3610
▁preparations 3609
▁expenditure 3608
▁moving 3606
▁NIA 3601
▁cooperation 3599
▁provisions 3597
▁Veri 3596
▁science 3595
▁Hindus 3594
▁shot 3590
▁petitioner 3590
▁ways 3590
▁200 3590
▁Pat 3588
▁feed 3586
au 3585
ome 3585
▁Team 3584
▁century 3584
▁Have 3584
▁changing 3583
▁aim 3583
▁struggle 3581
▁rank 3579
▁attract 3579
▁plans 3578
▁wealth 3578
▁persons 3575
▁2007 3575
ue 3574
▁award 3574
▁Mur 3573
▁sale 3573
ware 3573
▁Parliamentary 3572
▁policemen 3570
▁annual 3569
▁sound 3569
▁claims 3563
uc 3558
▁enjoy 3554
▁white 3553
RI 3551
▁bridge 3550
▁Similarly 3549
▁facing 3549
▁article 3549
▁3. 3547
log 3547
mat 3547
▁weak 3545
▁milk 3543
▁types 3539
▁programme 3537
▁conducted 3536
▁forced 3535
▁Control 3535
gal 3534
▁Dar 3534
▁righteous 3534
▁added 3532
dge 3529
path 3527
struc 3526
▁existing 3524
▁display 3523
▁circumstances 3522
▁wait 3521
▁error 3521
▁season 3518
▁cap 3516
▁source 3514
▁RRB 3512
▁messages 3510
▁Jaya 3509
▁none 3509
▁alert 3508
▁daily 3507
▁code 3507
▁headquarters 3505
▁reject 3503
▁category 3502
▁Water 3502
▁Association 3499
▁explain 3498
▁Medical 3494
▁promised 3494
▁Kashmiri 3492
▁000 3488
▁worked 3486
▁wave 3482
▁oath 3482
▁mail 3482
▁Network 3481
▁thy 3477
▁greater 3476
▁backward 3475
▁alias 3475
▁fighting 3473
▁2000 3472
▁Fi 3471
▁pending 3469
▁independent 3469
▁setting 3466
▁Hazare 3465
▁Indira 3462
▁90 3462
▁broken 3461
▁college 3460
▁facility 3458
▁plot 3458
▁RSS 3455
▁civil 3451
▁Leader 3450
▁affidavit 3449
▁Other 3447
▁Maharaj 3443
minal 3439
▁threatened 3437
▁sat 3436
▁inflation 3436
▁north 3436
▁governor 3435
▁allocation 3435
▁Roy 3434
▁Additional 3433
▁IT 3433
▁content 3433
▁risk 3432
▁drink 3431
uch 3430
▁plants 3429
▁shows 3428
▁45 3427
▁Mon 3425
▁proper 3424
▁debt 3422
▁Pandey 3422
▁approach 3422
▁sexual 3420
▁Che 3419
▁bit 3418
▁amendment 3417
▁hi 3416
▁restrict 3415
▁music 3413
▁Naidu 3412
wi 3411
▁flu 3410
▁technical 3409
▁associate 3408
▁sentenced 3407
▁institution 3404
ured 3403
all 3400
▁lie 3399
▁thousands 3397
eer 3397
▁ja 3395
▁listen 3389
10 3386
▁violation 3386
ched 3384
ties 3382
▁First 3373
▁host 3373
ren 3373
▁King 3372
▁fourth 3370
▁suffering 3369
▁actor 3369
▁hanging 3368
▁confidence 3368
▁fell 3367
round 3366
▁exchange 3364
▁targeted 3362
▁garden 3362
▁multi 3358
▁average 3357
▁devotees 3354
cer 3353
▁Income 3353
▁Has 3352
▁warning 3350
▁identity 3349
▁begin 3347
▁Ramdev 3347
▁produce 3347
ook 3341
▁benefits 3340
▁4. 3340
▁develop 3340
▁banned 3337
▁Bhushan 3337
▁fund 3337
▁longer 3335
▁imprisonment 3331
hen 3328
CI 3326
▁platform 3324
▁skill 3324
tom 3323
▁ceremony 3316
ender 3315
▁independence 3314
ised 3310
▁sha 3310
▁sold 3305
ura 3304
▁worker 3304
▁initial 3304
▁double 3303
ology 3303
▁device 3302
▁waste 3301
▁tension 3300
▁Ku 3300
dhar 3299
▁heat 3299
▁Bombay 3298
▁Noida 3297
▁leg 3296
▁Thackeray 3296
ood 3295
▁draft 3295
▁formula 3293
▁Technology 3293
▁shock 3292
▁operations 3292
▁burden 3291
▁Telangana 3291
ava 3291
▁internal 3289
▁boy 3287
▁cast 3285
▁mission 3285
▁walk 3284
▁destroyed 3284
▁Islamic 3282
▁Tilak 3281
▁ANI 3281
▁gene 3279
▁Salman 3273
▁sell 3273
bul 3272
▁meaning 3271
! 3270
▁failure 3269
▁confirmed 3267
tru 3266
▁hill 3263
pp 3262
▁poverty 3262
▁document 3262
▁Human 3259
▁noteworthy 3258
▁formal 3257
ric 3256
▁tweet 3255
▁RJD 3253
▁style 3253
▁auto 3253
▁kilometers 3252
In 3251
▁passing 3251
▁learn 3247
ably 3243
hara 3242
▁Em 3241
▁connected 3240
▁installed 3239
ax 3238
▁patients 3238
▁Wi 3238
▁apply 3237
▁Sara 3236
ama 3236
▁essential 3236
▁submit 3234
▁Power 3234
▁promotion 3232
▁reality 3229
▁adopted 3227
▁Bhu 3226
▁brothers 3226
▁popular 3224
eshwar 3222
▁complaints 3220
▁Yoga 3220
▁tickets 3220
▁raising 3218
▁specific 3218
▁Swami 3217
ey 3215
▁filled 3213
jan 3212
▁sharp 3210
▁animals 3209
▁throughout 3208
▁Gur 3208
▁Lanka 3205
▁Jat 3202
▁balance 3202
▁copy 3202
▁Asaram 3201
▁Col 3201
▁symbol 3200
▁grow 3200
▁solve 3199
▁Authority 3199
▁depend 3199
▁cow 3198
ita 3194
▁signal 3193
ok 3193
▁assistance 3189
▁experts 3189
▁includes 3189
til 3187
▁fill 3185
▁carry 3185
verse 3184
▁demands 3183
▁treat 3183
fin 3183
▁proof 3181
▁chair 3180
▁petrol 3180
▁opens 3176
▁gathered 3174
▁sit 3172
▁cell 3172
▁Pune 3170
▁withdraw 3168
sar 3167
▁union 3166
▁items 3163
▁flat 3162
▁Sat 3161
▁implement 3160
▁suspended 3159
Jassa 3159
▁tenure 3157
▁compared 3156
zar 3154
▁tweeted 3154
▁App 3152
▁valley 3152
▁Azad 3151
▁license 3149
▁introduced 3149
form 3148
▁Ramesh 3148
▁Amar 3148
vas 3147
▁deposited 3147
▁storm 3146
▁damage 3143
ught 3143
▁convicted 3140
▁vice 3139
▁bringing 3138
▁king 3138
▁occur 3134
▁Four 3133
rom 3132
eep 3131
uring 3130
▁fee 3128
ral 3128
▁joining 3126
▁limited 3123
▁Station 3122
▁programs 3117
▁blow 3117
▁tribal 3116
▁notification 3116
mu 3114
own 3113
▁Civil 3113
▁profit 3111
▁x 3108
▁granted 3106
▁Navy 3105
▁rail 3101
▁communication 3097
▁apart 3097
▁achievement 3097
▁Far 3095
▁advised 3095
70 3095
▁electoral 3094
ological 3094
▁establish 3093
ix 3093
▁enemy 3092
▁AK 3092
▁cross 3091
▁youths 3091
▁sending 3090
▁JDU 3089
▁Scheme 3088
uran 3088
▁offered 3087
▁thus 3087
pose 3084
▁showed 3084
▁advice 3081
▁bribe 3081
▁literature 3080
▁interests 3079
▁Prior 3074
▁server 3074
▁NCP 3072
▁Manohar 3071
▁32 3071
▁du 3068
▁Could 3064
▁objection 3062
▁size 3062
▁table 3060
▁agricultural 3059
▁drinking 3058
▁Magistrate 3056
▁Pi 3056
▁Left 3055
▁strengthen 3055
▁exist 3054
giving 3054
light 3052
▁era 3050
▁stock 3048
▁Naxalites 3048
▁sons 3046
▁surrounded 3044
▁south 3043
▁martyr 3037
▁Monika 3036
▁Meerut 3035
▁drive 3034
▁range 3033
ank 3033
▁Azam 3032
▁prisoners 3032
▁chas 3031
cept 3031
▁belongs 3031
▁easily 3030
▁appeared 3029
▁rates 3026
▁2006 3026
▁Which 3026
▁challenged 3025
▁pilot 3025
▁36 3024
▁spirit 3022
ement 3021
▁print 3019
▁Japan 3017
▁Mahatma 3016
▁tea 3016
▁satellite 3016
low 3015
▁gain 3012
meter 3012
▁suddenly 3011
▁Kam 3010
▁Ya 3010
▁prepare 3009
▁actually 3007
▁Gul 3006
▁liter 3004
▁Pawar 3002
▁units 3001
▁Babu 3001
▁favour 3001
▁watch 3000
▁Time 2997
▁Kiran 2997
bir 2997
▁ball 2996
▁represent 2995
▁remaining 2995
▁dialogue 2993
▁Know 2993
▁tri 2992
ID 2990
▁commit 2990
▁channel 2988
▁faces 2987
▁fired 2986
▁branch 2985
▁design 2984
▁raid 2983
▁mankind 2983
▁alive 2982
▁Bir 2982
▁5. 2981
▁fr 2980
▁posted 2978
int 2978
▁figures 2978
pet 2976
mis 2975
▁Ch 2975
▁gate 2975
▁Nag 2973
▁Mallya 2972
▁cont 2971
▁Digvijay 2971
room 2965
▁Five 2963
▁speaking 2962
▁headed 2961
▁hidden 2961
▁infrastructure 2960
▁positive 2960
▁requested 2959
MC 2958
▁Select 2958
▁Chauhan 2956
bur 2956
▁Odisha 2955
cho 2955
ail 2955
▁consumer 2952
▁shop 2950
▁messenger 2947
▁Vajpayee 2947
▁visited 2947
▁Samajwadi 2947
▁millions 2946
▁angels 2943
▁simple 2941
▁beat 2941
▁daughters 2939
wer 2938
▁gun 2936
af 2936
▁mode 2935
▁finance 2934
ves 2930
▁participate 2930
dom 2929
▁BSF 2929
▁IS 2928
], 2927
▁principle 2926
ake 2925
▁constitution 2925
▁Pandit 2924
▁store 2921
▁trees 2921
hir 2920
▁chairman 2919
app 2919
▁absence 2917
▁Gopal 2916
▁organis 2916
▁Abdul 2915
▁rising 2915
hari 2915
▁permanent 2915
▁lived 2914
▁arrival 2913
▁log 2912
▁discussions 2912
aries 2912
▁Sikh 2912
▁overcome 2910
▁extreme 2909
set 2906
▁Legislative 2905
▁Keep 2903
▁facts 2903
ave 2902
▁figure 2898
40 2898
▁regional 2896
pan 2896
▁homes 2895
▁Investigation 2894
ox 2893
▁Hari 2891
rous 2891
▁resign 2890
▁draw 2889
▁toilet 2887
pon 2886
▁innocent 2886
▁master 2883
ula 2882
▁Agency 2882
▁consist 2882
ina 2878
▁prison 2877
▁CRPF 2876
▁Ajay 2875
▁Ran 2875
▁god 2875
▁contribution 2874
▁priority 2871
▁measure 2871
▁writer 2870
▁Science 2869
▁user 2868
▁2005 2867
▁arms 2865
▁monitor 2860
▁camera 2860
▁slow 2859
▁meters 2859
▁interview 2857
▁fe 2857
▁Sp 2856
▁strongly 2855
▁Thakur 2855
▁suffer 2854
▁agree 2854
▁ended 2853
bil 2851
▁executive 2850
▁highway 2849
▁location 2848
15 2846
wala 2845
▁Afghanistan 2845
▁agriculture 2843
▁Nitin 2842
▁nomination 2842
▁Western 2840
▁Social 2839
▁weight 2837
▁secure 2836
EC 2835
▁beyond 2833
▁mid 2831
PL 2831
bh 2831
▁inform 2831
▁jobs 2830
▁hurt 2830
▁ancient 2828
▁premises 2826
try 2825
▁torment 2825
▁Dh 2824
▁crop 2824
▁definitely 2823
▁constituted 2823
▁height 2821
▁institute 2821
▁please 2820
tation 2819
kant 2819
▁Resource 2819
▁bi 2819
cu 2816
▁hide 2816
▁existence 2816
▁Nations 2815
▁mutual 2815
▁knew 2815
▁fish 2815
▁Park 2813
▁gift 2813
lum 2812
▁JNN 2811
▁Reserve 2811
▁significant 2809
▁helped 2809
▁forgive 2807
uri 2807
▁understanding 2805
▁mouth 2804
ker 2803
▁witnesses 2802
▁advance 2801
▁Through 2801
▁cloud 2800
point 2800
nce 2799
▁Jag 2798
believers 2798
iff 2797
▁departments 2797
IT 2796
▁truck 2796
▁cricket 2796
▁clarified 2792
▁kg 2790
▁Sen 2786
dition 2784
▁separatist 2784
▁admission 2782
▁2002 2780
▁powerful 2778
▁detect 2778
▁Dhan 2777
▁urban 2777
▁relat 2777
▁ju 2776
85 2775
▁Ravindra 2773
▁Company 2772
▁forget 2772
▁cor 2772
▁tourists 2771
▁administrative 2767
mun 2766
▁pension 2766
▁Line 2765
▁council 2762
▁throw 2761
▁Sharif 2761
▁visa 2759
▁counter 2759
▁Ph 2758
▁constitutional 2757
▁rent 2756
— 2754
election 2752
▁mention 2750
ksha 2747
▁expect 2744
▁Chandigarh 2743
▁par 2743
ories 2742
▁sad 2742
▁Sanskrit 2742
ell 2741
▁entry 2740
▁Bhan 2739
▁equipment 2739
▁diseases 2738
▁Bharti 2732
; 2731
over 2730
▁Any 2730
etic 2727
▁lay 2727
grad 2724
▁poem 2724
NS 2723
SA 2723
▁Anil 2722
▁Para 2722
▁Bharatiya 2721
pit 2718
▁estimated 2717
pre 2717
▁cry 2717
▁decades 2717
erciful 2715
like 2714
mm 2714
▁Christian 2712
25 2711
▁shoot 2708
▁plain 2706
▁anger 2704
▁astray 2704
lab 2703
pla 2702
▁Sing 2701
▁legislator 2701
▁root 2700
▁scientists 2698
▁square 2697
▁Jail 2696
▁Organization 2696
vati 2694
▁assets 2694
▁breath 2692
▁cat 2691
▁examined 2690
▁filing 2689
▁Kun 2689
▁violent 2688
▁Son 2688
▁laid 2686
▁cleanliness 2684
▁Bhai 2683
hind 2683
▁blasts 2681
ier 2680
member 2678
▁guided 2678
▁begun 2677
▁twenty 2676
▁conflict 2675
ened 2674
▁complained 2673
▁silent 2672
▁telling 2672
igh 2672
▁signed 2671
▁foundation 2671
▁75 2670
▁rebel 2669
▁lesson 2669
▁playing 2668
▁mountain 2668
▁Seeing 2668
▁invited 2666
pen 2666
▁IIT 2666
▁Food 2665
▁Kishor 2664
▁addressing 2663
bin 2662
▁33 2661
▁2004 2660
▁slogans 2660
▁industries 2660
▁invest 2659
▁List 2658
▁establishment 2658
ps 2657
▁agenda 2657
▁Actually 2656
▁choose 2655
▁dance 2651
▁insurance 2650
▁Vishwa 2649
▁Indo 2649
▁London 2649
▁calling 2647
▁representatives 2646
▁fat 2645
▁Sir 2643
▁counsel 2642
ken 2640
▁Meteorolog 2640
▁linked 2639
▁player 2638
ban 2637
▁Nar 2637
▁manager 2636
▁teach 2635
▁surrender 2635
▁extended 2634
▁replace 2634
▁sacrifice 2633
▁Front 2631
▁drug 2630
▁distribution 2630
▁hum 2630
▁Trump 2629
60 2628
▁retired 2628
ED 2627
▁Abdullah 2626
▁appropriate 2625
▁count 2625
wara 2622
▁connect 2618
▁spoke 2617
▁primary 2616
▁CD 2615
▁Gra 2614
▁spite 2614
▁planning 2614
▁western 2614
▁happening 2613
▁Suresh 2612
▁male 2611
▁cultural 2611
▁investigated 2608
▁Internet 2607
▁Taj 2605
▁dec 2605
▁views 2604
▁City 2602
asi 2601
▁studies 2601
▁Reddy 2601
▁Mir 2601
▁Parrikar 2601
▁Nay 2601
eem 2600
▁fighter 2600
▁Article 2600
▁traditional 2599
▁settled 2599
▁temp 2598
▁difficulties 2598
▁asking 2596
▁feature 2596
▁passport 2596
▁busy 2595
vir 2595
▁welfare 2594
pati 2593
▁poll 2593
ld 2592
ero 2591
ek 2590
SP 2590
▁tru 2588
▁Another 2588
▁celebrated 2588
▁belong 2588
▁continues 2587
▁guest 2586
▁educational 2586
▁continuous 2586
dri 2585
▁receiving 2584
▁screen 2584
▁Just 2581
▁Bhavan 2581
▁Mufti 2580
▁beautiful 2580
▁standard 2579
▁objective 2577
▁enable 2575
pha 2574
▁treated 2574
ick 2573
▁shared 2572
▁Shukla 2572
12 2570
▁spiritual 2570
▁opening 2568
▁cancer 2568
▁tonnes 2568
▁memory 2566
▁pan 2564
▁functioning 2563
▁crops 2563
▁Ajit 2562
▁hot 2557
BJP 2555
▁Yamuna 2554
▁selection 2554
▁fundamental 2554
▁respond 2552
gaon 2551
▁suggested 2550
▁Policy 2550
▁commercial 2550
▁7. 2550
▁labor 2550
▁Kul 2549
▁elements 2549
jit 2548
▁Rural 2547
ko 2547
▁anniversary 2546
▁unable 2546
▁serve 2546
▁stones 2545
▁usually 2545
▁militants 2543
▁continuously 2542
▁Bad 2541
▁disaster 2541
ject 2540
▁UN 2536
▁partner 2536
▁colo 2535
▁colleagues 2533
▁monitoring 2533
pura 2532
▁marry 2532
rup 2532
▁Tan 2530
▁Deepak 2529
▁studying 2529
▁Make 2528
▁sight 2527
▁authorities 2525
▁Mission 2525
▁Meh 2525
▁NGO 2524
▁farmer 2524
▁soft 2523
tle 2523
ident 2522
▁trapped 2521
▁carrying 2519
▁Google 2519
jj 2518
▁37 2518
▁load 2518
▁photograph 2516
▁poison 2516
▁revolution 2516
▁surface 2516
77 2515
▁improvement 2513
▁notable 2511
▁passenger 2510
▁revenue 2510
▁escape 2510
▁rob 2509
ancy 2509
▁winter 2509
▁statue 2505
PF 2505
▁moral 2505
▁Limited 2504
ov 2504
▁potential 2504
▁silence 2504
▁Said 2503
▁piece 2502
▁runs 2501
▁Airport 2500
▁Nand 2500
▁pray 2499
▁Sector 2498
▁Obama 2496
▁floor 2496
▁stated 2495
cies 2494
▁spreading 2494
▁Swamy 2494
▁Priyanka 2494
▁stayed 2491
▁burning 2491
▁recommended 2490
▁shape 2488
▁stood 2488
▁Irani 2487
▁Mohammed 2487
▁praise 2485
▁Schedule 2484
▁mere 2483
based 2482
▁taught 2482
▁twice 2481
▁leading 2478
▁Mad 2477
▁removal 2477
▁SC 2476
ump 2474
▁polling 2472
▁possession 2471
▁urged 2470
▁reveal 2468
▁Prem 2468
hri 2468
▁destroy 2465
vel 2464
▁fresh 2462
by 2462
DP 2461
kan 2461
▁papers 2461
▁IAS 2459
▁Naxal 2458
▁photo 2458
▁divided 2458
▁happiness 2457
▁assault 2456
▁minority 2456
presidential 2455
▁dig 2455
itude 2453
kal 2452
▁lies 2452
▁Manipur 2451
▁Joint 2450
▁Sushil 2450
▁sensitive 2448
▁resolution 2448
▁affairs 2447
of 2446
▁escaped 2446
▁centers 2442
▁Children 2442
▁mountains 2441
pense 2441
▁courage 2440
▁complex 2439
rop 2438
ough 2436
▁Indore 2433
lest 2432
▁standards 2431
▁Subhash 2431
▁journalists 2430
▁arrangement 2430
▁worse 2430
▁moon 2430
ora 2429
▁RBI 2429
▁48 2428
▁diesel 2426
▁servants 2426
▁questioning 2424
▁languages 2424
▁Chi 2423
▁boat 2423
▁Path 2422
▁origin 2421
▁scope 2421
▁Garden 2419
▁Mother 2418
▁agent 2417
▁painful 2417
▁obey 2417
▁Ganges 2416
▁arise 2415
fu 2415
▁See 2415
▁activity 2415
▁title 2414
▁Hon 2414
▁Iran 2412
▁software 2410
deep 2409
▁planned 2408
▁Ambedkar 2407
back 2405
▁charged 2405
▁Nath 2404
-20 2403
▁package 2403
▁dam 2401
OP 2401
▁Regard 2400
AAP 2400
▁collect 2400
▁Management 2399
▁Ghaziabad 2397
▁neighbo 2397
▁ongoing 2396
▁registration 2395
▁Rajendra 2395
▁Ranchi 2395
▁extent 2394
▁choice 2393
rang 2393
▁deceased 2392
▁convert 2391
▁Rawat 2390
▁Sai 2388
▁ideal 2388
▁mean 2387
▁judgment 2385
▁pilgrims 2385
▁winning 2385
▁hospitals 2384
▁Lokayukta 2383
▁soil 2383
▁Dawood 2382
▁Om 2382
▁RTI 2381
tant 2381
rselves 2380
▁detailed 2378
▁ji 2378
tech 2377
▁Directorate 2377
▁wind 2376
▁clothes 2375
kot 2374
▁fields 2374
▁grain 2374
▁install 2373
▁ATM 2373
▁currency 2373
▁reading 2370
▁cheap 2369
▁visible 2366
▁pure 2366
▁bag 2365
▁Mala 2364
ES 2363
▁42 2359
▁Agriculture 2359
tric 2357
bhi 2356
anga 2356
▁box 2356
▁refer 2354
spiration 2353
▁Iraq 2352
▁produced 2350
▁damaged 2350
▁Jal 2349
rust 2349
▁sections 2349
▁race 2348
▁Command 2348
▁Transport 2348
▁Arunachal 2348
▁blind 2348
cular 2347
▁Bala 2347
▁Republic 2345
▁Code 2344
▁Well 2344
▁grand 2342
▁performed 2341
▁fail 2340
▁afraid 2340
CC 2339
▁Ayodhya 2338
▁saint 2338
▁Korea 2337
▁mining 2337
▁dwell 2337
▁forgiveness 2337
▁Hell 2337
pora 2335
▁habit 2335
▁context 2335
▁covered 2335
▁province 2335
▁customers 2334
▁trip 2334
▁catch 2334
▁Ansari 2334
▁saving 2333
▁streets 2331
port 2331
▁Project 2331
BC 2330
▁Tra 2329
▁DMK 2329
▁Talk 2328
▁farm 2327
▁series 2327
▁membership 2326
▁collection 2324
ically 2324
▁handle 2322
▁tremendous 2321
▁salary 2321
▁differences 2321
ade 2321
▁bond 2319
▁colleges 2319
▁Muzaffarnagar 2317
▁engineer 2316
▁Mani 2314
▁Maj 2314
▁neighboring 2313
▁unique 2313
▁medicines 2311
▁stress 2311
chand 2310
▁Superintendent 2310
▁yesterday 2304
▁apologize 2304
▁knowing 2303
▁hundreds 2302
long 2302
▁achieved 2301
▁stream 2301
▁Lashkar 2299
▁celebrate 2298
▁emerged 2297
▁acquisition 2297
▁Ranjan 2296
▁sex 2296
▁camps 2296
▁arrive 2295
▁ideas 2295
▁150 2295
▁exposed 2294
▁suffered 2293
▁taste 2293
▁Cr 2292
▁perform 2292
▁raj 2292
▁subsidy 2292
▁sanction 2290
▁Brahma 2290
II 2289
chal 2288
▁unity 2288
▁Highway 2286
▁bilateral 2286
▁events 2286
cut 2286
▁Africa 2285
▁Saudi 2283
▁idol 2282
▁teenager 2279
▁confirm 2278
▁sometimes 2278
▁hero 2277
uja 2274
▁vision 2273
▁calls 2272
▁citizen 2272
▁Abu 2272
IS 2271
▁Tata 2270
▁bio 2270
▁classes 2269
volve 2268
eg 2268
▁fan 2268
▁poster 2268
▁Je 2266
▁scheduled 2265
▁valid 2265
▁consent 2265
▁digital 2263
▁Arabia 2263
▁finally 2263
▁corporation 2262
▁dangerous 2262
▁Society 2261
▁supporting 2261
India 2261
▁controversial 2260
▁reflect 2258
▁park 2257
▁proud 2256
▁Had 2256
▁AC 2256
AN 2256
▁looked 2256
tract 2255
lap 2254
45 2254
▁Fund 2253
▁opportunities 2252
▁nearby 2252
▁metro 2252
RO 2250
▁Shinde 2250
▁El 2249
puri 2248
fil 2248
▁spec 2247
11 2246
▁Award 2246
▁medium 2246
▁Prof 2246
▁records 2246
isation 2246
▁lose 2245
▁eliminate 2245
▁Bedi 2245
▁Ti 2244
▁tank 2244
▁stuck 2243
▁reaction 2242
▁procedure 2242
▁bills 2241
▁reform 2239
load 2239
▁Nor 2238
▁Given 2237
▁Netaji 2237
▁warm 2236
▁AIIMS 2236
▁magic 2235
▁relation 2235
▁Haj 2234
▁understood 2233
▁burn 2233
▁emergency 2232
▁Satya 2232
SC 2230
▁fit 2229
▁lib 2229
▁values 2228
▁unknown 2228
▁factor 2228
wn 2227
▁bound 2226
▁cancel 2225
▁emphasis 2225
▁recommendations 2224
▁ruckus 2224
▁trend 2223
▁friendship 2223
▁governance 2223
▁fought 2222
ular 2222
▁Dha 2221
▁novel 2221
▁fraud 2220
▁referred 2220
▁university 2220
▁belief 2219
▁Var 2219
▁Atal 2217
ML 2217
board 2216
▁starting 2215
▁openly 2215
ER 2215
rid 2214
▁Executive 2213
PTI 2212
▁properties 2212
▁Red 2212
19 2211
uck 2211
▁Out 2211
▁fishermen 2210
▁AIADMK 2210
▁Calcutta 2209
▁resolve 2207
▁awareness 2207
▁drama 2207
▁lawsuit 2206
▁challenges 2206
▁Municipal 2206
▁wound 2204
▁instrument 2204
▁slogan 2203
▁breaking 2203
▁product 2202
▁films 2202
▁Sho 2201
▁wishes 2201
▁adequate 2199
▁bone 2199
▁remote 2198
▁dog 2198
▁European 2198
▁anywhere 2197
▁2001 2195
mic 2195
▁suggestions 2194
MA 2194
76 2192
▁decline 2192
▁strategic 2191
▁completion 2191
▁lying 2190
▁guidelines 2189
nam 2188
▁dust 2187
press 2185
▁pull 2185
▁Bench 2185
▁Yes 2185
▁34 2184
unch 2182
▁Akbar 2182
▁journalist 2181
IN 2181
88 2180
illa 2179
▁interesting 2178
▁JD 2178
▁Du 2178
▁Sudhir 2177
▁Omar 2177
bl 2177
nt 2176
▁Inspector 2175
▁generally 2175
▁properly 2174
▁criminals 2173
▁Referr 2172
▁sand 2172
▁transferred 2171
▁seem 2170
AI 2169
▁teaching 2169
▁straight 2169
▁Jay 2168
▁falling 2167
mail 2166
▁adj 2165
▁ability 2165
▁shortage 2164
ibility 2163
▁applications 2163
▁unjust 2163
▁Yet 2163
▁Ve 2162
▁Once 2161
▁liquor 2160
▁tear 2160
▁version 2160
▁abuse 2159
▁empty 2158
▁birthday 2158
post 2158
▁stick 2157
▁closure 2157
▁brain 2155
▁delegation 2155
▁fly 2154
gress 2153
▁Earth 2153
▁species 2153
▁Prashant 2152
▁collected 2152
ili 2152
▁Srishti 2150
▁Rang 2150
▁Chha 2148
▁engine 2147
▁probably 2147
▁Though 2147
▁drop 2146
▁indicated 2145
hood 2145
▁perhaps 2145
▁spectrum 2144
▁SSP 2144
89 2144
pher 2143
▁declare 2142
▁concept 2141
▁interrogation 2140
▁Trust 2137
▁push 2137
▁Valley 2136
▁competition 2135
▁Britain 2135
▁expression 2133
▁surrounding 2132
▁penalty 2132
▁mass 2130
▁Trans 2130
Jagran 2129
▁SIT 2129
▁swear 2129
▁Environment 2129
▁stranded 2127
▁300 2127
▁Principal 2126
▁Dikshit 2126
mination 2125
▁transform 2125
▁happens 2124
▁Atul 2122
▁wise 2122
tribut 2122
▁thrown 2122
wari 2122
▁manifest 2122
hat 2121
▁Padma 2120
▁learned 2119
▁Sea 2118
▁commander 2118
▁custom 2118
▁resigned 2117
▁celebration 2117
▁VK 2117
▁iron 2116
▁welcome 2116
▁technique 2115
▁select 2114
-1 2113
ada 2113
▁65 2111
▁Amritsar 2110
▁Bagh 2110
▁relative 2109
▁revelations 2109
▁boys 2108
▁snowfall 2108
▁Yatra 2107
▁suit 2107
▁snow 2107
▁possess 2107
▁Child 2106
▁France 2106
▁sufficient 2105
▁transactions 2105
shankar 2104
▁Bose 2102
▁poetry 2102
▁employee 2101
▁leak 2100
lat 2099
▁Sukh 2099
▁vegetable 2097
▁marks 2096
▁adult 2095
▁Economic 2095
▁promises 2094
▁arranged 2094
▁shops 2094
fence 2093
▁achieve 2092
oon 2091
matic 2091
▁episode 2090
▁Dainik 2090
▁meantime 2090
▁Madhu 2088
▁consideration 2088
▁preparation 2086
94 2084
▁applied 2082
99 2082
▁Taking 2080
▁wheat 2080
oph 2078
anj 2078
▁capable 2078
▁IPS 2077
▁verses 2077
▁Bhupendra 2076
▁probe 2075
haraoh 2075
▁bow 2074
▁sites 2074
▁Services 2073
▁yoga 2071
▁agitation 2071
▁stories 2070
AW 2069
▁Member 2068
hana 2067
▁suspect 2067
▁System 2064
▁Explain 2063
▁length 2063
▁upper 2063
▁sum 2062
ami 2059
▁reforms 2059
AC 2058
rel 2057
▁fruit 2055
▁bath 2051
▁Kapil 2049
▁Nam 2049
▁Vadra 2049
appa 2047
▁holding 2045
▁aspects 2045
▁Vidya 2044
▁harassment 2044
▁BS 2042
▁expand 2042
▁corrupt 2042
▁44 2041
jo 2041
▁Uma 2039
ila 2039
fall 2039
▁herself 2038
▁punish 2037
▁requirement 2037
▁selling 2037
▁sick 2037
▁Abraham 2037
▁Bho 2034
▁lawyers 2034
▁solar 2034
▁divers 2031
mighty 2031
▁fuel 2029
▁welcomed 2028
▁tough 2026
▁municipal 2026
▁Shar 2025
▁Metro 2024
▁issuing 2023
▁Temple 2022
▁fifth 2022
▁clash 2022
▁developing 2022
▁Resurrection 2022
▁beaten 2021
RT 2021
▁shift 2021
▁expensive 2020
▁Her 2020
▁allegedly 2019
▁hunger 2019
▁Giri 2019
ministerial 2018
▁withdrawal 2017
▁partners 2017
work 2016
▁pick 2016
▁external 2016
▁coach 2016
▁Ghulam 2014
▁Like 2014
▁elderly 2013
▁Tu 2012
▁micro 2012
pping 2011
▁Nirmal 2010
▁animal 2010
▁Dehradun 2009
fully 2009
▁Sunil 2008
▁Use 2008
▁contesting 2007
pu 2007
▁UK 2006
▁Gha 2005
▁Land 2004
▁learning 2004
▁Follow 2003
▁putting 2003
▁email 2002
▁Gen 2001
▁occurred 2000
▁commissioner 1999
▁oppose 1999
▁scene 1999
▁summoned 1998
▁auction 1998
▁Engineer 1997
▁careful 1994
▁Sheikh 1993
▁defend 1992
▁watching 1992
▁fulfilled 1991
▁perfect 1991
▁Border 1990
▁artist 1990
▁1999 1989
▁Hu 1989
▁Mohammad 1989
▁55 1989
ku 1989
▁scientific 1989
▁Yogi 1988
▁Sibal 1987
▁absconding 1987
▁lift 1987
▁campus 1986
▁Bhagwat 1986
▁Bihari 1985
▁Bollywood 1985
▁parliament 1985
▁behavior 1985
mortem 1984
▁historic 1984
▁Dhar 1982
▁internet 1981
▁Europe 1980
▁permit 1980
▁Amitabh 1976
▁CAG 1976
▁centre 1976
gri 1974
▁burnt 1974
▁ISI 1973
▁Bel 1971
▁require 1971
▁Ven 1968
▁songs 1968
▁hat 1967
▁Recently 1966
ghat 1965
▁pic 1965
▁airline 1963
▁involvement 1963
▁cattle 1963
amba 1962
▁eating 1961
graph 1961
▁Ki 1960
# 1960
▁Open 1959
▁experiment 1959
▁dry 1959
▁repeatedly 1958
▁demonstration 1958
▁condemned 1956
▁arguments 1955
▁amend 1955
▁Kaur 1955
▁folk 1955
▁Officials 1953
▁identify 1953
▁Australia 1953
▁Relat 1953
▁riot 1951
▁supremo 1948
TE 1948
▁repair 1947
▁Post 1947
▁booth 1947
▁businessman 1946
bhu 1946
▁argued 1945
▁highly 1945
▁Niranjan 1945
▁Fail 1945
▁earn 1944
▁Did 1943
▁Saeed 1942
▁fruits 1942
lay 1941
▁movie 1937
▁earned 1936
▁ration 1935
▁Set 1935
▁Branch 1934
▁assurance 1934
angle 1933
▁IG 1933
▁although 1933
▁praised 1932
▁Professor 1932
▁electronic 1932
▁Jyoti 1931
▁Moh 1931
▁expansion 1931
▁criticized 1930
▁tomorrow 1929
▁Eastern 1929
dings 1929
▁engineering 1928
band 1928
RP 1928
▁rock 1927
▁tight 1925
CO 1925
▁slave 1923
▁factory 1922
▁Sang 1921
▁Manjhi 1921
▁Agarwal 1920
▁dark 1919
▁Sardar 1918
▁Khurshid 1917
▁comments 1916
▁recruitment 1916
▁Arab 1916
▁audit 1915
▁sharing 1915
▁gl 1914
▁extra 1912
14 1912
▁communities 1912
▁mosque 1911
22 1911
▁Gorakhpur 1910
▁winds 1910
▁defeated 1909
▁2003 1909
twitter 1909
▁FDI 1908
▁Address 1908
▁warrant 1908
▁Enter 1908
▁chemical 1908
▁cleaning 1907
▁Venkaiah 1907
▁pictures 1907
▁neck 1907
▁settlement 1903
▁drugs 1903
RC 1902
▁Jadhav 1902
nan 1901
▁utili 1901
▁politicians 1901
▁Shiva 1900
▁Truth 1900
▁opposing 1899
▁Amethi 1899
face 1898
▁enthusiasm 1898
▁Wise 1898
▁raided 1896
▁pattern 1896
▁script 1895
▁situated 1895
▁cave 1893
nic 1893
It 1892
▁managed 1892
▁Over 1890
▁massacre 1889
house 1889
18 1888
▁chosen 1888
right 1887
▁Intelligence 1887
SL 1886
▁upset 1885
ography 1885
car 1885
▁DM 1884
▁default 1884
▁cells 1884
▁Nawaz 1882
▁spokesperson 1881
▁reduction 1880
▁sisters 1880
▁operating 1880
▁staying 1878
▁Sahib 1877
▁sugar 1877
▁finger 1876
▁flee 1876
▁Sham 1875
▁devo 1874
▁Sign 1874
▁earning 1873
▁format 1873
▁Shivraj 1872
▁environmental 1872
▁whi 1872
ould 1872
▁bought 1871
col 1871
▁healthy 1871
▁recite 1871
▁holiday 1870
▁tourism 1870
▁secular 1870
▁Vinod 1868
▁wearing 1868
▁van 1865
▁drought 1864
▁ruled 1863
▁disturbance 1863
▁users 1862
▁mechanism 1862
▁deliver 1862
▁participation 1861
▁PDP 1860
▁Kumari 1860
▁consequence 1860
▁Account 1860
▁Welfare 1858
▁blessings 1858
▁climb 1857
▁wear 1857
13 1856
▁detained 1856
▁quarter 1853
chandra 1853
▁separated 1851
▁mill 1851
SE 1850
▁northern 1850
▁professional 1849
▁fix 1849
len 1849
▁fog 1846
tive 1846
▁younger 1846
35 1846
▁Sim 1846
▁recommendation 1844
ending 1843
▁Goyal 1843
▁Raipur 1842
▁2018 1841
▁alcohol 1841
▁continuing 1841
▁hair 1841
▁skin 1841
▁Vikas 1840
▁peak 1840
▁storage 1840
crea 1840
▁Thou 1840
▁Israeli 1839
▁Lakh 1838
▁noise 1838
▁Mohit 1838
▁wonder 1837
▁retail 1836
etween 1835
▁principal 1835
aria 1835
aya 1835
conf 1834
▁jump 1834
▁promoting 1834
▁Press 1833
▁Kedarnath 1832
▁password 1832
▁Kashi 1830
rai 1830
▁vacant 1829
▁1000 1828
▁execution 1828
▁Besides 1827
▁Shashi 1827
▁Mathura 1827
▁addressed 1827
▁irrigation 1827
ivity 1826
▁Satan 1826
▁Major 1824
95 1824
▁rare 1824
▁critical 1823
▁consult 1823
▁item 1822
▁bestow 1822
▁useful 1821
▁Year 1821
scribe 1821
empt 1820
▁Amarnath 1819
▁hono 1819
▁song 1818
▁disclosure 1817
bhai 1817
▁Rajan 1815
▁ISRO 1815
▁gods 1815
▁ruin 1813
▁lock 1812
▁constructed 1811
▁protested 1810
▁wives 1810
▁Chit 1809
read 1808
▁Six 1808
▁Political 1808
▁opponent 1808
▁insult 1808
▁38 1807
▁anand 1807
▁Devendra 1806
▁convey 1806
▁mandatory 1805
atic 1805
▁withdrawn 1804
▁buses 1804
▁sample 1803
▁apost 1803
▁mu 1802
▁Exp 1801
▁encourage 1801
▁implementing 1801
▁Dutt 1801
▁Durga 1800
▁RK 1800
▁feared 1799
▁worried 1799
▁operator 1799
▁roof 1798
▁dirt 1798
▁household 1797
▁beauty 1797
▁Mandi 1796
▁expert 1796
ong 1795
▁trained 1795
▁Himalaya 1795
▁spoil 1794
▁Yeddyurappa 1793
▁hanged 1793
▁critic 1793
krishna 1793
▁collapse 1791
▁string 1791
▁locked 1790
▁surgical 1790
▁Ab 1789
▁manufacture 1789
▁advertisement 1789
▁Hour 1789
▁Shu 1787
ock 1786
▁gathering 1786
▁Pratibha 1786
▁Look 1786
▁Bahadur 1786
▁constant 1785
▁concrete 1785
most 1785
▁Ge 1784
mission 1783
▁refuse 1781
▁threatening 1781
▁CCTV 1781
▁finding 1780
▁portion 1780
▁uncle 1778
▁wake 1777
▁Joseph 1777
▁universities 1777
▁Port 1775
▁Action 1774
▁paying 1774
▁raped 1773
▁ashram 1772
arch 1772
AL 1771
▁Life 1770
tisement 1770
▁labo 1770
▁Independence 1768
craft 1768
▁contribute 1767
DR 1767
▁proceed 1766
17 1766
rao 1766
▁garbage 1765
▁channels 1765
cycl 1765
▁honest 1765
▁Germany 1765
▁diplomatic 1764
▁association 1764
▁suspected 1764
▁Advisor 1764
off 1762
CR 1761
▁reference 1761
75 1760
Ma 1759
▁Panch 1759
▁Pathankot 1759
▁activists 1758
▁Afzal 1758
▁Maulana 1758
▁LK 1757
▁dispos 1757
▁negative 1757
▁threw 1755
▁crack 1753
▁Gandhiji 1752
▁baby 1751
wada 1751
▁Syed 1750
lip 1750
▁Mahesh 1749
▁ordinary 1749
▁acres 1749
▁43 1748
▁Ibrahim 1748
▁Youth 1747
vision 1747
▁Kalam 1747
▁allowance 1746
▁attached 1745
▁career 1745
▁destination 1745
▁extend 1744
▁Count 1744
▁succeed 1744
▁Describ 1744
▁shelter 1743
▁interim 1742
▁mine 1742
▁democratic 1741
▁protesters 1740
▁fun 1739
wat 1739
▁Jodhpur 1739
lock 1738
▁yield 1738
▁egg 1738
▁motion 1737
▁Patil 1737
▁rice 1737
▁murdered 1736
power 1736
▁panic 1735
▁tender 1735
cal 1734
▁surprised 1734
▁allies 1734
▁lit 1733
▁honored 1733
▁Rule 1733
▁Guard 1732
▁searched 1732
▁Ham 1732
gre 1731
▁Crime 1731
▁Ten 1730
▁map 1730
▁39 1730
▁distinct 1730
▁Tribunal 1729
▁Advocate 1729
▁spoken 1728
▁prosecution 1728
▁cook 1728
▁misuse 1727
▁transgress 1727
▁dropped 1725
▁Kat 1724
▁Mehbooba 1724
▁DG 1724
▁resolved 1724
▁bungalow 1722
▁arm 1722
▁crossing 1721
▁attain 1721
▁zone 1720
▁entering 1719
▁dealing 1719
▁update 1717
▁instance 1717
▁birds 1716
▁bride 1716
▁Good 1714
pot 1714
▁farming 1714
▁successfully 1713
pel 1712
▁fierce 1712
ctic 1712
fore 1711
▁summon 1710
▁particularly 1710
▁medicine 1710
▁slip 1710
▁broadcast 1709
▁nominated 1709
▁complain 1708
▁Farooq 1706
▁improved 1706
▁gui 1706
▁mainly 1706
▁rainfall 1705
▁46 1704
▁disputed 1704
▁explained 1704
citing 1703
oda 1702
▁Bhag 1702
atta 1702
sembl 1702
vat 1701
▁Antony 1699
Congress 1698
▁warn 1697
▁indication 1697
▁badly 1697
▁allegation 1696
▁Upadhyay 1696
▁Foundation 1695
RA 1695
▁wedding 1695
▁offering 1694
▁Rana 1693
This 1693
▁scholar 1693
▁Ver 1693
▁prominent 1693
▁speaker 1692
▁finish 1691
▁decree 1691
▁rapidly 1690
▁Deep 1690
▁Rakesh 1690
RE 1690
▁assign 1689
▁unfortunate 1688
▁conclusion 1687
▁faction 1687
▁soldier 1686
▁Mukesh 1686
▁reserved 1686
NCR 1686
osis 1686
▁decade 1685
▁extension 1683
▁climate 1681
▁Kalyan 1681
▁improving 1680
▁Ye 1680
▁Surat 1679
▁mob 1679
▁elder 1679
▁band 1679
▁Kali 1678
▁File 1678
▁responded 1677
▁militant 1677
▁CO 1676
▁Bhatt 1676
▁Self 1676
▁donation 1674
DF 1673
▁refuge 1673
▁followers 1672
▁peaceful 1672
▁caus 1672
▁expenses 1671
▁intend 1671
▁awarded 1670
▁judiciary 1669
▁via 1669
▁comfort 1668
▁pack 1668
▁Urban 1667
▁weapon 1666
▁Vihar 1664
▁fled 1664
▁Raman 1663
▁Chowk 1663
▁editor 1663
▁otherwise 1661
▁broad 1661
▁studied 1661
▁panel 1660
▁minus 1660
pass 1659
▁Smriti 1658
▁prohibit 1657
▁wild 1657
▁prescribed 1657
▁respective 1655
▁Ghat 1654
16 1653
▁uniform 1651
▁sudden 1651
▁England 1651
phy 1651
▁cloth 1650
▁Whereas 1649
▁Desk 1649
▁appoint 1648
▁zero 1648
▁survive 1648
▁investors 1647
▁wages 1647
▁strange 1647
EN 1647
▁bin 1647
▁sweet 1646
▁estimate 1646
:30 1644
icide 1644
▁specified 1643
▁interaction 1642
▁47 1641
▁Gate 1641
▁panchayat 1640
▁tribute 1640
AR 1639
ppro 1638
▁Satish 1638
▁solid 1638
▁horse 1637
▁myself 1637
▁realis 1637
▁criticism 1636
▁accord 1636
▁Tibet 1636
▁affair 1635
▁divide 1635
▁bike 1634
▁dismiss 1634
▁elephant 1633
OS 1633
▁accepting 1633
▁traders 1632
▁Pradeep 1632
▁Dinesh 1631
▁stir 1629
▁fate 1629
▁Malik 1628
▁grace 1628
▁equation 1628
▁Nir 1626
▁branches 1626
▁Sita 1626
▁descend 1626
▁activist 1625
lok 1625
▁domin 1625
▁darkness 1625
▁Assistant 1624
▁recover 1623
▁obtained 1623
akir 1623
▁historical 1623
▁Free 1622
▁brand 1622
▁replied 1621
▁whenever 1620
▁Shyam 1620
▁postponed 1620
▁circle 1619
▁explosion 1618
▁Bhardwaj 1618
▁Jawaharlal 1618
▁Class 1617
▁Kur 1616
▁Mujahideen 1615
▁crash 1615
▁Paswan 1615
▁substance 1615
▁49 1614
▁challenging 1614
ential 1613
▁bid 1612
▁alternative 1612
▁childhood 1612
▁Near 1611
▁Bengaluru 1611
▁Gautam 1610
▁divine 1610
▁Gurgaon 1609
▁Gang 1609
▁troops 1608
▁resort 1608
▁slight 1607
▁Moradabad 1607
▁Big 1606
SS 1606
▁martyred 1606
▁Paradise 1606
▁Bachchan 1605
-2 1605
▁Mahal 1605
▁mood 1605
▁eastern 1605
▁worry 1603
▁graph 1603
gin 1601
▁punished 1601
▁convened 1601
▁entrepreneur 1600
▁exam 1600
gent 1600
IANS 1600
▁intellectual 1599
▁brief 1599
▁Rail 1598
▁summer 1597
▁Operation 1596
▁NSG 1596
▁Nagpur 1596
down 1595
dict 1595
▁scar 1595
▁Shan 1595
▁button 1595
▁drag 1595
▁consciousness 1593
▁satisfied 1591
▁quota 1591
▁Mak 1590
▁recom 1590
▁argument 1589
▁shame 1587
▁Harish 1587
▁Knowing 1587
▁delivered 1585
▁Mary 1585
▁Tanwar 1584
▁preserv 1584
▁Naxalite 1584
▁coast 1584
▁suggest 1584
name 1583
▁culprits 1582
state 1582
▁exemption 1581
▁companions 1581
▁procession 1579
▁distributed 1578
TC 1577
If 1575
▁assess 1575
▁reviewed 1574
▁edge 1574
how 1573
▁400 1572
▁Myanmar 1572
▁blamed 1571
▁fifty 1571
▁Hurriyat 1570
▁smart 1570
▁Tyagi 1570
▁assume 1570
▁flowers 1570
▁founder 1569
▁ideology 1569
▁Bareilly 1568
president 1568
▁entrusted 1567
▁stomach 1565
▁wood 1565
oth 1564
▁Pay 1564
▁heritage 1563
kumar 1563
▁Sultan 1563
▁background 1562
▁oppress 1562
▁blame 1561
▁detail 1560
yu 1559
▁thereof 1559
▁Take 1558
▁avail 1558
Centre 1558
▁repeated 1557
▁Naik 1557
▁sustain 1557
▁Part 1555
▁exit 1554
▁Madras 1554
▁Hal 1553
▁tiger 1553
▁web 1553
▁Pawan 1552
▁worst 1552
▁appearing 1551
▁Forest 1551
▁Dharma 1551
▁react 1551
▁laugh 1550
▁dress 1549
▁separately 1549
▁Instead 1548
▁41 1548
▁gangrape 1548
now 1547
▁frame 1547
▁Seven 1546
▁infiltration 1546
▁resentment 1546
▁suitable 1546
▁invitation 1546
▁minorities 1545
bro 1545
▁applicable 1544
▁Tharoor 1544
▁Students 1544
▁pleasure 1544
▁Singapore 1544
▁joy 1544
▁Guwahati 1543
▁calendar 1543
▁curb 1542
▁aggressive 1542
▁telecom 1541
▁Hussain 1541
▁quick 1539
▁referring 1539
▁Muk 1538
▁Manager 1538
▁recruit 1538
▁participated 1538
▁Budget 1538
▁nurse 1538
▁yourself 1537
▁armed 1537
▁Search 1536
▁funeral 1536
▁traveling 1535
▁moved 1535
▁await 1532
uestion 1532
▁commitment 1531
▁excuse 1531
▁relie 1531
▁Lt 1530
▁reduc 1530
80 1530
▁acid 1530
▁sort 1530
▁Evolution 1530
▁Mata 1529
▁Head 1529
▁empower 1528
uality 1527
▁Bengali 1527
▁Report 1527
▁actress 1526
▁corner 1526
▁utter 1526
▁chain 1526
PS 1525
▁stamped 1525
▁desert 1524
▁DGP 1524
▁tribe 1524
▁crossed 1523
▁philosophy 1523
avi 1522
▁illness 1521
▁treasure 1521
▁York 1520
▁strengthening 1519
▁rumor 1519
▁Clear 1519
itis 1519
finite 1518
▁delete 1518
▁Harsh 1517
▁Unto 1516
▁territory 1515
▁Ahmad 1515
▁Hafiz 1515
▁corporate 1514
▁printed 1514
▁Lieutenant 1513
▁Second 1513
▁convict 1511
▁Kot 1511
▁Rohit 1510
▁Fort 1509
▁Buddha 1507
▁Mandal 1507
▁radio 1507
▁funding 1507
▁Peace 1507
▁CEO 1507
▁difficulty 1506
▁cyber 1506
▁Tripura 1505
▁prop 1505
▁targeting 1504
▁holy 1504
▁grave 1503
▁representative 1502
▁approached 1501
▁negotiation 1501
▁delayed 1501
▁neglect 1501
▁variety 1501
▁Uddhav 1500
script 1500
▁Chavan 1498
▁somewhere 1498
▁pair 1498
▁convinced 1497
▁execute 1497
▁rot 1497
▁professor 1496
▁Orissa 1496
▁publication 1495
▁flying 1495
▁voted 1494
▁rifle 1493
▁guarantee 1492
▁emerge 1492
with 1492
▁hall 1490
▁infection 1490
▁Division 1489
▁Labor 1488
▁breast 1487
▁remand 1486
▁Pradhan 1486
▁component 1485
▁Tell 1484
▁delivery 1484
▁shocked 1483
Against 1483
▁1.5 1482
▁connecting 1482
ux 1482
▁Jitendra 1481
▁calculat 1481
▁integral 1481
auli 1480
▁DIG 1480
▁Raju 1480
▁Father 1480
▁Raghu 1479
▁split 1479
65 1478
▁accusing 1478
place 1478
▁Tej 1478
▁quot 1478
MO 1476
aj 1476
cade 1476
▁Training 1475
▁Bij 1475
▁Everyone 1474
▁pond 1474
▁Art 1474
▁Van 1473
▁cutting 1472
▁academic 1472
▁obvious 1471
▁electric 1471
jeet 1470
▁column 1470
wani 1469
▁tongue 1469
▁Sheila 1468
▁Urdu 1468
▁Speaking 1467
▁stake 1466
▁bigger 1466
▁tested 1466
▁Shimla 1465
▁chairmanship 1464
ttle 1464
▁afflict 1463
▁Dubai 1463
ullah 1462
lly 1461
▁Surendra 1461
▁JNU 1461
▁Bhim 1461
▁gradually 1460
▁drawn 1460
▁pest 1460
▁Kir 1459
▁directory 1458
▁jurisdiction 1456
▁kilo 1456
▁maintenance 1455
▁conclud 1455
▁Anti 1454
▁calm 1454
▁Bhawan 1453
▁surgery 1453
▁gather 1453
▁Aligarh 1453
▁Chan 1452
▁literary 1452
▁Name 1452
▁Change 1452
▁announce 1451
▁observed 1451
▁Holi 1451
▁discrimination 1451
There 1451
▁enemies 1451
Special 1450
▁Planning 1450
ordinate 1449
▁forbidden 1449
▁chit 1449
▁Arjun 1448
▁recovery 1448
▁ministries 1448
▁Rampur 1448
▁displeasure 1447
▁Italy 1447
▁grip 1447
▁initiated 1447
▁Whatever 1446
▁indigenous 1446
21 1446
▁Caste 1445
▁Fadnavis 1444
▁publish 1444
well 1443
▁pregnant 1443
▁inspired 1442
▁alter 1442
▁Tripathi 1442
▁1998 1442
▁march 1442
▁Yu 1441
▁shell 1441
▁56 1441
▁roam 1440
▁sensation 1440
▁Might 1440
Man 1439
▁ritual 1438
▁fellow 1438
▁Vir 1438
▁generate 1438
ancing 1437
oli 1436
▁Musa 1436
▁core 1436
▁partnership 1436
cap 1435
▁Save 1435
▁borrow 1434
▁temporary 1433
▁regime 1433
▁Manu 1433
▁walking 1433
▁curse 1432
▁larger 1431
▁1993 1431
▁Italian 1430
▁quiet 1430
▁Mangal 1430
▁pump 1430
Chancellor 1429
Corruption 1428
▁Syria 1428
▁disturbed 1427
▁apex 1427
▁NGT 1425
▁losses 1424
▁kin 1424
▁51 1422
▁Gita 1421
▁pace 1421
▁prior 1420
▁French 1420
▁glass 1420
▁Bhagat 1419
▁customer 1419
▁Mehta 1418
▁Merc 1418
▁emotional 1418
▁housing 1417
▁united 1417
▁magazine 1416
▁negligence 1415
▁served 1415
▁kishor 1414
▁guardian 1414
▁consecutive 1413
▁determined 1413
▁restrain 1412
▁plastic 1411
▁Green 1411
▁boycott 1411
▁Tagore 1411
everal 1410
▁Ashram 1410
TA 1409
utomatically 1409
▁joshi 1408
▁jam 1407
▁percentage 1407
▁shadow 1406
▁plaintiff 1406
▁Perhaps 1406
▁spending 1405
▁Session 1405
▁harmony 1404
24 1404
▁Madan 1403
▁Energy 1403
▁52 1403
▁Hindustan 1403
▁hence 1402
▁declaration 1401
▁Regional 1401
▁speculation 1401
▁plus 1401
▁Veer 1400
DC 1400
▁Shashikala 1400
▁thirty 1399
▁Vikram 1399
▁destruction 1399
▁excellent 1399
▁congratulated 1398
▁Saha 1398
stitution 1398
▁Gram 1397
▁Industrial 1397
▁lover 1397
▁click 1397
▁miscreants 1397
▁discipline 1396
▁Haridwar 1396
▁fault 1396
▁tied 1395
▁inaugura 1394
▁Masood 1394
▁intervention 1394
▁privilege 1393
▁acquired 1391
▁Global 1390
▁120 1389
▁enhance 1388
pore 1388
▁wage 1388
▁brave 1388
▁obtain 1387
▁muscle 1387
▁manufacturing 1387
▁truthful 1386
▁Mark 1385
▁Abbas 1385
▁Naqvi 1385
▁Bhutan 1385
▁purchased 1385
▁EVM 1384
▁retirement 1384
▁Coal 1383
▁allocated 1383
▁Protection 1382
▁merit 1381
▁admit 1381
New 1380
▁passion 1380
▁Patiala 1380
05 1380
▁audio 1380
▁cylinder 1380
loc 1378
▁PMO 1378
▁estate 1377
▁devotion 1377
▁Master 1376
▁ignored 1375
▁actual 1375
ET 1375
▁wire 1375
▁Start 1375
09 1374
▁pride 1373
▁accompanied 1373
udi 1373
▁Hardik 1372
friend 1372
▁Local 1371
▁layer 1371
▁blue 1370
▁Samaj 1370
▁elect 1370
▁Nana 1369
▁expectations 1367
▁Uri 1366
▁deputy 1366
▁tunnel 1366
▁Administration 1365
▁stamp 1365
01 1364
ovenant 1364
▁Enforcement 1363
▁Mor 1363
▁PIL 1361
▁scared 1361
▁chest 1361
▁inherit 1361
▁voter 1360
▁combine 1359
▁regret 1359
▁grass 1359
▁vast 1359
▁counting 1358
acent 1358
maker 1358
▁dear 1358
▁practical 1357
logical 1357
▁ourselves 1356
▁Ever 1356
▁kidney 1355
▁bright 1355
▁collector 1355
▁Parishad 1353
▁poly 1353
▁Fir 1353
▁Santosh 1352
▁wander 1352
▁Trade 1351
▁Love 1350
▁thanks 1350
▁obstruct 1349
▁construct 1348
▁constable 1348
▁radi 1347
▁DNA 1347
▁consumption 1344
▁exceed 1344
▁vessel 1343
OR 1343
▁54 1342
▁sports 1342
▁greatest 1342
▁afford 1342
▁knock 1341
▁sentiment 1341
itive 1341
▁72 1340
▁Secretariat 1340
▁consensus 1339
▁priest 1339
▁availability 1339
▁manifesto 1337
▁virus 1337
▁suppress 1337
▁rallies 1336
▁cool 1336
▁talent 1334
▁patience 1334
▁realized 1333
▁chargesheet 1333
▁seemed 1333
▁Captain 1332
▁sake 1332
▁Badal 1332
▁listening 1332
▁Kasab 1332
▁succeeded 1332
▁Chu 1331
▁ocean 1331
▁lion 1330
▁injury 1329
▁violated 1329
▁captured 1329
▁prevail 1329
▁crush 1329
▁dependent 1328
▁appreciated 1328
▁removing 1328
▁Bapu 1328
▁Forum 1328
▁suspension 1326
▁decrease 1325
▁Asian 1325
▁plate 1325
▁Kushwaha 1325
▁Money 1324
▁Sikkim 1324
plication 1324
▁entitled 1323
▁street 1323
▁highlight 1323
▁ordinance 1323
▁Gaya 1323
▁element 1323
▁smoke 1322
▁weaken 1322
▁Mount 1321
▁assessment 1319
▁Khanna 1319
▁transparency 1319
▁compromise 1318
▁assassination 1318
▁authentic 1317
▁interrogate 1317
▁steel 1317
uni 1317
▁tube 1316
▁belonging 1316
▁NH 1315
▁sacred 1315
▁equality 1315
▁Govind 1315
▁passage 1315
▁meat 1315
▁loud 1314
ipp 1314
▁servant 1313
▁condemn 1313
▁killer 1312
▁introduction 1312
▁Great 1312
▁Chin 1312
▁Pass 1311
▁Prevention 1310
▁strengthened 1309
▁tolerate 1309
▁drain 1309
▁bottle 1309
▁submarine 1309
▁Russian 1309
▁glad 1309
▁settle 1308
▁instruct 1308
▁patrol 1307
▁Mahajan 1307
▁Examination 1307
▁disclosed 1306
▁Note 1306
▁Space 1306
▁diamond 1305
▁seal 1305
▁explosive 1304
▁residential 1304
▁net 1304
▁Arya 1303
▁encouraged 1303
national 1303
▁Lahore 1303
▁Masjid 1302
▁acknowledg 1301
▁assistant 1301
▁interrupt 1301
▁rupee 1300
▁speeches 1300
▁1996 1300
▁motive 1298
▁Edit 1298
▁Sandeep 1298
▁Alam 1298
toxic 1297
▁observe 1296
▁entrance 1296
TR 1296
▁Tara 1295
▁Soon 1295
▁wisdom 1295
▁Mat 1294
▁cooperate 1293
▁David 1293
▁cognizance 1293
▁silver 1293
▁Industry 1292
▁recognized 1292
▁mixed 1292
▁Cell 1292
CH 1292
▁Create 1292
▁Gir 1291
▁corridor 1290
▁INS 1289
▁Call 1289
▁Maidan 1288
▁Fateh 1287
▁anybody 1286
▁disappeared 1286
▁Ltd 1285
azi 1285
▁believing 1285
▁Mughal 1284
▁Number 1283
▁trap 1283
▁suspicion 1282
▁Dig 1282
▁employ 1282
▁facilitate 1282
▁exploit 1281
▁universal 1281
▁tourist 1281
08 1281
direct 1281
▁quickly 1280
▁humanity 1280
▁fabric 1280
▁impose 1278
▁Market 1278
▁Unit 1278
▁decreased 1277
▁strictly 1277
Sh 1277
▁alleg 1276
▁viral 1275
▁retain 1275
▁designed 1274
▁acquitted 1274
▁hap 1274
▁thereby 1274
▁predict 1273
▁comprehensive 1273
▁interact 1272
▁conceal 1272
▁Vigilance 1271
▁weakness 1271
▁performing 1270
▁Kovind 1269
32 1268
▁nephew 1267
▁magistrate 1267
▁2019 1266
▁Yogendra 1266
news 1266
▁John 1266
▁shut 1265
level 1265
▁cadre 1265
▁Bareli 1265
▁Indrani 1265
▁troubled 1264
▁serial 1264
▁Business 1264
▁discovered 1264
▁Mill 1264
▁friendly 1264
▁respectively 1263
▁terrible 1263
▁ambassador 1262
▁telephone 1262
Raj 1262
▁grown 1262
▁Egypt 1261
▁confusion 1261
▁Ratna 1260
gon 1260
28 1259
▁Kargil 1258
▁Farmers 1258
▁1990 1258
▁Scripture 1258
▁laptop 1257
▁Kapoor 1257
▁inspector 1257
▁participating 1256
book 1256
▁Add 1256
▁pleased 1255
alted 1255
▁2.5 1254
▁indicate 1254
▁Robert 1254
▁Jahan 1253
▁Aadhaar 1253
▁recognition 1252
▁tobacco 1251
▁recall 1251
▁reserve 1251
▁Error 1251
▁Jairam 1250
▁southern 1250
▁throat 1250
▁jinn 1250
▁invite 1249
▁recognize 1249
▁Amendment 1249
▁Rani 1249
▁Tourism 1249
▁Diwali 1248
▁considerable 1248
▁lowest 1248
▁footage 1247
▁mislead 1247
▁native 1247
▁losing 1247
▁vital 1246
▁Jews 1246
▁widow 1245
responsibilities 1245
▁recogni 1245
▁Super 1244
Pak 1244
▁disrupt 1243
▁Kishore 1243
▁realize 1243
▁meant 1243
▁Independent 1242
▁Within 1239
▁obligation 1239
hr 1239
▁Tihar 1238
▁tragedy 1237
▁grade 1237
▁purview 1237
▁guru 1237
▁Mukul 1237
▁examine 1236
▁liar 1236
▁Best 1236
▁grew 1236
▁accurate 1236
▁warner 1236
▁restored 1235
▁dedicated 1235
07 1235
▁relevant 1234
▁serving 1234
▁Mahendra 1234
▁Village 1234
▁Geeta 1234
▁Thane 1234
▁Hizbul 1233
▁advanced 1233
▁--- 1233
▁lake 1233
▁prince 1233
▁Message 1233
55 1232
▁Non 1232
▁Saharanpur 1232
▁Brahmin 1231
You 1231
▁mischief 1230
▁Sant 1230
▁restaurant 1229
▁advise 1228
▁Bansal 1228
▁pledge 1228
▁determin 1228
= 1227
▁dowry 1227
▁Consumer 1226
▁educated 1225
▁driving 1225
▁assist 1225
▁Aviation 1225
▁employed 1225
▁lady 1225
▁constituencies 1224
▁buried 1224
▁receipt 1224
▁Exchange 1223
▁Help 1223
▁regulation 1222
▁ceasefire 1221
▁sealed 1221
▁frequent 1221
▁Beni 1220
▁chapter 1220
▁Learn 1218
▁transaction 1218
▁Javadekar 1218
arita 1218
▁suggestion 1217
crypt 1217
90 1216
▁accelerate 1216
▁emphasized 1216
▁kingdom 1215
▁pillar 1215
▁MW 1215
▁outstanding 1214
▁Jung 1214
▁53 1213
neath 1212
IR 1212
▁injuries 1211
▁inaugurated 1211
▁volume 1211
▁tissue 1210
▁patriot 1210
▁250 1209
▁Respond 1208
▁prophet 1208
▁convoy 1207
▁Noah 1207
party 1206
▁Film 1205
▁contempt 1205
▁reconsider 1205
▁palm 1205
▁Rashid 1204
▁hostel 1203
▁suspicious 1203
▁Hill 1203
▁coastal 1203
▁Kailash 1203
▁concession 1203
▁Survey 1201
▁veteran 1201
loom 1201
▁LPG 1201
▁batch 1200
▁dignity 1200
▁abide 1198
▁Ben 1197
▁Record 1196
▁Vasundhara 1196
▁Radha 1195
▁cycle 1194
▁Vinay 1193
▁description 1193
▁bitter 1193
East 1193
term 1193
▁deployment 1192
▁breed 1192
▁snatch 1192
▁Hotel 1191
▁Kala 1191
Presidential 1191
▁impossible 1191
▁equipped 1190
▁translation 1190
▁Azhar 1190
▁looted 1188
▁Dam 1188
▁VHP 1188
▁Nabi 1187
▁proportion 1187
▁Commerce 1187
▁bottom 1186
▁CBSE 1186
▁producer 1186
▁Sunanda 1186
▁fertilizer 1186
▁Washington 1185
▁Buddhist 1185
▁prompt 1185
▁Lakshmi 1185
hak 1184
▁completing 1183
▁kidnapping 1183
▁Ishrat 1183
▁River 1183
▁Copy 1182
▁paramilitary 1181
▁hostage 1181
▁Remember 1181
▁Poonch 1180
▁profession 1180
▁torture 1179
▁testimony 1179
▁signature 1179
▁personality 1179
▁opposite 1177
▁planet 1177
▁ATS 1176
▁Wal 1176
▁orphan 1175
▁infiltrate 1175
NR 1174
▁Pankaj 1173
▁rush 1171
▁controlled 1171
▁obstacle 1171
PP 1171
▁laborers 1171
▁supreme 1171
▁reminded 1170
▁Dwivedi 1170
▁harvest 1170
▁royal 1170
▁justified 1169
▁Chakra 1169
▁Family 1168
▁subscribe 1167
list 1166
▁architect 1166
▁confident 1164
▁unconscious 1163
DE 1163
▁enforce 1162
▁interfere 1161
▁JP 1161
▁download 1161
GP 1160
▁attribute 1160
▁procurement 1159
▁Petroleum 1158
▁undertake 1158
▁constitute 1157
▁Tiger 1157
▁slaughter 1157
▁clip 1157
▁Block 1156
▁repent 1156
▁LoC 1155
▁PAC 1155
▁ratio 1155
▁narrat 1155
▁conversion 1154
▁adjourned 1154
29 1154
▁Industries 1154
▁Rashtrapati 1154
▁Clean 1153
▁expelled 1153
▁Sisodia 1153
▁Especially 1153
▁everywhere 1152
▁injustice 1152
▁Hanuman 1152
▁Hand 1151
▁1984 1151
▁Talwar 1151
▁Jantar 1150
▁Saraswati 1150
▁blessed 1149
▁Yusuf 1148
▁fallen 1147
▁squad 1147
▁palace 1147
▁organism 1147
▁profile 1145
▁arising 1145
▁German 1145
▁pursue 1145
▁easier 1145
▁differ 1145
▁distinguish 1144
sharan 1143
▁Expert 1143
DS 1143
▁Shakti 1142
▁forcibly 1142
▁imagine 1142
▁Tiru 1142
▁snake 1142
▁Mukhtar 1141
▁legislation 1140
▁popularity 1139
▁consultation 1138
▁Standing 1138
▁Vishnu 1138
▁67 1138
▁hunt 1137
▁Comment 1136
ME 1136
▁Penal 1135
▁representation 1135
▁render 1135
akshi 1134
▁Communication 1134
▁abducted 1133
▁Case 1132
▁Giving 1132
▁Palestinian 1132
▁civilian 1132
▁Lu 1131
26 1131
▁Dilip 1131
▁confidential 1130
▁machinery 1130
▁occupation 1130
▁stance 1129
▁Official 1129
▁refusing 1129
▁Saini 1129
▁Adam 1129
where 1128
▁Bag 1128
▁Hind 1128
▁organizing 1128
▁forgotten 1128
▁Academy 1127
▁repeat 1127
▁enterprise 1127
▁collective 1126
▁Check 1126
▁objectionable 1125
▁interference 1125
▁ascertain 1125
▁upcoming 1125
▁Miss 1124
▁Burhan 1124
▁Current 1124
▁ultimate 1124
▁Shivaji 1124
▁smooth 1124
THE 1124
▁cinema 1123
▁Media 1123
▁struggling 1122
▁Legislature 1122
▁OBC 1121
▁Rajput 1121
▁spring 1121
▁operated 1120
▁lamp 1120
▁Ambani 1120
▁discover 1120
▁closer 1119
▁eligible 1119
▁MNREGA 1119
▁Karti 1119
▁prosperity 1119
▁Jesus 1119
▁Madhav 1118
▁Vish 1118
cor 1118
▁threaten 1117
▁quantity 1117
▁clearance 1117
▁62 1117
▁latter 1117
▁disabled 1116
▁pocket 1116
▁DSP 1115
▁businessmen 1115
▁1997 1115
▁salt 1114
02 1113
▁fiercely 1113
▁Akali 1113
▁conscious 1112
▁club 1112
▁spin 1112
▁prisoner 1110
▁falsehood 1110
▁excited 1109
▁rival 1109
▁cautious 1109
▁singer 1109
▁Rather 1109
▁pistol 1108
▁demise 1108
▁Kanda 1107
▁Ganesh 1106
▁Colony 1106
▁determine 1106
vocation 1106
▁Support 1105
06 1105
AME 1105
▁Prabhu 1104
▁siege 1104
▁painting 1103
▁distress 1103
▁reminder 1102
▁Commander 1101
▁persist 1101
▁acceptance 1101
▁laundering 1100
▁57 1100
▁chose 1100
▁disagree 1100
CE 1100
▁pilgrimage 1099
▁Financial 1099
▁adverse 1099
▁cultivation 1099
▁client 1098
afar 1098
▁depth 1098
▁collaboration 1098
▁significance 1098
▁Saheb 1098
▁applicant 1097
▁lend 1097
▁twelve 1097
▁Virbhadra 1096
▁Festival 1095
▁celebrating 1095
▁crude 1095
▁URL 1095
▁merciful 1095
hop 1094
▁overall 1094
▁lawful 1094
▁Middle 1094
▁thick 1093
▁Program 1093
Patra 1092
▁Telecom 1092
▁abandon 1092
OC 1092
▁Sahara 1091
Taiba 1091
▁1991 1091
27 1091
▁quit 1090
▁irregularities 1090
▁compulsion 1089
▁Karan 1089
▁mock 1089
▁landslide 1088
▁Reliance 1088
23 1087
▁intervene 1087
▁framework 1086
▁mono 1086
▁grief 1086
▁SMS 1086
▁encroach 1085
▁surprise 1085
▁glory 1085
▁nobody 1085
volving 1085
▁Hooda 1085
▁baseless 1085
▁View 1085
▁duties 1085
▁Marg 1084
▁fifteen 1083
▁sequence 1083
▁Kotwali 1082
rickshaw 1082
▁Adityanath 1081
▁faithful 1080
39 1079
▁Private 1079
▁Shivpal 1079
▁analysis 1079
▁legislative 1079
▁output 1079
▁mini 1078
▁Aamir 1078
▁Light 1077
▁supervision 1076
▁Hamid 1076
▁Sheena 1076
34 1075
▁Emergency 1075
▁Pokhriyal 1071
▁Northern 1071
▁Auto 1071
▁partition 1070
▁regulator 1070
▁Import 1069
▁Sarabjit 1069
▁crew 1068
▁categories 1067
▁Canada 1067
▁abolish 1066
▁shouting 1066
▁Greater 1066
▁fever 1065
▁centuries 1065
▁occupied 1065
▁narrow 1065
▁Embassy 1065
▁awake 1065
▁Democratic 1064
▁History 1064
▁deficit 1064
▁prize 1063
▁revenge 1063
vardhan 1062
▁Jagan 1062
▁luck 1062
▁Agni 1062
▁Word 1062
dominated 1061
▁Sagar 1061
▁grenade 1059
▁grateful 1059
▁conservation 1059
▁convention 1059
▁editorial 1058
▁Small 1058
▁liberal 1058
▁tele 1057
▁wheel 1057
▁demolish 1057
giri 1056
▁Bhat 1056
▁Build 1056
▁leaf 1056
▁Move 1056
pproximately 1055
37 1055
▁practi 1054
DM 1054
▁lease 1054
▁barrier 1054
▁prostrate 1053
government 1052
▁Terrorist 1052
▁GDP 1052
▁1947 1052
▁grieve 1051
▁prospect 1050
▁Ranjit 1050
▁tape 1050
▁Nizam 1050
▁sorrow 1049
▁conviction 1049
▁Collector 1048
▁shrine 1047
▁Provid 1047
▁Hav 1047
▁Vaghela 1046
▁contractor 1045
▁Revenue 1045
▁Iqbal 1045
▁Karunanidhi 1045
▁hydro 1045
▁Paris 1044
▁Direct 1044
▁Simultaneously 1044
▁bull 1043
▁Photo 1043
▁hatred 1042
▁None 1042
▁Something 1042
▁Marathi 1041
▁Staff 1041
▁audience 1041
▁cancellation 1041
cision 1041
▁desi 1041
▁Capital 1040
▁Sangma 1040
▁multiple 1040
▁Insurance 1040
▁miles 1040
IL 1039
▁racket 1039
▁coordination 1039
▁capture 1038
▁Acharya 1038
▁Term 1037
▁operate 1037
▁rocket 1037
▁Neeraj 1036
▁organize 1036
EL 1036
▁stolen 1036
▁preach 1035
▁Panaji 1035
04 1035
▁Gwalior 1035
▁Japanese 1034
▁absolutely 1034
▁Consider 1034
▁lecture 1033
▁Ocean 1032
▁Dharmendra 1032
▁Secondary 1032
pound 1032
▁Agreement 1031
▁Jaiswal 1031
What 1030
▁Desai 1030
▁Ghosh 1029
▁Islamabad 1029
▁rehabilitation 1029
▁correspond 1029
▁Bhav 1028
▁porn 1028
▁plugin 1028
▁Third 1026
print 1026
▁defendant 1025
▁Sadhvi 1025
▁describe 1024
▁semi 1024
▁Prince 1023
33 1022
▁gap 1022
▁edit 1022
▁ambulance 1021
▁exactly 1021
Tech 1020
▁abode 1020
▁Personnel 1019
▁Hassan 1019
▁Knowledge 1019
▁Christ 1018
▁Colonel 1018
▁banner 1018
▁beneficial 1018
▁cease 1017
▁Dwarka 1016
▁Muzaffar 1016
▁Hall 1015
proving 1015
▁directive 1015
▁engage 1015
▁Shastri 1015
▁Steel 1015
▁Jaish 1014
▁Whenever 1014
▁jihad 1014
singh 1013
▁departure 1012
▁curfew 1012
▁efficient 1012
▁disorder 1012
▁unemployment 1012
▁Except 1012
▁attachment 1011
▁transparent 1011
38 1011
▁characteristic 1010
prakash 1010
▁raw 1010
▁dense 1010
▁Attorney 1009
▁masses 1009
▁Piyush 1008
▁acquir 1008
▁jewelery 1008
▁Adarsh 1008
▁struck 1008
▁minute 1006
▁argue 1006
▁Nature 1006
▁extensive 1005
▁contrary 1005
▁clarify 1005
▁Train 1004
▁Black 1004
▁deprived 1004
▁Gowda 1003
▁Karachi 1003
aeda 1003
▁League 1002
▁SDM 1001
▁midnight 1001
▁separation 1000
▁defined 1000
▁oxygen 1000
▁600 1000
▁urge 1000
▁confess 999
▁indirectly 999
known 999
▁carbon 999
▁Kabir 997
▁boil 997
▁Housing 997
▁fashion 997
▁definition 997
▁Ladakh 995
▁cited 995
▁Pulwama 995
▁extract 994
▁Custom 994
▁Islamist 993
▁motorcycle 993
vestig 992
▁intense 992
▁Varun 991
▁Bhubaneswar 989
▁cooperative 989
▁Judicial 988
▁journal 988
▁Jagdish 987
▁Javed 987
▁bounty 987
iruvananthapuram 986
▁seminar 986
rtificial 986
▁emerging 985
count 985
▁compulsory 985
+ 985
▁Umar 984
▁Gogoi 984
▁monument 984
cumulat 984
▁Yash 984
▁restore 983
▁knife 983
▁African 982
▁resource 981
▁citizenship 980
▁Naveen 980
▁refugees 979
▁radical 979
▁kidnapped 978
metric 977
▁hardship 977
▁Ordinance 976
▁1992 975
▁Nagaland 974
▁excessive 974
▁explanation 974
▁betray 973
▁Yojana 973
▁Young 973
▁index 972
▁appearance 972
▁Saif 972
▁Island 972
▁Personal 972
▁Order 972
▁Menon 972
▁unaware 972
▁bird 972
▁venture 972
▁Maoist 971
join 971
▁compensate 970
▁archive 970
▁Shrivastav 969
▁Language 969
▁stretch 969
▁Laxmi 968
▁Military 968
▁preferred 968
▁marginal 968
▁scenario 967
▁Dham 967
▁deliberately 966
▁Movement 965
▁Commonwealth 965
▁coaches 965
▁ISIS 965
affected 965
▁alarm 965
▁headlines 965
▁font 965
▁bore 964
▁parade 963
claim 963
▁library 963
▁trace 963
▁Divine 962
▁Patnaik 961
▁debris 960
▁compassion 960
▁Katju 959
▁scientist 959
cast 958
▁hypocrite 958
▁Data 958
▁deciding 958
mohan 958
▁legend 957
▁Ramlila 955
▁secretaries 955
▁1995 955
▁pressuriz 954
▁disbelief 954
▁charity 954
▁tab 954
▁clue 953
▁organizer 953
▁revelation 953
▁preced 953
▁rose 952
either 952
▁Alliance 952
▁inspection 952
▁graduate 952
▁stable 951
▁Arabic 951
▁circular 950
▁declaring 950
▁pole 949
▁medal 949
ologist 949
▁blog 948
▁Peter 948
▁Salem 948
▁precaution 948
▁fool 948
▁preference 948
▁forthcoming 947
▁Agricultural 947
▁Thousands 947
▁stray 947
▁schedule 945
▁Armed 945
03 944
▁Vivek 944
▁Siddharth 943
▁livelihood 943
▁gesture 943
▁travell 943
▁consume 942
▁Likewise 942
▁quarrel 942
numer 942
▁seize 941
▁revive 941
▁supplied 940
▁fiscal 940
▁civilization 940
▁mandate 940
▁losers 940
▁composition 940
▁Meghalaya 939
▁Broadcasting 939
▁collision 939
▁recommend 938
▁Agrawal 938
▁statistics 938
▁Contact 937
▁depart 936
▁Standard 936
narayan 936
▁Hundred 935
▁diplomat 935
▁insert 935
▁adjust 935
▁Shekhar 934
▁Naresh 934
▁winner 933
▁STF 933
▁Asked 932
▁deadline 931
▁woo 931
▁satisfaction 931
▁delight 931
▁Munde 930
▁harmful 928
▁psycho 928
▁blank 927
▁misbehavior 927
▁Jhansi 927
position 927
▁legislature 927
▁perspective 927
▁steal 927
▁analys 926
▁Laloo 926
▁defamation 925
▁absolute 925
▁privacy 925
▁VIP 924
▁1980 924
▁Imam 924
▁Eight 924
▁exclud 923
▁museum 923
▁disciple 923
▁Vilas 923
▁Chau 922
▁dinner 922
▁evacuate 922
▁volunteer 922
▁comparison 921
▁seizure 921
▁tampering 921
▁bowl 920
▁Further 920
▁trading 919
▁Taliban 919
▁loose 919
ographic 919
▁chart 918
▁ransom 918
▁BRICS 918
▁boundary 918
▁Believers 918
▁Attack 917
▁robbery 917
▁rhetoric 917
▁smile 917
▁Place 917
▁filter 916
▁surveillance 913
▁merge 913
▁arrange 912
▁Play 912
▁Sometimes 912
▁unhappy 911
▁Kochi 910
▁factories 910
▁knee 910
▁yellow 910
▁patron 909
▁interpretation 908
▁prefer 908
▁automatic 907
▁White 907
▁Bahuguna 907
▁invoke 906
▁rage 906
▁memorial 906
▁humble 906
▁polytheist 906
Pacific 905
▁Yasin 905
▁mortal 905
▁Airlines 904
▁Ajmer 903
President 903
▁surprising 903
▁Judgment 903
▁prosper 902
▁Pension 902
▁simply 902
▁Summit 901
▁Meena 901
▁merger 901
▁cotton 901
▁Metropolitan 900
▁routine 900
▁groom 900
▁flame 900
▁Donald 899
▁Text 899
▁mad 899
▁sloganeering 899
▁Old 898
▁parent 898
▁massive 897
▁supposed 897
▁respite 897
▁terminal 896
▁Trivedi 896
▁companion 895
▁Kisan 895
▁excess 895
▁Hearing 895
▁exploitation 894
▁bondage 894
CS 892
▁fodder 892
▁summit 892
▁Owaisi 892
▁ornament 891
▁burst 891
▁Headley 891
▁qualification 890
Terror 890
Shatrughan 890
Employ 890
▁producing 890
▁Obviously 889
▁cheating 889
▁rapid 889
ike 889
▁memorandum 889
▁Akshay 888
▁Garg 888
▁Dubey 887
▁relax 887
▁Coast 887
▁emotion 886
▁Jethmalani 886
▁bread 886
avour 886
▁Model 885
▁Narmada 885
▁ignore 884
▁Yashwant 884
▁clay 884
encing 884
▁cried 884
▁shade 883
▁hiding 883
▁gangster 883
▁drowned 883
▁torn 883
▁Somnath 883
▁pelting 883
▁Telugu 882
▁integrity 882
▁Siddiqui 882
▁convener 882
▁Travel 881
▁discount 881
▁module 881
▁1971 881
▁offline 881
▁subsequent 880
▁Jagannath 880
▁mouthpiece 880
▁Point 880
▁naval 879
▁paddy 879
▁glimpse 878
▁diabetes 878
▁Anantnag 878
▁convenience 878
▁thanked 877
▁leopard 877
▁simultaneously 876
▁revised 875
▁compris 875
▁demonstrate 875
▁switch 875
▁worsened 873
▁ignoring 873
▁Shakeel 873
▁Programm 873
▁dalit 872
▁Pramod 872
Modi 872
▁exact 872
▁Gehlot 871
▁jungle 871
▁Tendulkar 871
▁liquid 871
▁encouraging 870
▁Yechury 870
andapa 869
▁HIV 869
▁respondent 869
▁dictator 867
▁composed 867
▁TMC 866
▁sugarcane 866
▁Azamgarh 866
▁Print 866
▁homage 865
▁trick 865
▁hang 864
▁Akhtar 863
▁Ambassador 863
▁captain 863
▁impression 863
▁chamber 862
▁dissolve 862
▁digit 861
▁Siva 861
▁elevat 861
▁assuming 860
▁ambitious 860
▁reversed 859
▁ignorance 859
▁eternal 859
▁Tarun 858
▁Barack 858
▁Morcha 858
▁rebellion 858
▁confused 857
▁despair 857
▁identification 857
▁disappointed 856
▁Bundelkhand 856
▁persuade 855
▁familiar 855
▁chariot 854
▁evident 854
▁loyal 853
▁wrongdoers 853
▁complainant 852
▁Process 851
▁church 850
,500 850
▁innovation 849
▁arrogant 849
Pakistan 849
▁disclose 848
▁colony 848
▁congratulate 848
▁mineral 848
break 847
▁combination 847
▁propaganda 846
▁Patidar 846
▁Remove 846
▁advisor 845
▁eleven 845
▁Campaign 844
▁reception 844
▁eager 844
▁exhibition 844
▁battalion 844
▁mercury 843
▁score 843
▁Present 842
▁teeth 842
▁sustenance 842
▁keen 841
▁Shanti 841
▁aviation 841
▁apology 841
▁repay 841
▁Radhakrishnan 840
▁brigade 839
▁bicycle 839
▁Himself 839
▁Maneka 839
▁Ludhiana 838
▁competitive 838
▁width 838
▁Malaysia 837
▁miracle 837
▁Turkey 837
▁supplement 836
▁Federation 835
▁Maurya 835
▁Puducherry 835
▁disobey 835
▁trafficking 834
▁unemployed 834
▁dimension 832
▁George 832
▁mainstream 832
elecommunication 831
▁rope 830
▁Relief 830
▁lobby 830
▁thread 830
▁unanimous 829
▁efficiency 829
storey 829
▁thorough 829
▁unnecessary 829
▁scholarship 828
▁describing 828
▁gender 827
▁throne 827
swamy 827
▁outcome 826
▁substantial 825
▁Noble 825
▁motor 825
▁shutdown 825
▁Gauri 825
▁disperse 824
ifies 823
▁Teacher 823
▁Display 823
▁closing 822
▁Imran 822
▁greed 822
▁Kanhaiya 822
▁proclaim 821
▁Vadodara 820
▁womb 820
▁Sitaram 820
▁virtue 820
▁Rahim 819
▁protocol 819
▁Vedic 819
▁Rakhi 818
▁mafia 817
▁screw 817
▁remind 817
▁drunk 817
▁Connect 816
▁Subhas 816
▁intact 815
▁accomplish 815
▁adjoin 815
▁upheld 815
When 814
▁Shahrukh 814
▁Sidhu 814
▁diplomacy 814
▁submission 814
▁Electricity 814
▁transplant 813
▁naught 812
▁Conduct 811
▁Electronic 811
▁Mizoram 810
▁remarkable 810
front 810
▁Should 810
▁intensity 810
▁smuggler 809
▁transmission 809
▁superior 809
▁Auditor 808
▁infant 808
▁exclusive 808
▁Capt 807
▁Rajkumar 807
preet 807
▁immense 807
version 807
▁brick 806
▁Indonesia 806
▁Dalai 806
▁Corps 805
▁voluntary 805
▁cruel 805
▁float 804
▁Jindal 804
▁duration 804
▁goddess 804
▁UGC 804
▁productivity 803
▁connectivity 802
▁eliminat 801
▁Reservation 801
▁Demand 801
▁Bhatkal 801
▁inquire 801
▁universe 801
▁bacteria 801
▁negotiate 800
▁database 800
▁administer 799
▁violate 799
▁Advance 799
▁explore 798
▁scream 798
▁disgrace 798
▁Siddh 797
▁thin 797
▁pretext 797
▁Application 797
racious 797
▁heavily 796
▁Rajouri 796
▁Sukma 796
▁Tejpal 796
▁tune 796
▁forbid 796
▁interval 795
▁devil 795
▁forgot 794
▁Companies 794
▁Ashish 792
▁pregnancy 792
▁disappearance 791
▁imprisoned 791
▁Andaman 790
▁neighborhood 789
storm 789
▁integrated 789
▁sympathy 789
▁Tewari 788
▁dump 788
▁junior 788
▁moderate 788
▁abusive 787
▁Virendra 787
▁confrontation 786
▁Window 786
▁absent 785
▁inauguration 785
▁Administrative 785
▁encompass 785
▁Employment 785
▁grandfather 784
▁Chhota 783
▁Memorial 782
ternal 782
▁allotted 782
▁Gilani 781
▁meanwhile 781
▁television 780
▁strip 780
▁Games 780
▁Tamilnadu 779
▁motivate 778
Author 778
▁circuit 778
▁repentance 778
▁Aziz 777
▁Rashtriya 777
▁Cricket 777
▁Saint 777
▁spell 777
▁Digital 777
unconstitutional 776
▁Next 776
▁sponsor 775
▁Sitharaman 775
▁brutal 774
▁Abhiyan 774
▁lathi 774
▁Persian 773
▁Geelani 773
▁frighten 773
▁wicked 773
▁joke 772
▁reputation 772
▁superintendent 771
▁intolerance 771
▁lung 770
▁retreat 770
▁grievance 770
▁Chaturvedi 769
▁Swiss 769
▁Shankaracharya 769
▁RLD 768
▁jewel 768
▁withdrew 768
▁cartoon 768
▁assert 768
▁politician 767
commerce 767
▁garment 767
▁pronounced 766
simil 766
▁Vivekananda 765
▁Disaster 765
▁organic 765
▁Golden 763
▁behave 763
▁margin 763
▁Sports 763
▁Faizabad 763
▁Rohingya 763
▁parallel 762
▁Passenger 762
▁embrace 762
▁convince 761
kilometer 761
▁somebody 761
▁Yakub 761
▁Banaras 760
▁perceive 760
arried 759
▁possibilities 758
▁Journal 757
▁premium 756
▁federal 756
▁Kupwara 755
▁Rohtak 754
▁Safety 753
▁shopkeeper 753
▁violating 752
▁clutches 752
▁praising 752
▁Goddess 752
▁Nothing 751
▁Technical 751
▁melt 751
▁protein 751
▁Traffic 750
▁Short 750
▁pleasant 750
▁approve 749
▁geographical 749
▁incorrect 749
▁prestigious 749
▁Pappu 749
▁martyrdom 748
▁Bulandshahr 748
▁Vasant 748
▁Switzerland 748
▁Together 747
▁treasury 746
▁Rijiju 746
▁kitchen 746
▁supr 746
▁introduce 745
▁Blue 745
▁Ramayana 745
▁apparent 745
▁Micro 744
▁merchant 744
▁Answer 744
▁Kishan 743
▁counterpart 743
▁Faridabad 743
▁buffalo 743
▁Close 743
▁Finally 743
▁absorb 743
▁clinic 742
▁Tribes 742
▁Saroj 742
▁maternal 741
▁Tulsi 741
▁mirror 741
▁Chandrasekhar 740
▁continuation 740
▁crucial 740
▁SAARC 739
▁Shopian 739
▁remembrance 739
▁Export 739
▁Spirit 739
▁vaccine 739
▁Meeting 738
▁junk 738
▁Parivar 737
▁landlord 737
▁caution 737
▁invalid 735
▁rites 735
▁Aditya 735
▁qualities 735
▁equivalent 735
▁Jabalpur 734
▁Nobody 734
▁Sarpanch 733
▁deserve 733
▁examining 732
▁Narasimha 732
▁Badrinath 730
▁ammunition 728
Managing 728
▁Credit 728
▁Ramgopal 728
▁Radhe 728
▁http 727
▁goodwill 726
aternity 726
▁competent 726
▁Nawab 726
▁cigarette 725
▁offense 725
▁extradition 725
▁boundaries 724
▁Pollution 722
▁Communist 721
▁everybody 721
▁prosecute 721
▁achieving 721
▁urgent 720
▁Return 719
▁neutral 719
▁disobedien 719
▁Solicitor 718
NA 718
▁1962 718
▁sweat 718
▁cultivate 718
▁greeted 717
▁inquiries 717
▁IRCTC 717
▁salute 717
▁horizon 717
▁admonition 717
▁placing 716
▁secretariat 715
▁venue 715
▁Darjeeling 715
▁Raghav 714
▁uncomfortable 714
▁workshop 713
▁unexpected 713
▁condolence 713
▁credibility 712
▁Mobile 712
▁flesh 712
▁technologies 712
▁Mistry 711
▁silk 711
▁Deshmukh 711
▁Jalandhar 710
▁churn 710
▁earliest 710
▁Kumbh 710
▁Faith 710
▁precious 709
▁Certainly 709
▁Beijing 708
▁refund 708
▁visual 707
▁Continu 706
▁empire 706
▁Dixit 706
▁cousin 706
▁resurrect 706
▁Accus 705
▁26/11 705
▁commodities 705
bailable 705
▁compete 705
▁PNB 705
▁Culture 704
▁refine 704
▁Rahman 704
▁managing 704
▁segment 704
▁Mysore 703
▁demolition 703
▁Revolution 702
▁Najib 702
▁satisfy 702
China 700
▁candidature 700
▁Multi 700
▁communicate 700
▁surround 699
▁geo 699
▁gross 699
▁ignorant 698
▁Promotion 698
▁queue 698
▁Jaswant 697
NIA 697
▁unseen 697
▁mobilize 695
▁abduction 695
▁CVC 694
▁Pilot 694
▁Shaheed 694
▁lodging 694
▁defame 694
▁tampered 694
▁ridicule 693
▁petroleum 693
▁tractor 693
▁Aurangabad 692
▁prosecutor 692
▁numerous 692
▁flaws 691
▁Brazil 691
▁mask 691
▁celebrities 690
▁Computer 690
▁Club 689
▁Kannada 689
▁Friend 688
▁copies 687
▁dawn 687
▁corpse 686
▁smuggling 686
▁Headquarters 686
▁luggage 685
▁ensur 685
▁VVIP 685
▁CISF 685
▁offspring 685
▁Immediately 684
▁Imphal 684
▁freight 684
▁steadfast 684
▁decreasing 683
▁Investment 682
▁Priya 682
▁1986 682
▁Geetika 682
▁tricolor 681
▁succ 681
▁salaries 680
▁excavation 680
▁Task 680
▁nerve 680
▁pardon 680
▁fortnight 679
rchaeolog 679
▁Vietnam 679
▁disturb 678
▁Mahabharata 678
▁Shahnawaz 678
▁valuable 678
▁widespread 678
▁deceive 677
▁uncertain 677
▁Heavy 677
▁optim 677
▁wrath 677
▁recipient 676
▁Preparation 674
▁guess 673
▁Baramulla 673
▁axis 673
ufficient 672
▁Mauritius 672
Jabu 671
▁Acquisition 671
▁Gorkha 671
▁Vehicle 670
▁indefinite 669
▁imposing 669
▁tribunal 669
field 669
▁evolution 669
▁forensic 668
▁Secretaries 668
▁Bijnor 668
worm 667
▁Bhattacharya 667
▁mortar 666
▁behest 666
▁blaming 666
▁assassin 666
▁observation 666
▁Category 666
▁fond 665
▁decorated 665
▁marine 665
▁Fear 665
▁thieves 665
▁Aarushi 665
▁gentle 664
▁Subramaniam 664
▁boyfriend 663
▁Natural 663
▁accompany 662
▁virtual 662
▁fugitive 661
▁stadium 661
▁glacier 661
▁calamity 661
self 661
▁drone 661
▁farewell 660
▁Lohia 660
▁autonomy 660
▁fortune 660
▁Criminal 659
▁anthem 659
▁colonies 659
▁compound 659
▁combat 658
▁Udhampur 658
▁scrutiny 658
▁administrator 658
▁Woe 658
▁dissatisfaction 657
▁thirst 657
▁Citizen 657
▁monkey 657
▁contrast 656
▁criteria 655
▁satisfactory 655
nquiry 655
▁depression 655
▁Kulbhushan 654
▁continent 654
▁swallow 653
▁Church 653
▁sworn 653
▁cluster 653
▁Thomas 652
▁interpret 652
▁drum 652
▁behavio 652
▁Kohli 651
▁Divya 651
▁MSME 651
▁Thailand 650
▁Minority 649
▁Increase 649
▁DRDO 649
▁Vidhan 648
▁Bahujan 648
▁DVD 648
▁peasant 647
▁hungry 647
▁YouTube 646
▁Ujjain 646
▁mathematics 646
▁overtake 646
▁domain 646
worthy 645
▁appellant 645
▁Jundal 645
▁stern 645
▁multiply 645
▁Stadium 644
▁Folder 644
▁Mittal 643
▁casualties 643
▁Soviet 642
▁Hindutva 642
▁perception 642
▁sculpture 642
▁tehsil 641
▁Hemant 641
▁NABARD 641
▁woe 641
▁Husband 640
▁Nuclear 640
▁collided 640
▁Construction 640
▁Anurag 640
▁liability 639
▁incurred 639
▁Chautala 639
PO 638
▁2016-17 638
▁Goswami 638
metres 638
▁beneficiaries 637
▁Dargah 637
▁potato 637
▁contemporary 636
▁AIDS 636
▁Mosque 635
▁incorporat 635
▁Street 634
▁Ayurveda 634
▁Jacob 633
▁bogie 633
▁Issue 633
▁SBI 633
▁Poonam 632
connect 632
▁-------- 632
▁binding 632
▁upgrade 631
write 631
▁harsh 629
▁Ananth 629
▁constituent 629
▁enclos 629
▁Afghan 629
▁Saurabh 628
▁Kingfisher 628
▁ITBP 628
▁luxury 628
▁licen 628
▁Animal 628
▁powder 628
▁vigilance 627
▁Chatterjee 627
▁TRAI 627
▁Scindia 626
▁culprit 626
▁blessing 626
▁accommodation 626
▁ordained 626
▁Rohini 624
▁stroke 624
▁regulate 624
▁Togadia 624
▁Studies 624
productive 624
▁somewhat 624
▁influential 623
▁devotee 623
▁polluted 623
▁adapt 623
▁furious 623
▁Correspondent 622
▁NASA 622
TION 622
▁ungrateful 621
▁Maratha 621
▁wipe 621
▁Representative 620
▁flourish 620
▁Backward 620
▁boost 619
▁displaced 619
▁extraordinary 619
▁Convention 619
▁Herald 619
▁eclipse 619
▁Bilaspur 618
▁dynamic 617
▁Prithviraj 616
▁Chaitanya 616
▁triumph 616
▁configuration 616
▁sinners 616
▁forehead 615
▁2015-16 615
corruption 615
▁shirt 615
▁unrest 614
▁twin 614
▁swine 614
▁Surjewala 613
▁census 613
▁Turn 612
▁Balochistan 612
▁Mirwaiz 611
▁entertainment 611
▁Region 611
▁Gaurav 610
▁wicket 610
▁Squad 610
▁patent 610
▁extinguish 609
▁abundant 609
▁overseas 609
▁precise 608
▁Shahjahanpur 608
▁Keshubhai 608
▁swift 608
▁disappear 607
▁nervous 607
▁compliance 607
▁Solanki 606
▁Nadda 606
▁socio 606
▁mourn 606
▁browser 606
▁circum 605
▁suburb 605
▁abortion 604
▁Registrar 604
▁Pooja 603
▁strategies 603
▁fame 603
▁resolving 602
▁preliminary 602
▁decisive 602
▁Truly 602
▁NCTC 601
▁Terrorism 601
▁Full 601
▁label 601
▁Bukhari 600
▁Bridge 599
▁fertili 599
▁provoke 599
▁denial 599
▁purifie 598
▁Integrated 598
▁quantities 598
▁inspire 597
▁depict 597
▁hijack 596
▁anymore 596
▁surge 595
▁Jinnah 595
▁angel 594
▁impressed 593
State 593
▁imagination 593
▁proxy 593
▁Airways 592
▁Marriage 592
▁ADG 592
▁Prajapati 591
▁Satyagrah 591
▁ambition 590
▁Price 590
▁BJD 590
▁Gonda 589
▁Cooperative 589
▁Museum 589
▁Certificate 588
---------------- 588
▁Laxman 587
▁Siddaramaiah 587
▁Etawah 587
▁Liberation 586
▁accuse 586
▁occupy 586
▁distribute 586
▁affiliated 586
▁Smart 586
▁Type 586
TS 585
▁Subrata 585
▁modification 584
▁William 584
▁auspicious 583
▁bunker 583
▁Keshav 583
phrase 583
▁Hussein 583
▁Kannauj 582
Kashmir 581
▁Patanjali 581
▁Document 581
▁adhere 580
▁Nashik 580
▁ethnic 579
▁Tahrir 578
▁underworld 578
▁deploy 578
▁abnormal 577
▁varieties 577
▁Ganguly 576
troducing 576
eminent 576
▁convene 575
▁releasing 575
▁Stalin 575
▁Claim 575
▁typical 575
▁announcing 573
▁forecast 573
▁Throne 573
▁excise 572
▁inhabitants 572
▁desperate 571
▁Aaron 571
Agency 570
▁Swachh 570
▁grandmother 570
▁dynasty 570
▁honey 570
▁reservoir 570
▁Kutch 570
▁postpone 569
▁vocal 569
▁gratitude 569
▁HRD 569
▁Bajrang 569
▁Udaipur 569
▁Benaras 568
▁Srinivas 568
▁mosquito 568
▁exhaust 568
▁reconciliation 567
▁Nicobar 567
▁Vrindavan 567
▁tendency 567
▁Praveen 567
▁distributing 566
▁worn 566
▁Ashwani 566
▁Microsoft 566
▁NDRF 566
▁primarily 566
▁flew 565
▁altogether 565
▁oblig 564
▁forefront 564
▁batsman 564
▁Nirbhaya 564
▁unprecedented 563
▁hurry 563
▁Siachen 563
▁Establish 562
▁Irfan 562
▁illusion 562
▁SEBI 561
▁Chrome 561
▁franchise 560
▁tolerance 560
▁enlighten 560
▁Srivastava 559
▁resume 559
▁mortgage 559
▁hyper 559
▁nutrition 559
▁Nobel 558
▁Khemka 558
utonomous 558
▁retire 557
▁Mainpuri 557
▁Marshal 557
▁devastation 556
▁retribution 556
▁safeguard 555
▁Unnao 555
▁territories 555
Delhi 555
troller 554
▁Student 554
▁equity 554
Muslim 554
▁Solomon 554
▁nursing 553
▁Cyber 553
▁Kathua 553
▁Dinakaran 553
▁bliss 553
Efforts 552
▁ancestors 552
▁Gangotri 552
▁saffron 551
▁conferencing 551
▁complicated 551
▁Monitoring 550
▁shortcomings 550
▁Associate 550
▁atrocities 550
▁particles 550
▁Pushkar 549
two 549
▁colleague 549
▁Collegium 549
▁Annual 549
▁attorney 548
▁enhancing 548
▁Large 547
▁Hazrat 547
▁Specif 547
▁mastermind 546
▁curriculum 546
▁grievous 546
▁calf 545
▁battery 545
▁intersection 544
▁Palestine 544
▁submerged 544
▁ASEAN 544
Neelu 543
▁navy 543
▁physician 543
▁appreciate 543
▁chairperson 542
▁reiterated 542
▁deteriorating 542
▁Candidate 542
▁amazing 542
▁Property 542
▁Rohatgi 542
▁Video 541
▁frustration 541
▁kerosene 541
▁renown 540
▁Subramanian 540
▁Tehsil 540
▁capabilities 540
▁charging 539
▁modified 539
▁Jamshedpur 539
▁slope 539
▁chaos 538
▁clause 538
▁stimul 538
▁vacate 537
▁Jaunpur 537
▁Shree 537
▁Regulation 537
▁humiliate 537
▁Barabanki 536
▁Reply 536
▁Meenakshi 534
▁sanitation 534
▁eldest 533
▁Satyendra 533
▁misbehaving 532
▁Success 532
▁allotment 532
▁larva 532
▁Jewish 532
▁zoo 531
▁Kathmandu 531
▁Excise 530
▁abundance 530
▁Governance 530
▁Olympic 530
▁Protect 530
▁unauthorized 529
▁Jawahar 529
▁Benefit 529
▁Bhagalpur 528
▁compelled 528
▁Bofors 527
▁educat 527
▁Kurien 527
▁vertical 527
▁Location 527
▁glorify 526
▁vacancies 525
▁meditation 525
▁Shivsena 525
▁Benefic 525
▁glorious 525
▁disadvantage 524
▁Cooperation 524
▁Visakhapatnam 524
▁sensor 524
▁wrongdoing 524
▁Constable 524
▁Radio 521
| 492
` 480
▁prostrat 452
é 420
~ 397
ompassionate 365
葉 356
\ 305
° 292
▁unbeliev 273
£ 247
***** 229
[ 210
^ 160
ğ 160
 160
• 134
( 128
ñ 127
ü 124
♫ 112
 101
’’ 96
‘‘ 89
ā 84
· 73
ç 70
á 61
è 54
XX 51
♪ 50
à 47
容 46
ö 45
μ 45
用 44
₹ 42
⁄ 42
\\ 41
 40
ï 39
¬ 39
× 36
Θ 34
í 32
ø 28
Č 25
ञ 25
“मैं 24
यह 24
ó 22
इस 22
वीं 21
ः 20
\“ 20
ı 20
« 20
â 20
++ 18
** 17
द्दह्ल 17
जिसने 17
ä 16
ō 16
» 16
इसके 16
― 16
ş 15
ZZ 15
आप 15
Ö 15
और 15
ã 14
√ 14
′ 14
Î 13
様 13
ī 12
© 12
२ 12
“आप 12
ँ 12
क़ुरआन 12
QQ 11
@Q 11
एक 11
“Q 11
नोट 11
Zफिर 11
“ये 11
। 11
******* 10
*** 10
ū 10
̈ 10
XXX 10
चेतावनी 10
क्या 10
− 10
€ 9
🇮🇳 9
ê 9
ú 9
जो 9
“हम 9
हालांकि 9
१ 9
“Z 9
के 8
± 8
 8
’— 8
ए 8
यूआऍल 8
इनके 8
“क्या 8
नया 8
® 8
Š 7
👉 7
QX 7
→ 7
कोई 7
सी 7
किसी 7
“नहीं 7
“तुम 7
“X 7
जी 7
ZX 6
XQ 6
øø 6
É 6
­ 6
—‘ 6
बी 6
“और 6
“वो 6
कृपया 6
हिन्दी 6
“अरे 6
विशेष 6
“यह 6
“मेरे 6
“अगर 6
उपयोगी 6
Â 6
̨ 6
ना 5
ZQ 5
़ 5
Ø 5
š 5
इसे 5
Zइफर 5
“क्यों 5
“मुझे 5
“एक 5
अधिक 5
उन्होंने 5
ने 5
अनुशंसा 5
वे 5
“अब 5
“अपनी 5
☻☻☻☻☻ 5
“बस 5
फ़ाइल 5
जिसके 5
‐ 5
§ 5
Δ 5
有 5
XZ 4
QZ 4
्रेड 4
**** 4
😂😂 4
π 4
—“ 4
झूला 4
खोजें 4
“उबुन्टू 4
सही 4
बड़ा 4
मुसलमान 4
“सौर 4
स्थापत्य 4
“हे 4
“देखो 4
“ओह 4
“ऐसा 4
बजट 4
अल 4
बिरूनी 4
“तो 4
ख़ुदा 4
ईमान 4
‘चिंटू 4
समझना 4
२००९ 4
अद्यतन 4
ऋण 4
ज्ञानवान 4
† 4
आदेशों 4
ख 4
१२१ 4
हाइपर 4
३ 4
यही 4
फलेश 4
खुद 4
ग 4
४ 4
नीति 4
“हाँ 4
दादा 4
पृथ्वी 4
“तुमने 4
‘पूर्वी 4
‘यामा 4
माउण्ट 4
ब्रिटिश 4
प्रमाणपत्र 4
अन्य 4
तिलावत 4
ṭ 4
बैंकिग 4
♫हर 4
क 4
तुम्हारे 4
“राष्ट्र 4
सर्वोच्च 4
यदि 4
β 4
१७७५ 4
१८१७ 4
擁 4
要 4
預 4
째 4
सिंह 3
😂😂😂 3
__ 3
___ 3
ß 3
🇮🇳❤ 3
>> 3
ô 3
π∕ 3
¡ 3
́ 3
“खोलें 3
स्रोत 3
ऊण्श्छ्ष् 3
∶ 3
सुप्रीम 3
क्रिस्टॉफर 3
हो 3
ऑनलाइन 3
को 3
‘पुरा 3
„ 3
➣ 3
“अपने 3
की 3
कितना 3
अपने 3
विस्तार 3
इन 3
कुल 3
संचित 3
वें 3
“अनुप्रयोग 3
खाद्य 3
नारियाँ 3
आपकी 3
पर 3
संदेश 3
आँख 3
ये 3
समय 3
में 3
♫हम 3
ताबईन 3
भारतीय 3
दूसरी 3
“डाक 3
हंसते 3
ई 3
आपका 3
‘अण 3
डी 3
वातावरण 3
वो 3
‌ 3
“स्क्रीनशॉट 3
“मैंने 3
नियंत्रण 3
बेनाम 3
अज्ञात 3
एच 3
Ç 3
प्रक्रियाबिल 3
विधेयक 3
शीर्षक 3
पाठ 3
मेरा 3
♫ओह 3
 3
कर्नेल 3
İ 3
æ 3
â 3
≤ 3
φ 3
τ 3
‰ 3
करें 3
‘Q 3
庸 3
謡 3
😀 2
मान 2
👍 2
⛈ 2
😇 2
🤔 2
चल 2
👏 2
ł 2
******** 2
¥ 2
#Q 2
🙏 2
बजे 2
θ 2
¤¡ 2
’‘ 2
’’’ 2
î 2
जीवाणुओं 2
अस्पष्ट 2
क्राउन 2
फर 2
विडिओ 2
अधिकतर 2
पीड़ित 2
“हमें 2
संस्थागत 2
मेरी 2
गैर 2
मैं 2
उबुन्टू 2
माउस 2
फोरम 2
दुभाषियों 2
सिर्फ 2
ZZफिर 2
प्रारंभ 2
“निर्णायक 2
संकेत 2
उदाहरण 2
“अच्छा 2
बूट 2
आपके 2
हँसी 2
“इसे 2
हैमिल्टन 2
खाते 2
सभी 2
विडियो 2
ग्लेड 2
“पूर्वावलोकन 2
“छोड़ें 2
सार्वभौमिक 2
घटिया 2
रद्द 2
गुप्त 2
वां 2
विभिन्न 2
अब 2
संसार 2
ट्रेड 2
रोनी 2
कैनॉनिकल 2
ऑडियो 2
“आपको 2
शून्य 2
भंडारण 2
० 2
‘प्रेम 2
मानक 2
पृष्ठ 2
इसकी 2
“कोई 2
सूचक 2
दिन 2
एप्पलेट 2
“तुम्हें 2
तो 2
सिलवरलाइट 2
लेखक 2
बाउंस 2
“कार्यवाही 2
मारे 2
क्योंकि 2
क्रोमियम 2
कुरुक्षेत्र 2
माफ 2
नवम्बर 2
ıç 2
लोगों 2
 2
“मै 2
“बात 2
एलबम 2
ē 2
“इस 2
“न 2
ड़ी 2
वर्तमान 2
खिलाड़ी 2
Ş 2
आज 2
“सरकार 2
एक्सटेंशन 2
बच्चों 2
बहुत 2
पट्टी 2
यहाँ 2
पलक 2
कार्ड 2
अपरिचित 2
“असल 2
☻☻☺ 2
नाम 2
“पता 2
तिथि 2
एफ 2
हमेशा 2
Å 2
üçü 2
÷ 2
â¤ 2
̧ 2
ZZZ 2
Ω 2
Λ 2
ν 2
क्लिक 2
औ 2
सं 2
र 2
X’ 2
हैं 2
Zü 2
洋 2
傭 2
 2
由 2
病 2
悠 2
» 2
耀 2
पह 2
āसु 1
宇宙 1
忍者 1
⭐ 1
☆☆☆ 1
👌🏼💃💪 1
 1
============= 1
🏅🎖🏅🎖🏅🎖🎖 1
✔ 1
XQQ 1
ਵਲ 1
नाथ 1
$$$$ 1
$$$$$$$$$$ 1
$$$$$$$$$ 1
♡ 1
######### 1
💙💙💜💜 1
🤣🌺 1
🙏🏽 1
पूर्व 1
********** 1
ਲੀ 1
😀😀😀 1
😊 1
ફ 1
👇😂 1
🙏🏻🙏🏻 1
<स् 1
स् 1
त्र 1
द्द 1
द्द> 1
वी 1
@@ 1
👏👏 1
ઇ 1
بالاكريشنا 1
XZX 1
Þ 1
गाव 1
😂😂😂😂 1
எங்கதலபோலவருமா 1
👉🇮🇳 1
👑 1
💃 1
🇵🇰 1
== 1
اور_دھرنا_ختم_ہوگیا 1
😏 1
🙏😊 1
💍👫💍 1
👍😁☑😝💯 1
חג 1
שמח 1
חברים 1
 1
|| 1
❤ 1
å 1
्रेस 1
QQQ 1
🙂 1
👋 1
😎 1
था 1
લો 1
री 1
गुडा 1
Æ 1
✂ 1
🇮🇳👍 1
Индия 1
приветствует 1
Вас 1
Президент 1
Путин 1
Желаем 1
Вам 1
получить 1
незабываемые 1
впечатления 1
от 1
пребывания 1
в 1
Индии 1
संपन्न 1
प्रती 1
प्रतिः 1
इरादे 1
\\\\ 1
स्तुतः 1
“लगता 1
राउटर 1
बेल्टवे 1
रकृति 1
सचेत 1
चर्मपूर्ण 1
ड्राइवर 1
काम 1
तभी 1
“दिव्य 1
जैसा 1
“पनीर 1
ंग्रहालय 1
“दूसरों 1
“आपका 1
सीएआईआर 1
रोज़गार 1
प्रक्रिया 1
आइ 1
सख्त 1
केंट 1
घर 1
फोल्डर 1
“रंग 1
मैंने 1
“दीवार 1
स्टिकी 1
वह 1
“पहली 1
कौनसी 1
सनी 1
ऑम्निबॉक्स 1
अराऊन्ड 1
“संस्करण 1
बदलाव 1
सत्रहवीं 1
पोटा 1
सादोवस्की 1
खेद 1
“हर 1
बिजली 1
टॉमब्याय 1
Zकुछ 1
“भारत 1
स्वचालित 1
पी 1
“निःसंदेह 1
“टॉमब्वाए 1
क्रय 1
मेजबान 1
“भगवान् 1
अक्ष 1
Zस्त्रियां 1
चुनी 1
बन्धक 1
प्लग 1
“धन्यवाद 1
कार्य 1
नर्म 1
एक्सपोर्ट 1
कब्जे 1
ट्रैकिंग 1
रहित 1
♫तुम 1
डाउनलोड 1
बिगुल 1
ओलुन्टर्य् 1
♫देखो 1
“पीछे 1
Zबसव 1
डायल 1
“सभी 1
अचिन्हित 1
Zधर्मसिद्धांत 1
संरचना 1
धीमी 1
“हाथों 1
हालिया 1
पदावनत 1
फ्लैक्ट 1
व्हाइट 1
प्लेलिस्ट 1
रुकने 1
जिस 1
सीपीयू 1
उपरी 1
“इमर्सिव 1
ओएस 1
अग्रभूमि 1
नहीं 1
♫गरीब 1
Zआयु 1
Zफिलहाल 1
अंतरफलक 1
वार्षिक 1
आरेख 1
प्रेषित 1
साथ 1
“भविष्य 1
“स्थान 1
“नया 1
आकार 1
सामान्य 1
संजाल 1
सैमुअल 1
एन्कोड 1
“कहानियों 1
एल 1
Zइफ़र 1
भाला 1
प्रायः 1
Καστελόριζο 1
Μεγίστη 1
“मु्झे 1
बुरे 1
मदद 1
बंद 1
फोटोग्राफी 1
ZZवशिष्ठ 1
वेबसाइट 1
अभी 1
धुरी 1
एरियल 1
माहेर 1
जॉर्ज 1
“जबरदस्त 1
“पर 1
ओध 1
☻☻☻☻☺ 1
☻☻☻☻ 1
इसको 1
शैली 1
शोर 1
“आपके 1
“इजरायल 1
प्रयुक्त 1
“तुम्हारी 1
“मम्मी 1
“सिर्फ 1
द 1
“बच्चे 1
ऐसा 1
अच्छा 1
कुछ 1
जाँच 1
ज्यादातर 1
उपयोग 1
Xमोबाइल 1
तलाश 1
अंतर्राष्ट्रिय 1
तयशुदा 1
“परीक्षा 1
“आधिकारिक 1
“क्लीन 1
उबुन्तु 1
Zअंतरों 1
“अचिलस 1
शायद 1
“वहां 1
“दुनिया 1
Zदक्षिण 1
“छुट्टी 1
अस्थाई 1
आ 1
ध् 1
ठ् 1
वैज्ञानिक 1
♫सिर्फ 1
Zफिंडले 1
अतिरिक्त 1
“भई 1
“जी 1
लगभग 1
नये 1
“कहानी 1
ओरेगोन 1
विशेषकर 1
दराज़ 1
الولايات 1
المتحدة 1
الأمريكية 1
الإسلامية 1
“खाना 1
प्रिंटआउट 1
“स्क्रिप्ट 1
सूचनाएँ 1
Zहिदुस्तानी 1
“माइनौरटी 1
उपलब्ध 1
जिसे 1
खीचे 1
लेबल 1
लॉगिन 1
“संपर्क 1
सुनिश्चित 1
प्वाइंटर 1
कुंजीपटल 1
दाहिना 1
अली 1
क्रैश 1
“कॉपीराइट 1
युक्ति 1
कंट्रोल 1
मौलिक 1
“हार्वर्ड 1
““ 1
आपको 1
हमने 1
मेटासिटीसत्र 1
“कार्य 1
कागज 1
“रद्दी 1
तरक्की 1
कानून 1
रेटेड 1
टर्मिनल 1
स्वीकार्य 1
किरायेदारों 1
निर्माण 1
बोयम 1
असेंसमेंट 1
छवि 1
“लोगों 1
जीनोट 1
जार्ज 1
“चीज 1
प्रारूप 1
मगनभाई 1
रेडियो 1
“तब 1
“हनी 1
भीड़ 1
“एज 1
इसलिये 1
डैनियल 1
वीडियो 1
मानवीय 1
कूटशब्द 1
उपयोक्ता 1
रेज़िडेंशल 1
स्थिति 1
प 1
पाइथागोरस 1
ब्रहमाण्ड 1
न्यूयार्क 1
“इस्लाम 1
ईरानियों 1
“माँ 1
संक्षिप्त 1
Zफिलिस्तीन 1
“मेटा 1
कार्यान्वित 1
महाविश्व 1
“भूखे 1
“उससे 1
स्थानीय 1
“दोहरे 1
“यहां 1
Zहल्की 1
प्रदर्शन 1
♫हमारे 1
प्रॉक्सी 1
परिवर्तन 1
रंगीन 1
बीमारी 1
Üç 1
आभासी 1
“संसार 1
आपने 1
हिदायत 1
“ह्म्म्म 1
“मैराथन 1
प्लेयर 1
♫हमारा 1
१० 1
पूल 1
सीनेट 1
“प्रातः 1
वेब 1
दीवार 1
मुख्य 1
स्वयं 1
“वे 1
इथरनेट 1
“बहोत 1
हाउज़िंग 1
ओलुन्टेएर्स् 1
शब्दकूट 1
इजरायल 1
आर्विन 1
टिप 1
फ़ोल्डर 1
वापसी 1
“मुक्त 1
“मजेदार 1
ज़रा 1
Zवराहमिहिर 1
स्वर्ग 1
“तुम्हारा 1
अर्थ 1
व्यवस्था 1
स्थापित 1
ří 1
अस्थायी 1
áš 1
कौरवों 1
सर्वर 1
♫फ़्राइडे 1
मगर 1
“क्योंकि 1
याद 1
पैकेज 1
सों 1
नवीनतम 1
विराम 1
चार्ज 1
खोज 1
जबकि 1
पिछली 1
निजी 1
गहरा 1
अनुरक्षित 1
भोजन 1
üş 1
“वॉशिंगटन 1
नो 1
क्रियाएँ 1
प्रकार 1
Zहमने 1
Zमुख़्य 1
लोगिन 1
कार्यालयी 1
इस्लाम 1
टाईपिंग 1
गायक 1
हिंदुस्तान 1
स्मार्ट 1
पैक 1
मूल 1
याह्या 1
“स्कूल 1
सात 1
Zऔर 1
सुकरात 1
लेकिन 1
प्लगइन 1
पाक्स्तान 1
हिन्दुओं 1
“चौका 1
बोल्डर 1
चुनें 1
प्राचीन 1
स्कॅाटलैंड 1
टीप 1
नैरो 1
“पानी 1
पहले 1
“परमात्मा 1
अनुचित 1
“तुझे 1
“डायनासौर 1
चिपकाएँ 1
प्रशिक्षण 1
फैमिली 1
इ 1
पाल्मर 1
Zचूंकि 1
क्रिस्टी 1
सबके 1
अल्लाह 1
बोलते 1
“वह 1
“मैजिक 1
“ईश्वर 1
जांच 1
तालियाँ 1
प्रामाणीकरण 1
मेनू 1
एवियेशन 1
य्तथा 1
य् 1
सेवा 1
“खैर 1
तकनीकी 1
“द 1
Zइत्तुमानुर 1
उन्हें 1
“इनमें 1
मुस्लिम 1
कि 1
सूचना 1
“अन्दर 1
कई 1
सूची 1
Zकृषि 1
बच्चा 1
पैसे 1
सदृश 1
“बेहतर 1
अंदरूनी 1
घड़ी 1
सलिए 1
“दादियों 1
स्पिन 1
डाउन 1
हेडर 1
अगर 1
ला 1
से 1
Zहमें 1
प्रसंग 1
“उन्हें 1
“संक्रामक 1
“जंगली 1
होस्टेड 1
“कठिनाईयों 1
“सारे 1
कुलाथी 1
“ईमानदारी 1
ZZकुछ 1
फ़ाइलों 1
संक्रांति 1
कार्यालय 1
Zयह 1
प्रगति 1
ब्राउस 1
एटायमोलॉजी 1
“ऒह 1
♫दिन 1
Zजाहिर 1
दुहराव 1
टेड 1
स्तंभ 1
दैनिक 1
अध्याय 1
“बचकाना 1
वाइडस्क्रीन 1
“कैसे 1
अपाचे 1
“संतौ 1
Zबरमिस् 1
डीज 1
जिसका 1
वैक्यूम 1
कांग्रेसमैन 1
दोहराई 1
ध्वनि 1
‘निगरानी 1
तेजी 1
स्वतः 1
“लेकिन 1
उस 1
माइकल 1
निम्न 1
“उसका 1
संदिग्ध 1
राकृतिक 1
रूका 1
टीव 1
“ठीक 1
सिस्टम 1
सर्वाधिकार 1
“टेड 1
एंटरप्राइज़ 1
साफ्टवेयर 1
“प्रोफेसर 1
ओर्का 1
Zतमिल 1
सैनेटरी 1
नैपकिन 1
इस्तेमाल 1
या 1
ऋपया 1
कूड़े 1
दान 1
ओह 1
किस 1
उच्च 1
“आज 1
खतरा 1
Í 1
वर्चुअल 1
हॅवर 1
“जिसमें 1
ý 1
येहुद 1
“ज्ञापन 1
♫अमीर 1
“हमने 1
बरामद 1
क्लोनिंग 1
“काश 1
“शुक्रिया 1
“पंचांग 1
ž 1
“इससे 1
कंपोजर 1
घटते 1
साइनेक़्स 1
‘इस्लाम 1
थियो 1
जैनएअटर 1
Zगद्दियों 1
बीजिंग 1
ईरान 1
♫पिकनिक 1
अंग्रेजी 1
“शांत 1
अनुलग्नक 1
संलग्न 1
“पूर्व 1
सिनेप्टिक 1
स्थान 1
“देखिये 1
सफ़लताओं 1
अवमानना 1
“जैसे 1
“आधे 1
“केवल 1
Zइसी 1
“बेन 1
“मगर 1
“अन्य 1
वीडिओ 1
नेपाल 1
“आलोचना 1
मुख्यतः 1
“राज्यपाल 1
Zअनिवार्य 1
कश्मीर 1
 1
वास्तव 1
“विश्व 1
“माइंड 1
अनुमानित 1
क्लोन 1
ओ 1
‘ग्नुकॅप 1
विवरण 1
सूर्य 1
अपडेट 1
इनमें 1
♫हे 1
औडियो 1
निर्देशिका 1
“वुप्प 1
सउदी 1
“इन 1
সুভাষ 1
চন্দ্র 1
বসু 1
“माफ़ 1
“श्रीमती 1
“ट्रैक 1
“हां 1
इसमें 1
“मेरा 1
पेज 1
घंटे 1
कोडेक 1
अभियोजन 1
अनौस 1
नामक 1
विकल्प 1
हमास 1
“चर्च 1
कठिन 1
“अधिक 1
मद 1
अब्दुर्रहमान 1
“जो 1
टाइपिंग 1
त्वरित 1
इंटरनेट 1
खेलों 1
♫उन्हें 1
चिपकाएं 1
“सूर्योदय 1
अपितु 1
ठहाके 1
♫हा 1
अधिसूचना 1
६० 1
अपना 1
Zअभी 1
नीचे 1
बालिग़ों 1
जेएस 1
गाँव 1
सिमुलेटेड 1
इसका 1
“लहराता 1
बाइट 1
जीनोम 1
बाद 1
जब 1
दस्तावेज़ 1
मैनिंजाइटिस 1
इसी 1
पुरानी 1
“क्वे 1
“बच्चों 1
दर्शको 1
बेसलान 1
“यूरोजोन 1
अवलोकन 1
“डा 1
कंसोल 1
“चलो 1
न्यू 1
“जानते 1
“फिर 1
मुक्त 1
इनपुट 1
ZZZZफिर 1
“विदेशी 1
सीधा 1
ईसाइयों 1
“कचरा 1
“शायद 1
♫उथला 1
मैजिक 1
मुंह 1
प्राक्सी 1
Zउनकी 1
पहली 1
“मैने 1
çı 1
Zवस्तुत 1
Zरचना 1
प्रकिया 1
γ 1
κ 1
‘’ 1
X\ 1
XXXXXXXX 1
∨ 1
č 1
∞ 1
λ 1
â 1
Âł 1
Î 1
続 1
â 1
âľ 1
≥ 1
ω 1
\\\ 1
Ү 1
֠ 1
Β 1
Q’ 1
समन्वय 1
सर्वे 1
भवन्तु 1
सुखिनः 1
वसुधैव 1
कुटुम्बकम 1
η 1
ऐ 1
òÉ 1
ÉÉÇ 1
रा 1
भा 1
नी 1
दिनांक 1
ब्रॉड 1
गेज 1
लॉग 1
विद्युद्यद्विश्लेषक 1
’’X 1
जून 1
‘Z 1
łę 1
─ 1
¬¬¬ 1
संरक्षण 1
遥 1
 1
âQ 1
曜 1
Q° 1
妖 1
熔 1
̆ 1
揺 1
不 1
溶 1
»» 1
»° 1
»« 1
羊 1
憂 1
付 1
—— 1
❤❤😍 1
❤❤😍😍 1
❤❤❤ 1
😍 1
â 1
īī 1
पार्श्व 1
गायिका 1
টে 1
😁 1
என் 1
தமிழ் 1
நண்பர்கள் 1
அனைவருக்கும் 1
மகிழ்ச்சியான 1
மற்றும் 1
ஆசி 1
நிறைந்த 1
பொங்கல் 1
வாழ்த்துகள் 1
🇮🇳🏆 1
🥊 1
🙏🙏🙏 1
प्लेस 1
लू 1
@Z 1
टर 1
@_ 1
मिल 1
িজ 1
ć 1
@X 1
🎊🎉 1
লি 1
ડાઉન 1
रेज 1
☺ 1
madeupword0000 0
madeupword0001 0
madeupword0002 0
