. 4985909
▁ 4288288
, 3654143
__t2en__ 3651532
▁the 3560999
__t2hi__ 2879680
। 2469204
s 2269596
▁के 2032533
▁of 1749511
▁में 1450628
▁है 1281171
▁in 1245693
▁की 1244398
▁to 1211106
‍ 1178982
▁को 987084
▁and 896431
▁से 888909
▁a 730962
▁का 712645
▁ने 706702
▁पर 684913
▁is 684407
' 681792
__t2ml__ 659417
__t2bn__ 637422
- 608082
▁that 583750
▁कि 552925
▁और 540994
ing 537877
ी 532705
▁on 522815
▁- 437798
ed 437203
d 436398
▁भी 433406
ों 431890
▁हैं 429440
न 393718
▁has 391846
▁this 378590
▁The 364666
▁be 360523
▁for 354882
? 352084
ा 347172
▁लिए 333644
▁was 330142
__t2ur__ 326613
__t2ta__ 326211
ल 325447
__t2te__ 322159
र 314923
▁۔ 296862
▁will 294840
▁नहीं 292740
म 288328
് 287390
▁कर 277976
▁not 277875
▁एक 276850
▁I 274572
▁from 272792
▁इस 271783
y 270918
क 269478
▁said 252001
n 249777
t 249047
▁it 248123
▁यह 242366
▁कहा 241875
▁also 239050
▁are 237176
▁with 233447
▁( 233387
e 228620
▁व 227772
त 224781
৷ 223955
ം 223660
▁have 221166
▁ही 219544
: 218743
▁किया 213623
▁ہے 213579
▁, 210155
▁کے 209419
▁you 209413
▁था 207718
ने 206383
▁हो 205886
े 204573
▁In 201202
র 197005
er 196724
स 194843
▁गया 194321
▁he 190916
▁by 186123
a 184687
ের 179780
▁been 179706
▁करने 178641
) 177070
▁میں 175172
▁' 175017
al 168806
i 168347
▁बाद 165691
! 165281
▁کی 163743
ना 163514
ly 163444
प 161530
▁न 160015
▁सरकार 154435
▁A 152440
ం 149228
▁दिया 149080
ट 148967
द 148917
▁तो 147746
▁By 147341
▁سے 145258
ता 143977
▁government 143261
ে 143221
▁साथ 142609
o 142421
▁m 142125
▁जा 141803
in 141295
▁his 141227
ह 140562
m 139724
ो 139724
▁He 139465
▁Minister 136374
f 136021
ു 135024
▁हुए 134192
re 132831
▁अ 132645
le 132182
ம் 130700
or 130610
▁there 130443
ज 129764
ی 129299
k 128595
▁can 128549
▁at 128392
▁had 126817
r 126652
▁दिल्ली 124945
▁Delhi 124683
▁people 124523
▁तक 123205
व 121088
▁गई 120325
▁आ 120194
ब 119650
h 119602
▁रहे 119449
ന് 119216
▁as 118362
ar 117848
com 117690
▁It 117656
c 116246
ri 115417
▁were 115359
ू 115325
▁उन्होंने 115290
ँ 115088
u 114863
▁थी 114119
es 114078
▁، 111931
ur 111663
ला 110563
ra 110424
റെ 110164
▁वह 109332
ll 109048
li 108701
లో 106620
en 106092
कर 105347
▁रही 105254
_ 104585
ं 104550
an 104155
▁S 103934
▁اور 103530
▁but 103088
▁रहा 102487
रा 102284
▁کا 102040
▁go 101850
▁which 101460
▁दी 101390
▁who 99670
th 99353
▁time 99105
▁after 98462
ि 98381
▁do 98105
▁మరియు 97015
5 96358
ര് 96272
▁लेकिन 95895
▁प 95183
ই 95117
ন 95057
▁all 94666
▁India 92477
▁होने 92441
▁about 92129
g 92011
ियों 90856
ग 90643
▁an 90288
p 90093
ित 89938
▁थे 89824
se 89610
▁गए 89291
কে 88600
▁अपने 87936
▁भारत 87857
▁کو 87850
▁पुलिस 87747
▁पहले 86960
▁म 86602
▁[ 85932
ण 85763
च 84393
▁This 84131
▁Singh 84099
▁B 84085
▁Congress 84063
िक 83898
▁इसके 83578
▁me 82417
S 82291
on 81968
▁ہیں 81770
▁कांग्रेस 81497
jagran 81426
ु 80546
▁लोगों 80260
ड 80250
ती 79917
▁नई 79805
▁BJP 79444
▁दो 78958
ও 78880
وں 78862
▁their 78664
il 78440
1 78425
▁Read 78382
▁P 78374
▁b 77856
य 77728
4 77639
2 77580
യ 77498
ir 77496
▁क 77464
▁see 77442
▁कुछ 77313
▁D 77286
▁two 77261
▁भाजपा 77191
ti 77155
R 77117
▁19 76877
▁or 76854
▁they 76614
▁one 76237
▁we 76234
▁G 76111
▁না 76098
ro 76038
8 75700
0 75671
am 75495
▁On 75428
▁then 75408
7 75226
la 75145
▁so 75035
ation 74851
6 74447
▁अब 74154
ें 74084
▁वाले 73854
▁You 73841
ক 73548
श 73228
▁no 73049
▁re 72872
ി 72801
▁मोदी 72317
ए 72298
▁police 72248
ते 72181
w 72153
A 72076
▁other 71971
▁Modi 71910
▁सिंह 71906
at 71771
ic 71763
3 71751
b 71721
▁மற்றும் 71642
ul 71448
▁case 71162
▁स 70930
ck 70920
I 70583
ली 70336
▁देश 70273
▁اس 70183
▁them 69833
▁पढ़ें 69680
▁फ 69637
▁him 69222
മ 68978
ड़ 68945
▁बताया 68183
▁जो 68162
▁After 68119
el 67916
▁ब 67737
▁only 67674
▁আর 67666
▁C 67590
▁मामले 67550
ve 67446
नी 67352
▁पार्टी 67258
ख 66986
▁should 66952
▁कोई 66929
na 66812
9 66739
▁To 66666
▁being 66387
▁get 66329
िया 66311
ma 66085
▁लेकर 66004
ম 65887
▁پر 65464
▁country 65436
सी 65007
ത 64861
▁M 64636
▁प्र 64623
▁ग 64570
െ 64517
▁10 64399
▁p 64358
▁new 64334
N 64251
▁against 64084
▁এই 64030
▁അ 63981
▁हुई 63924
l 63723
ക്ക് 63614
री 63459
▁here 63376
it 63145
st 63083
ল 62962
▁इन 62944
ै 62939
▁de 62828
లు 62758
▁करते 62116
▁out 62109
▁made 62072
▁state 62018
C 61971
मा 61728
j 61546
फ 61479
▁হয় 61449
▁" 61401
ch 61383
▁तरह 61219
▁चुनाव 61164
▁5 61118
׀ 61116
ion 60972
তে 60766
ില് 60661
▁जाने 60649
▁Chief 60615
▁बात 60405
▁कोर्ट 60316
् 60166
▁साल 60142
▁ও 60045
ent 59781
P 59748
▁उनके 59739
ത്തില് 59722
ാ 59298
ate 59239
▁any 59162
्य 59114
ا 58888
▁कई 58636
▁its 58498
▁या 58444
M 58423
▁उन्हें 58333
▁news 58211
▁live 58157
um 57908
▁c 57630
D 57620
▁4 57565
ta 57542
▁your 57538
▁like 57480
▁There 57222
ത് 57221
▁party 57209
ക്ക 56949
ന 56819
য় 56800
ങ്ങള് 56786
▁मंत्री 56712
00 56572
▁वि 56504
▁these 56369
▁e 56218
▁बार 56101
ers 56076
▁বা 56075
ne 56048
▁किसी 55908
▁থেকে 55725
वा 55679
ce 55391
▁some 55274
സ് 55249
న 55193
ల 54993
േ 54793
▁up 54789
िंग 54746
▁ഒരു 54672
▁अपनी 54534
▁प्रदेश 54463
▁করে 53970
] 53883
te 53875
▁राज्य 53668
▁court 53544
▁6 53536
ंग 53363
... 53227
▁ഈ 53191
B 53186
▁given 53139
▁According 53095
▁New 53036
▁An 52992
ओं 52991
▁did 52962
▁T 52953
கள் 52949
▁now 52830
▁more 52790
▁समय 52752
▁ले 52579
க் 52526
▁O 52466
ाई 52263
जी 52230
▁बीच 52144
▁हुआ 52082
▁ज 51934
▁നി 51573
ര 51539
▁We 51513
ष 51466
▁खिलाफ 51355
▁Court 51342
▁कम 51206
▁such 51152
রা 51145
▁दिन 51052
ले 50918
▁देखने 50901
വ 50781
ക 50624
▁जब 50429
▁But 50387
వ 50309
ర 50208
▁years 50145
ॉ 50134
ും 49984
▁नाम 49983
▁दौरान 49855
ని 49837
pur 49814
റ 49637
▁सभी 49465
▁3 49341
▁work 49328
पुर 49271
▁देने 49243
▁take 49070
का 49068
▁लिया 49038
▁আমি 49034
▁: 48904
ോ 48858
▁her 48779
ौ 48733
▁ह 48726
గా 48637
▁st 48392
▁R 48382
ണ 48382
▁मोबाइल 48372
▁12 48313
▁three 48064
▁mobile 48050
▁ఈ 47816
▁15 47813
z 47686
▁जांच 47660
▁my 47367
▁आप 47343
ke 47240
▁many 47190
യില് 47153
▁वीडियो 47130
’ 47077
▁ख 47069
ு 47067
▁co 47062
ist 46995
▁सकता 46969
et 46888
▁वे 46881
▁con 46873
ver 46607
కు 46572
▁if 46561
▁पूर्व 46498
sh 46304
ity 46299
▁काम 46267
vi 46148
▁तीन 46125
▁जाता 46116
▁चाहिए 46110
క 46010
▁प्रधानमंत्री 45838
ല് 45818
و 45743
▁year 45610
di 45489
▁بھی 45426
ത്തിന് 45392
T 45385
E 45329
▁তো 45260
▁र 45211
টা 45142
▁20 45121
▁7 45052
थ 45019
ங்கள் 45000
de 44964
▁come 44813
as 44811
▁first 44775
▁होगा 44749
tion 44653
▁त 44622
▁than 44601
▁know 44540
ment 44484
▁फोटो 44475
▁श 44421
▁मुख्यमंत्री 44340
▁रुपये 44198
স 44163
▁ये 44074
र् 44027
▁हर 43954
▁ताजा 43887
নি 43819
▁ആ 43805
un 43616
▁At 43612
▁when 43598
▁ex 43576
▁जाएं 43575
▁আ 43567
ل 43560
ത്ത 43522
▁Indian 43469
ci 43464
▁জন্য 43426
ر 43079
O 43075
▁खबरें 43075
▁उ 43071
▁latest 42918
▁शुरू 42880
யில் 42748
hi 42628
▁got 42576
ല 42536
▁Prime 42522
▁photos 42238
▁कारण 42214
क्ष 42064
▁N 42045
भ 41954
▁भारतीय 41907
▁Ma 41879
ہ 41794
id 41786
▁दोनों 41740
ర్ 41717
▁सी 41700
या 41687
মি 41610
▁last 41517
▁E 41458
▁told 41400
▁पा 41370
▁अन्य 41351
▁যায় 41345
▁रूप 41242
ن 41239
▁പ 41232
ru 41226
ல் 41207
▁यहां 41190
▁लोग 41130
ి 41078
▁videos 40999
▁लाइव 40940
▁হল 40928
जा 40872
▁இந்த 40782
▁केंद्र 40739
▁वाली 40729
▁स्कोर 40670
▁meeting 40570
▁due 40531
▁scores 40516
▁کر 40462
▁द्वारा 40333
▁उसे 40312
▁पास 40247
ാന് 40221
very 40219
▁Sa 40170
▁फिर 40149
▁8 40041
ன் 40016
ol 39976
س 39959
م 39958
▁make 39923
▁नेता 39906
মা 39789
v 39766
्या 39672
▁started 39646
wa 39543
▁दे 39523
▁उसके 39419
▁F 39388
ृ 39376
पी 39321
ge 39296
না 39119
▁If 39067
▁They 39043
▁under 38896
▁ایک 38851
▁করা 38810
▁करना 38724
hu 38576
▁30 38573
▁আছে 38572
▁उनकी 38529
▁ओर 38476
▁ఒక 38442
पा 38422
के 38404
▁शामिल 38264
्स 38215
ter 38176
ے 38170
▁मा 38152
▁same 38150
▁जारी 38135
த்தில் 38092
కి 38080
స్ 38029
ई 37954
ల్ 37932
▁इससे 37916
▁g 37860
mp 37847
▁ल 37846
ുക 37805
V 37753
L 37752
▁ए 37745
▁2 37724
▁होता 37604
us 37599
क् 37515
G 37502
▁वर्ष 37473
മായ 37452
ंड 37429
రు 37371
▁च 37330
க்க 37309
ী 37305
▁सा 37288
▁while 37266
▁కూడా 37229
▁এটা 37119
▁ఆ 37115
▁Pradesh 37081
ant 37070
्व 37046
യുടെ 37039
▁over 37034
▁करोड़ 37008
ha 36935
▁going 36898
ध 36839
ad 36815
ng 36814
▁came 36791
யின் 36765
ர் 36733
ाय 36626
x 36603
ry 36517
▁चार 36412
▁क्षेत्र 36339
▁যে 36331
▁t 36319
ப் 36319
▁Kumar 36243
▁किए 36175
▁water 36134
▁जाएगा 36097
▁what 36027
▁आरोप 35989
▁ஒரு 35933
▁days 35891
న్ 35889
सा 35882
रे 35796
गा 35650
▁accused 35591
ില്ല 35448
▁9 35421
▁सु 35407
▁Y 35397
▁day 35376
▁मिल 35370
க 35352
▁আপ 35343
▁सं 35267
▁అ 35242
▁Pakistan 35224
দের 35153
മാണ് 35116
▁हम 35060
▁between 35016
▁सबसे 35012
▁मांग 34970
സ 34967
टी 34851
▁would 34839
▁before 34839
बी 34830
▁President 34779
ीय 34728
▁place 34703
ൂ 34662
▁way 34614
▁11 34596
ত 34585
▁give 34582
ni 34558
ো 34541
▁ہو 34541
ho 34522
യും 34515
▁నుండి 34395
lo 34341
ance 34322
im 34301
▁இருக்கிறது 34224
▁কি 34161
▁मु 34160
▁taken 34156
▁अधिक 34132
▁ज्यादा 34113
ba 34112
ను 34103
▁एवं 34062
▁करीब 34049
man 34036
ള 34033
est 33998
ுகிறது 33978
▁house 33911
able 33908
▁un 33885
da 33817
har 33802
▁V 33768
▁ऐसे 33766
▁elections 33761
క్ 33759
ति 33747
स्त 33727
▁Mo 33716
▁یہ 33660
ya 33605
दा 33476
ട്ട 33457
▁18 33425
▁चल 33332
ाइ 33299
" 33209
ുന്നു 33205
▁Ka 33139
▁सुरक्षा 33128
▁इ 33082
po 33065
tra 33063
▁during 33024
ా 32941
ি 32889
ய 32811
ot 32764
va 32644
▁dis 32509
du 32502
▁অ 32478
▁K 32317
വും 32297
▁द 32265
▁Na 32247
▁नि 32245
ive 32207
डी 32185
▁information 32065
▁पाकिस्तान 32063
▁Ha 31951
▁Gandhi 31944
▁घर 31933
▁তু 31893
▁ഞാന 31893
▁done 31875
▁మ 31840
പ 31759
mo 31726
తో 31696
▁दर्ज 31690
▁भ 31636
▁अध्यक्ष 31608
▁आज 31526
▁उत्तर 31439
▁அ 31383
age 31356
ंत 31341
mi 31332
▁right 31322
▁पूरी 31277
ில் 31267
▁पद 31257
ரி 31138
▁name 31110
▁उस 31083
▁For 31034
▁बैठक 31029
▁तथा 30999
ട 30982
▁क्या 30910
▁decision 30869
మ 30846
▁लाख 30822
▁ത 30794
▁w 30785
▁इसे 30739
▁बे 30681
▁मैं 30672
ള് 30661
ight 30635
कार 30609
ঁ 30587
▁So 30482
▁leader 30466
▁मुताबिक 30456
gu 30407
ు 30366
▁Sabha 30353
া 30321
ാണ് 30310
▁गांधी 30279
▁matter 30236
han 30230
வ 30208
ک 30208
▁ना 30173
ka 30143
نے 30119
ak 30054
▁सकते 29970
ंद 29965
▁गु 29941
య 29930
▁every 29916
ంగా 29915
▁সে 29872
▁25 29845
ট 29819
మైన 29806
▁issue 29762
ஸ் 29732
▁मे 29731
গ 29707
▁पिछले 29640
ut 29636
ish 29625
▁help 29603
ட் 29600
▁asked 29568
▁U 29526
▁just 29474
ag 29461
மாக 29408
▁could 29364
ాలు 29358
वि 29324
▁मंत्रालय 29278
ിന് 29272
ies 29238
▁report 29238
▁ان 29220
▁our 29210
▁14 29194
▁सेना 29156
▁Re 29148
▁भर 29142
க்கு 29129
▁पांच 29094
గ 29081
து 29053
പ്പ 29034
एस 29033
▁होगी 29021
प्र 28966
▁होती 28959
জ 28937
▁number 28902
▁लगा 28897
ंस 28866
▁प्रति 28822
हा 28817
▁she 28770
▁সাথে 28763
ప 28689
▁হয়ে 28677
स्ट 28656
▁ہی 28647
ట 28597
▁attack 28576
▁man 28565
▁1 28557
▁found 28538
ব 28530
▁even 28505
লা 28467
▁What 28360
▁कहना 28358
` 28308
▁सकती 28294
▁area 28277
▁बारे 28265
▁Raj 28247
lu 28234
जन 28226
▁through 28199
త 28194
ठ 28163
▁विकास 28148
▁स्थित 28142
▁ஆ 28136
▁ध 28117
ja 28112
गी 28112
த 28110
மான 28082
▁ക 28051
▁become 27975
▁women 27971
▁Police 27905
▁Supreme 27894
ष् 27827
F 27823
्म 27770
▁where 27761
▁जबकि 27734
ated 27681
▁ഉ 27655
প 27652
▁जानकारी 27611
त्र 27578
▁हजार 27549
▁महिला 27536
वी 27512
▁order 27484
▁post 27432
▁good 27383
▁कुमार 27351
वर 27329
▁तैयार 27317
▁ఎ 27311
▁আমার 27305
▁four 27290
লে 27283
▁16 27274
si 27265
▁बढ़ 27199
▁वहीं 27174
मी 27142
▁आने 27124
▁अपना 27113
बा 27109
▁এক 27028
▁മ 27006
ओ 26980
ty 26960
▁say 26940
▁पी 26902
▁इसी 26898
रो 26876
▁बहुत 26871
▁अनुसार 26866
▁Rs 26854
▁रिपोर्ट 26819
से 26690
pe 26676
▁Kashmir 26675
▁want 26673
▁अदालत 26650
▁बंद 26636
▁family 26633
ే 26615
▁security 26602
▁बनाने 26514
▁five 26505
▁Mumbai 26467
▁us 26440
▁मौत 26415
▁सामने 26374
▁आए 26354
bo 26304
ine 26299
▁सुप्रीम 26295
▁बन 26247
▁রোগ 26246
▁आई 26129
▁percent 26119
▁ক 26105
▁life 26098
ഗ 26095
ness 26081
▁मुंबई 26048
nd 26033
।' 26028
me 25988
డ 25949
▁both 25933
▁50 25916
▁world 25868
▁does 25866
ാം 25865
پ 25801
टा 25795
ga 25794
▁ली 25760
िन 25739
▁ഇത് 25729
▁present 25728
▁अभी 25686
▁back 25685
▁दिए 25657
स्थ 25619
H 25609
▁Ram 25567
▁13 25549
▁ఉంది 25549
▁अधिकारी 25519
 25512
▁अलावा 25501
▁situation 25484
▁hand 25478
ാല് 25473
▁leaders 25432
▁बना 25412
▁تو 25400
▁village 25383
▁आम 25372
▁നീ 25355
▁जान 25314
▁केंद्रीय 25292
▁used 25244
▁राम 25226
▁राज 25215
▁रा 25191
▁যা 25150
▁J 25148
▁district 25137
▁money 25106
eet 25102
K 25093
▁because 25086
▁इसमें 25077
ff 25071
ുള്ള 25040
▁प्रमुख 25031
சி 25013
▁need 24998
िल 24963
min 24895
▁रोग 24790
▁including 24763
्यू 24761
U 24745
▁ho 24744
டி 24722
▁उप 24712
▁lakh 24707
ால் 24703
▁এবং 24697
रण 24695
ting 24691
ശ 24663
ர 24663
▁ഇ 24645
ంలో 24615
▁Narendra 24613
ப 24605
एं 24590
▁sa 24587
▁k 24575
മ്മ 24572
বে 24554
▁सि 24549
ted 24524
▁बयान 24521
▁तहत 24513
▁into 24491
▁statement 24483
▁read 24421
ंट 24383
▁special 24368
▁हालांकि 24360
▁അവ 24358
▁reached 24311
▁Government 24302
▁পা 24246
▁ट 24239
▁ऐसा 24156
▁Ba 24149
▁परिवार 24147
▁जी 24137
को 24123
▁CBI 24113
லி 24089
he 24065
▁उनका 24047
▁No 24043
▁এ 23979
▁जाती 23973
ab 23965
▁अगर 23964
▁di 23959
▁पानी 23950
श् 23919
em 23879
ണം 23871
▁took 23860
▁thousand 23843
▁कु 23838
▁विभाग 23820
▁க 23820
▁children 23810
ش 23805
শ 23801
op 23765
ast 23744
▁सवाल 23736
धा 23714
▁rupees 23698
▁Dur 23616
▁High 23611
▁बाहर 23588
▁ला 23584
▁राष्ट्रीय 23576
▁మీ 23478
▁छ 23471
▁Vi 23469
▁ম 23463
is 23442
▁Ministry 23435
రా 23435
▁मंदिर 23430
▁When 23419
▁करें 23418
ia 23402
▁Man 23400
▁कानून 23398
‌ 23385
ther 23380
▁वहां 23350
▁public 23326
▁നിന്ന് 23322
त्त 23290
▁H 23284
की 23272
▁जाए 23221
▁रात 23199
▁نہیں 23198
▁नरेंद्र 23187
▁again 23146
ണ്ട 23114
ക് 23097
▁काफी 23076
▁झ 23068
ീ 23065
▁फैसला 23045
▁इसका 23035
▁देख 23015
মার 23014
ത്തെ 22992
▁క 22989
▁election 22981
▁पेश 22967
▁ന 22959
▁night 22947
fa 22904
▁National 22900
िका 22882
ंज 22821
▁That 22800
▁Rahul 22752
pa 22729
▁जवाब 22693
ছি 22689
om 22686
రి 22652
नि 22642
▁कश्मीर 22633
▁long 22598
▁बि 22597
ٹ 22585
cu 22558
▁former 22553
ड़ा 22525
शा 22510
നി 22507
▁body 22497
▁mo 22466
த் 22463
▁जैसे 22420
▁विधानसभा 22398
▁स्व 22395
▁Now 22392
▁station 22386
ven 22351
▁రోగ 22348
ेश 22344
▁power 22336
▁till 22335
▁17 22293
▁വി 22293
▁गांव 22292
লি 22265
▁W 22258
نا 22250
ोर 22214
▁सो 22191
▁সব 22152
▁Yadav 22148
▁ப 22139
▁La 22130
चा 22101
▁राहुल 22096
ियां 22091
ഹ 22052
▁کہ 21973
▁State 21968
▁गो 21962
▁खुद 21922
ുന്ന 21909
টি 21903
▁आयोग 21894
▁minister 21860
▁వి 21819
▁near 21778
▁sent 21738
▁political 21706
ary 21676
▁अधिकारियों 21634
ुल 21627
▁मुख्य 21595
▁हि 21584
▁जागरण 21576
▁எ 21576
▁गुजरात 21550
▁Gujarat 21488
▁सम 21483
ப்ப 21478
▁far 21455
▁বি 21454
▁করতে 21434
▁आगे 21419
▁आतंकी 21395
▁दा 21393
نگ 21393
த்தின் 21384
கிறது 21381
ड़ी 21358
ful 21335
▁ஏற்பட 21323
▁सीमा 21321
▁बड़ी 21320
தி 21291
▁ब्यूरो 21287
യാണ് 21282
▁24 21267
పు 21256
▁big 21224
▁per 21221
▁Lok 21219
▁support 21213
ud 21204
▁Do 21201
த்த 21198
▁سی 21193
▁विशेष 21186
▁la 21184
▁த 21169
▁जहां 21168
▁একটা 21167
▁स्थिति 21155
ഴ 21154
▁ব 21151
▁স 21111
आइ 21099
▁आदेश 21077
▁states 21063
▁कै 21058
mb 21009
▁coming 20987
హ 20986
▁बा 20984
▁दिनों 20963
▁कार्य 20959
िस 20940
▁pro 20923
▁कोशिश 20920
കള് 20881
▁As 20875
/ 20873
▁याचिका 20871
▁उसकी 20858
▁योजना 20839
তা 20834
ము 20828
▁increase 20826
▁incident 20824
▁मन 20824
▁how 20810
ction 20808
ok 20794
tri 20768
esh 20749
▁विरोध 20744
ाया 20737
▁Uttar 20689
▁तब 20684
িত 20670
ின் 20645
्त 20640
▁disease 20630
▁ra 20624
▁petition 20602
▁വളരെ 20578
▁ప 20577
▁crore 20563
▁এর 20555
▁উ 20551
▁কিছু 20550
లా 20530
തു 20529
▁কর 20523
▁मामला 20516
் 20510
▁However 20504
dy 20489
▁बजे 20468
▁car 20460
▁लेने 20459
▁Cha 20447
▁says 20428
▁action 20415
▁important 20388
ture 20370
ம 20364
▁घ 20341
▁इसलिए 20333
▁वजह 20328
▁सिर्फ 20320
मे 20291
▁रि 20288
డ్ 20269
▁countries 20244
▁ഇവിടെ 20228
സി 20211
▁lo 20204
▁land 20204
▁रह 20197
▁road 20158
▁killed 20147
▁राष्ट्रपति 20147
▁दूर 20139
▁tell 20125
▁চা 20109
हार 20103
▁temple 20065
▁called 20056
]। 20048
▁दल 20047
▁too 20039
▁arrested 20025
ow 20022
ous 20019
od 20014
▁today 20007
খ 19999
▁death 19987
▁sc 19984
▁am 19978
ard 19973
ct 19973
▁पता 19967
▁जनता 19957
अ 19950
ന്ന 19950
▁PM 19945
▁अलग 19939
▁महा 19920
▁राज्यों 19915
▁woman 19899
▁कार्रवाई 19895
▁All 19890
मान 19870
▁यादव 19866
उ 19857
▁इसकी 19851
bu 19820
▁रहने 19815
der 19808
▁law 19805
old 19796
▁جاتا 19790
ाव 19783
▁एस 19779
▁मदद 19713
▁person 19711
मो 19687
▁آپ 19685
▁मौजूद 19676
ill 19672
▁those 19655
▁away 19654
ற 19630
▁seen 19622
दार 19588
▁Di 19580
ాన్ని 19580
▁Ja 19573
ect 19544
▁40 19494
वास 19493
▁ഇത 19492
వి 19492
▁उसने 19476
भा 19461
▁आधार 19436
ലി 19435
ence 19432
▁तौर 19425
▁son 19384
▁नेताओं 19372
ure 19368
▁तरफ 19361
রি 19338
▁போ 19331
▁എന്ന 19326
ങ്ങ 19316
ণ 19298
ది 19297
▁পারে 19292
▁എ 19292
▁most 19290
▁down 19268
▁جو 19249
ట్ 19247
▁অনেক 19245
▁related 19243
▁पत्र 19239
▁घटना 19235
ே 19232
▁ഗ 19229
టి 19219
▁show 19218
▁ফলে 19200
▁हत्या 19187
▁अस्पताल 19175
▁তার 19174
لی 19161
களின் 19160
▁Dr 19128
▁investigation 19125
▁पीएम 19121
▁Lo 19108
▁करेंगे 19103
▁filed 19098
▁নি 19097
▁high 19084
▁old 19074
▁मिला 19071
▁देते 19069
▁करता 19069
▁morning 19063
களை 19033
▁reason 19027
রো 19019
). 19002
ंक 18991
द्ध 18989
▁सोमवार 18979
▁pre 18972
ju 18963
▁चीन 18929
▁terrorists 18909
घ 18903
হ 18896
▁बी 18895
▁പ്ര 18889
▁why 18871
▁गिरफ्तार 18864
▁এখানে 18855
▁ச 18836
ദ 18834
താണ് 18824
शी 18821
▁Monday 18810
▁जिले 18808
▁next 18805
ன 18802
▁یا 18798
ran 18791
▁change 18785
▁लोकसभा 18782
లి 18778
ूर 18736
మి 18735
▁இ 18724
▁அல்லது 18719
ഡ് 18717
▁फीसद 18714
▁मह 18691
ten 18678
▁अस 18677
▁Bihar 18671
र्ट 18669
▁उन 18651
▁v 18648
స 18631
యా 18630
▁জ 18614
▁head 18597
د 18595
ig 18594
யி 18592
ൊ 18586
▁ব্যা 18585
ൈ 18582
co 18580
टे 18561
▁China 18559
▁हा 18549
वे 18537
र्क 18532
▁बिहार 18523
▁यात्रा 18517
आर 18511
▁आया 18504
▁parties 18492
▁जल 18479
▁അത് 18473
▁मो 18453
▁taking 18452
▁मान 18441
▁पूरा 18426
▁ந 18423
▁তা 18422
ور 18420
▁दूसरे 18411
▁चि 18399
▁Su 18395
▁जिस 18390
▁जाएगी 18388
രി 18372
▁لئے 18346
▁start 18318
▁जिसमें 18295
▁सुबह 18290
▁बु 18284
ائی 18284
▁डी 18281
িয়ে 18266
▁வ 18256
▁De 18239
▁sp 18229
▁around 18226
▁बस 18177
ড় 18164
ങ്ക 18160
▁சா 18130
ji 18126
▁officials 18123
ായ 18118
▁मि 18116
J 18102
़ 18089
▁home 18081
▁Party 18077
▁getting 18067
▁Union 18061
war 18060
▁gave 18054
▁Ta 18050
ండి 18048
▁नजर 18043
▁मिली 18040
নার 18028
▁second 18022
تی 18021
▁होते 18012
্য 17994
▁वरिष्ठ 17984
▁زیادہ 17980
▁team 17979
▁చేయ 17973
▁सुनवाई 17971
▁Te 17970
▁Commission 17938
▁लगाया 17914
▁use 17893
▁मार 17891
िट 17891
▁खा 17888
▁सर 17884
ugh 17865
▁She 17860
फा 17844
▁सीबीआइ 17837
▁আমরা 17787
▁Justice 17778
▁जेल 17772
tu 17764
▁may 17751
▁লা 17749
per 17749
▁visit 17746
▁মা 17739
▁end 17739
रु 17727
▁SP 17694
▁राजनीतिक 17689
▁chief 17681
▁Go 17676
ca 17670
▁बच्चों 17666
हर 17641
▁much 17628
▁दर 17615
কা 17614
▁तु 17614
డి 17610
ుతుంది 17609
▁शहर 17605
wan 17575
▁ம 17549
▁Shah 17545
ിച്ച 17542
▁संख्या 17535
▁100 17533
▁क्योंकि 17528
▁गा 17521
र्स 17521
▁सौ 17489
ড়া 17487
▁keep 17482
▁पु 17477
▁रे 17462
खा 17461
ेट 17437
kar 17417
ത്ത് 17415
ச 17415
▁रोक 17408
▁शि 17403
▁Be 17396
▁पहुंच 17392
▁कार्यक्रम 17389
▁संबंध 17381
to 17371
▁থাকে 17369
राम 17343
ت 17340
▁soon 17338
ച്ച 17324
▁जम्मू 17317
pl 17315
ళ 17304
▁level 17302
▁जरूरत 17292
छ 17289
ரா 17282
▁campaign 17255
लो 17230
▁देशों 17220
▁लग 17214
▁army 17203
▁बुधवार 17201
▁रो 17191
ும் 17183
▁तय 17181
▁ہوتا 17173
▁கா 17169
शु 17167
ंच 17160
▁बैंक 17150
▁Tuesday 17148
▁ई 17143
▁टीम 17132
யை 17130
▁जाना 17128
ിനെ 17122
▁part 17118
▁22 17115
ڈ 17109
▁ha 17107
▁Also 17099
▁ता 17079
▁Se 17075
▁மேலும் 17070
▁development 17056
▁मंगलवार 17054
▁कह 17035
ड़े 17028
▁आदि 17019
pi 17016
▁समिति 17010
ഭ 17010
▁city 17004
र्म 16991
▁Jammu 16985
దు 16985
sa 16982
▁question 16979
▁কোন 16965
డం 16963
und 16954
▁areas 16948
റ്റ 16941
▁Si 16936
रिया 16933
▁पक्ष 16928
▁सूचना 16919
▁আমাদের 16918
▁വ 16902
▁মধ্যে 16891
▁months 16890
▁सरकारी 16879
ide 16868
▁ని 16865
▁face 16860
త్ర 16860
▁ch 16852
up 16851
▁வி 16834
▁यदि 16821
▁left 16804
▁These 16803
▁पढ़ेंः 16792
ेशन 16785
వా 16778
▁वाला 16756
▁Shiv 16754
▁Central 16750
ல 16744
▁शिकायत 16743
▁पूरे 16740
టం 16729
▁దీని 16723
▁different 16717
▁रख 16707
▁child 16705
▁Wednesday 16689
▁सूत्रों 16685
▁Bha 16683
▁चुके 16683
▁six 16682
களில் 16659
▁لیے 16657
▁হা 16651
কি 16649
ah 16636
ाने 16601
▁With 16598
▁ఉంటుంది 16597
▁भाग 16588
one 16585
▁While 16574
र्ज 16565
▁21 16562
द्र 16529
▁खास 16504
▁बता 16498
چ 16493
nt 16492
▁कंपनी 16483
▁stay 16481
ാന 16475
av 16471
चार 16467
▁) 16462
▁ఉన్న 16461
▁लगे 16424
▁making 16421
▁কিন্তু 16417
▁चला 16407
ating 16405
्र 16398
ല്ല 16397
fi 16392
▁ओ 16389
▁stop 16377
▁यही 16367
▁یہاں 16363
യെ 16361
▁चर्चा 16359
▁एन 16358
be 16353
▁സ 16353
▁जाते 16346
یں 16341
▁शुक्रवार 16336
वार 16335
▁हाथ 16321
bi 16312
्ति 16307
▁program 16289
टर 16288
men 16285
ുകള് 16284
▁हमले 16279
tor 16266
▁Friday 16266
▁बड़े 16265
▁met 16258
ल् 16251
▁girl 16235
▁समेत 16225
ந்த 16215
res 16209
▁Home 16179
▁डि 16171
▁ఏ 16168
ുകയും 16166
▁Da 16155
▁senior 16143
▁think 16142
▁Pa 16133
▁विदेश 16130
▁എന്ത 16120
▁छह 16109
दी 16091
▁form 16089
▁দিয়ে 16088
▁नए 16078
▁कार 16074
आई 16072
▁করার 16057
▁दुनिया 16054
ऊ 16053
▁General 16046
▁clear 16020
▁रेलवे 16010
▁शाह 16006
जे 15995
ts 15989
▁വാ 15987
▁চি 15982
▁பா 15980
▁system 15969
▁ड 15960
ி 15952
▁26 15949
▁May 15940
▁father 15932
▁फैसले 15915
क्र 15910
▁ശ 15903
▁कुल 15893
dar 15892
ాలి 15879
ড 15869
డు 15868
▁रखा 15857
ச்ச 15852
▁पार 15848
▁و 15847
▁महिलाओं 15846
▁हाई 15845
▁Co 15842
▁पहली 15835
▁o 15834
▁जीत 15827
▁साफ 15818
▁आरोपी 15796
▁lot 15792
]. 15790
ial 15778
▁नौ 15757
and 15756
वन 15754
▁نے 15747
▁തന്നെ 15737
కా 15728
வி 15725
▁जल्द 15713
▁दु 15697
▁गिर 15679
gra 15673
▁मै 15672
वाल 15653
▁समर्थन 15643
▁wife 15641
▁food 15635
ছে 15629
▁Jagaran 15623
▁গ 15620
धि 15614
▁जगह 15607
▁হবে 15601
▁دو 15598
▁দেখা 15595
تا 15587
▁इस्तेमाल 15582
ద 15578
▁mother 15571
▁सब 15567
ടി 15547
ang 15544
▁went 15543
▁assembly 15539
▁تک 15538
म् 15531
gi 15523
▁front 15522
▁मिलने 15514
ari 15502
▁hospital 15485
▁students 15481
▁இது 15480
▁Thursday 15476
▁अभियान 15471
▁along 15462
തി 15461
വി 15455
▁যদি 15451
▁জল 15444
ை 15437
pp 15422
▁Sha 15421
تے 15408
▁well 15406
▁इं 15401
▁ദ 15383
▁look 15379
్ 15365
ദ്ധ 15357
▁వ 15341
▁giving 15338
▁कभी 15328
▁decided 15325
▁சி 15318
▁स्ट 15317
দ 15316
▁hearing 15313
▁war 15309
ங்க 15307
no 15293
▁संसद 15281
▁महीने 15278
less 15257
▁లో 15242
▁ban 15233
▁मीडिया 15230
▁real 15228
ism 15227
स् 15227
न्न 15223
ेंगे 15223
▁media 15218
த்து 15199
30 15197
क्स 15183
▁आइ 15162
▁দা 15158
▁open 15146
லா 15140
తి 15138
▁చాలా 15128
qu 15114
▁உ 15101
▁held 15100
▁अव 15089
mer 15085
▁विचार 15084
▁put 15055
्ह 15048
▁still 15042
று 15032
▁पड़ 15028
പ് 15026
▁times 15018
▁মনে 15002
▁run 14993
▁প্র 14991
▁आर 14989
,000 14986
কার 14971
▁डॉ 14957
ج 14954
▁कराने 14952
▁side 14947
ங் 14937
कों 14922
▁cases 14919
▁fact 14912
▁week 14911
ही 14902
▁Apart 14901
യോ 14897
▁increased 14870
▁Not 14869
▁निकल 14869
ন্ত 14852
▁members 14846
ال 14842
▁issued 14839
ان 14833
शन 14829
▁நீ 14813
వే 14809
▁चा 14808
ai 14799
ాల 14795
▁कदम 14754
▁व्यवस्था 14752
శ 14752
▁ago 14748
shi 14733
ళ్ళ 14725
▁young 14723
▁केजरीवाल 14722
യ് 14718
▁few 14700
▁call 14685
▁health 14664
▁मुद्दे 14654
▁set 14649
▁शनिवार 14631
tic 14629
▁यू 14626
▁जे 14626
മായി 14626
▁کرنے 14622
▁opposition 14614
மா 14610
▁Kejriwal 14601
ush 14600
▁चुकी 14599
▁central 14596
▁ஏ 14587
▁sources 14583
▁स्तर 14580
லை 14575
యం 14565
থা 14562
వచ్చు 14541
▁सात 14537
▁ച 14530
▁letter 14528
▁जन 14514
mon 14509
▁മു 14502
మ్ 14501
പോ 14491
ious 14482
एम 14478
నా 14471
ப்படுகிறது 14465
▁सांसद 14464
▁Me 14459
▁माना 14456
▁kept 14425
▁होना 14407
ഡ 14403
▁बड़ा 14398
▁able 14382
▁Wa 14362
▁জা 14362
राज 14349
▁border 14339
সা 14334
▁Saturday 14321
▁वो 14321
र्द 14320
▁injured 14316
▁condition 14313
▁Li 14312
▁हाल 14308
▁L 14301
▁बातचीत 14289
▁करा 14288
ात 14279
ப்பு 14265
▁full 14261
▁കോ 14258
▁ट्रेन 14257
▁Par 14253
▁পাওয়া 14248
W 14226
▁निर्देश 14220
▁सचिव 14204
ेड 14202
▁मुझे 14200
వు 14199
land 14196
▁അത 14195
ض 14192
▁200 14190
▁company 14178
▁निर्माण 14172
▁main 14157
ون 14155
ായി 14154
ിലെ 14154
▁अन 14149
ட 14134
▁सजा 14128
▁whole 14112
യാ 14099
)। 14096
▁प्रयास 14077
নে 14072
౦ 14070
సి 14065
▁ہونے 14063
▁daughter 14057
▁seats 14057
▁वापस 14047
▁ছিল 14046
ിയ 14043
▁रखने 14042
rs 14041
▁बच 14038
▁बल 14026
tar 14017
▁கு 14009
▁Parliament 14004
▁train 14002
▁गृह 13990
▁دور 13988
▁ब्र 13985
ری 13982
▁একটি 13964
▁बल्कि 13963
▁ठ 13962
▁विधायक 13961
▁बनाया 13949
▁న 13942
▁کیا 13937
▁process 13932
pri 13931
ار 13929
ین 13924
▁बढ़ा 13921
ani 13915
▁ऐसी 13914
▁Ga 13913
▁bring 13908
▁রা 13902
▁मां 13897
ానికి 13874
▁लगभग 13863
▁mis 13848
par 13835
ത്ര 13823
▁Secretary 13821
▁youth 13814
▁लगातार 13814
ரு 13811
రో 13803
▁Ko 13783
▁கி 13781
மை 13771
டு 13745
▁राय 13744
▁দু 13719
▁करती 13718
▁थ 13717
▁patient 13714
कृत 13702
▁संगठन 13697
▁কে 13695
ளி 13695
पाल 13692
▁fire 13680
▁हूं 13675
led 13666
ee 13665
യുള്ള 13665
▁चुका 13659
▁बने 13658
▁रक्षा 13655
▁पहुंचे 13643
▁अनु 13636
▁स्थान 13634
▁own 13625
ب 13620
دی 13619
வை 13616
▁उसका 13602
fe 13592
▁demand 13592
इ 13569
▁2016 13568
▁Due 13558
▁ہوتی 13549
▁remain 13540
झ 13536
▁Rai 13535
▁কম 13526
▁problem 13525
▁ఇది 13522
▁उपलब्ध 13517
▁inter 13516
▁ஆகும் 13513
tre 13512
চ্ছ 13507
kh 13503
▁सेवा 13491
▁आतंकियों 13489
▁without 13481
▁വര 13475
▁बो 13463
pal 13461
▁দিন 13453
▁23 13451
▁घंटे 13448
." 13442
ये 13436
▁leave 13429
▁hours 13428
▁हे 13420
cl 13411
gg 13410
▁दूसरी 13410
ാവ 13409
த்தை 13403
▁रेल 13386
▁পর 13381
▁केवल 13378
▁ബ 13359
▁अमेरिका 13358
▁चलते 13357
▁विवाद 13354
▁सपा 13340
▁28 13335
▁blood 13334
▁app 13325
▁शरीर 13324
▁ten 13320
▁feel 13318
▁एम 13317
▁बाल 13313
▁کم 13311
▁നിര് 13310
ങ്ങള 13298
त्व 13275
▁committee 13251
एन 13248
▁तेज 13247
▁center 13238
▁घायल 13228
▁धर्म 13226
யா 13211
▁എന്നിവ 13202
▁स्कूल 13199
▁കാണ 13198
▁মন্দির 13196
▁ن 13196
ling 13192
▁होंगे 13183
▁सदस्य 13181
▁डे 13175
▁How 13171
▁less 13166
▁কো 13157
▁bus 13154
ത്തിലെ 13154
ner 13148
स्क 13137
ൃ 13127
களுக்கு 13117
▁office 13101
▁लगाने 13098
▁गौरतल 13097
ভাবে 13094
cal 13088
▁jail 13088
ंब 13085
▁fl 13075
تھ 13074
▁बच्चे 13071
▁रविवार 13064
ore 13057
यू 13057
ز 13055
धी 13054
ഷ 13050
▁गुरुवार 13046
▁நோய் 13044
▁several 13029
fer 13029
▁already 13025
▁प्रा 13025
▁27 13013
▁शाम 13012
tt 13010
ச் 13005
▁लि 13004
வு 13004
▁regard 13000
கா 12998
▁national 12989
▁believe 12986
▁2014 12984
van 12981
▁विमान 12980
▁వరకు 12980
▁million 12979
চ 12977
▁St 12975
▁etc 12975
ക്ഷ 12966
▁विभिन्न 12964
▁बोल 12949
▁Ho 12945
▁ఇక్కడ 12945
▁সময় 12940
ूल 12937
ول 12930
ിക്ക 12926
▁2017 12912
▁age 12909
▁छोड़ 12905
▁ऑ 12903
chi 12893
▁never 12887
▁पत्नी 12883
▁కా 12881
ph 12880
tain 12868
▁Ar 12862
▁व्यक्ति 12846
▁Sunday 12844
▁सके 12840
▁view 12823
ুন 12820
கை 12815
বি 12806
▁social 12806
king 12805
▁Th 12784
▁fr 12783
▁Mu 12768
▁Com 12767
बे 12762
▁Maharashtra 12758
▁Department 12752
ay 12752
ेंट 12749
▁died 12746
▁মি 12744
▁love 12739
ڑ 12739
ക്കും 12737
্যা 12736
धार 12733
मन 12723
▁വര് 12721
▁अधिकार 12711
▁Center 12702
▁received 12694
▁San 12687
▁president 12684
Z 12683
▁MP 12676
র্ 12665
▁half 12659
▁1. 12657
bit 12656
▁வரை 12656
▁candidate 12651
▁घोषणा 12648
day 12645
▁سو 12645
▁सड़क 12638
▁business 12636
▁दें 12628
▁Con 12626
▁Mar 12626
ుల 12626
▁ठीक 12624
▁क्र 12621
र्ड 12621
▁बै 12611
▁नगर 12611
தா 12610
▁হয়েছে 12606
▁इंडिया 12594
रों 12592
▁বেশি 12586
▁നല്ല 12582
ring 12576
റി 12575
▁पै 12573
▁month 12569
▁सू 12540
▁تھا 12536
▁workers 12533
र्ग 12528
ual 12524
ap 12521
▁پانی 12521
▁महाराष्ट्र 12520
ical 12503
▁എല്ലാ 12503
▁places 12496
▁ध्यान 12495
▁पिता 12493
▁Fa 12477
▁சு 12475
▁ఎక్కువ 12475
▁school 12474
fu 12470
▁مر 12468
ster 12466
▁سب 12465
red 12459
নো 12456
▁Khan 12456
▁എനിക്ക് 12454
▁స్ 12445
னை 12441
ీ 12441
▁लड़ 12438
▁find 12426
गढ़ 12426
னி 12421
▁heart 12402
ുവ 12392
▁കൂടാതെ 12389
വ്വ 12385
വാ 12384
▁താ 12376
▁farmers 12374
▁थीं 12371
▁نہ 12367
▁जमीन 12363
▁भ्रष्टाचार 12363
கி 12358
▁working 12355
▁ভালো 12353
▁kind 12344
▁हमला 12342
উ 12336
▁प्रस्ताव 12332
▁official 12328
▁फिल्म 12328
iv 12327
ची 12326
రీ 12325
िश 12323
ाइट 12319
চিত 12314
year 12313
یا 12313
lar 12304
▁ساتھ 12299
▁व्य 12298
▁दस 12293
▁बदल 12293
▁लागू 12292
▁खरीद 12290
▁companies 12289
রে 12283
▁tour 12280
▁tax 12277
▁officers 12272
ع 12265
▁Bo 12262
▁মে 12259
▁considered 12256
tal 12255
▁कमी 12248
വിട 12247
▁60 12243
▁ఇ 12235
اب 12235
▁मुलाकात 12234
ட்ட 12233
▁செய்ய 12229
▁murder 12221
ities 12213
జ్ 12205
▁गलत 12204
्रे 12200
யாக 12197
Q 12190
▁ഞാൻ 12186
▁आठ 12185
▁वित्त 12185
▁പോക 12180
▁won 12179
▁fight 12178
ക്കു 12163
▁സ് 12150
au 12142
گ 12142
য়ে 12139
ber 12137
▁Air 12135
ണ്ണ 12124
▁ऑफ 12116
▁evening 12112
शि 12109
con 12104
▁bill 12097
▁alleged 12093
▁मिले 12090
▁राजनीति 12088
▁پی 12079
▁sha 12076
▁Railway 12073
▁स्वास्थ्य 12067
▁अगले 12065
வா 12065
▁കാ 12061
50 12051
▁bureau 12046
▁doing 12044
▁pain 12043
▁स् 12043
▁दाखिल 12037
লো 12033
▁resident 12022
▁वोट 12017
▁চ 12008
▁உள்ள 12002
▁dead 11999
മുള്ള 11989
▁वालों 11985
▁happen 11982
act 11975
तर 11974
▁Ro 11971
▁since 11946
টে 11946
दे 11943
ash 11941
▁பல 11936
ex 11918
गु 11913
▁interest 11909
ंध 11908
▁mind 11906
▁bank 11899
▁जिसके 11896
▁कल 11896
▁आग 11896
▁great 11892
▁rain 11892
नाथ 11886
▁meet 11881
சா 11875
मु 11873
endra 11871
▁seven 11869
▁charge 11858
▁مند 11854
▁Po 11853
▁കാല 11844
▁Some 11833
வில் 11833
os 11830
▁brother 11823
▁basis 11816
मेंट 11815
▁Negi 11808
we 11806
▁Let 11800
▁நா 11795
▁वै 11783
▁thing 11782
port 11765
row 11759
▁संवाददाता 11750
▁जमा 11747
श्र 11744
raj 11740
▁भेज 11737
▁politics 11728
▁treatment 11727
▁complaint 11720
▁जिला 11717
▁তাহলে 11699
▁ঠিক 11697
▁win 11691
▁लौट 11688
▁ভ 11680
sha 11679
▁friend 11675
Y 11673
▁deal 11671
▁Army 11671
▁large 11669
ണ് 11669
▁talk 11666
▁हमारे 11664
▁மா 11664
▁One 11662
ढ़ 11648
ग् 11645
hy 11641
▁शिक्षा 11638
▁Mi 11637
▁কা 11631
▁चाहते 11630
▁Kan 11626
ान 11617
য়া 11614
▁मध्य 11606
▁Lucknow 11600
▁हमें 11596
▁নিয়ে 11593
▁amount 11587
art 11585
▁things 11583
▁அழக 11580
ട്ട് 11568
▁কথা 11560
ीन 11559
▁मी 11555
ٹی 11552
మా 11550
ച്ച് 11544
▁মতো 11543
ছ 11543
▁గ 11543
▁इनमें 11542
▁पकड़ 11535
ेंद्र 11527
ற்ற 11527
▁small 11525
▁Even 11517
nu 11513
▁बावजूद 11493
ship 11484
▁शादी 11484
▁another 11481
ించ 11474
▁चौ 11467
▁written 11465
▁मामलों 11459
ച 11452
▁देना 11447
সি 11437
त् 11436
▁प्रो 11432
▁लखनऊ 11432
▁ہر 11426
▁उम्मीद 11421
रि 11415
বার 11407
▁ready 11399
▁পে 11397
▁टे 11394
▁entire 11393
▁লোক 11388
▁black 11388
ik 11386
ীর 11386
▁strong 11386
ram 11383
▁पड़ा 11380
▁Ca 11374
▁جسم 11372
cy 11370
పో 11345
ल्ल 11342
▁खबर 11337
বা 11329
ംഗ 11325
▁स्टेशन 11323
▁ا 11321
▁देर 11311
▁లేదా 11304
▁वक्त 11302
▁His 11300
▁river 11298
ുണ്ട് 11293
▁account 11292
ప్ 11287
qui 11285
▁लगी 11284
▁officer 11282
ian 11273
▁सै 11273
▁eat 11269
▁wants 11268
▁ആണ് 11265
▁31 11260
▁प्रक्रिया 11257
▁worth 11255
▁भारी 11254
▁ఉ 11251
▁क्यों 11246
ിക്കുന്നു 11243
ైతే 11242
▁जीवन 11240
▁लाल 11224
वीं 11221
െങ്കില് 11211
eep 11208
▁माह 11207
▁ই 11205
▁victim 11204
▁मार्च 11203
▁plan 11194
▁protest 11194
▁Bengal 11191
▁इलाके 11188
▁पीठ 11187
▁Sharma 11166
▁جاتی 11166
▁പാ 11163
▁department 11162
▁पीछे 11156
ിട്ടുണ്ട് 11156
▁प्रतिशत 11152
▁کچھ 11151
▁saying 11146
ip 11144
▁35 11136
▁कराया 11133
ങ്ങളില് 11132
ধ 11127
▁किलोमीटर 11124
ative 11120
▁himself 11120
▁प्रदर्शन 11118
▁plea 11109
iya 11105
▁scheme 11102
go 11100
▁बनाए 11098
▁হতে 11097
लि 11089
▁लाभ 11088
▁Ne 11086
ana 11085
▁दलों 11085
▁care 11082
▁Maha 11081
▁सहित 11067
▁better 11061
ally 11061
കളുടെ 11060
▁corruption 11059
dha 11057
do 11051
▁reach 11051
ాయి 11050
▁مریض 11047
▁fe 11046
ach 11046
▁जुड़े 11034
▁ഭ 11028
che 11023
vo 11010
▁जून 11008
वाद 10997
▁education 10984
▁जिससे 10984
▁हिस्सा 10983
▁खत्म 10978
▁Le 10977
▁नेतृत्व 10969
▁पूछताछ 10967
ger 10959
▁முறை 10940
ub 10937
▁ശരീര 10937
▁समाज 10935
నే 10926
ா 10923
▁অবস্থিত 10918
▁terrorist 10917
▁सौंप 10914
▁பு 10912
▁दावा 10909
▁spread 10908
ய் 10908
▁local 10904
ঙ্গ 10895
▁डाल 10894
ু 10883
▁जरूरी 10873
ैन 10871
▁दिल 10870
▁ری 10870
ट्ट 10858
▁टी 10852
ൊരു 10852
▁Ku 10840
ات 10839
▁organization 10820
▁दक्षिण 10820
▁കൊണ്ട് 10798
▁men 10789
ki 10789
▁उच्च 10788
▁அதிக 10782
▁बंगाल 10771
मंत्र 10770
▁general 10763
▁किसानों 10751
▁വരെ 10748
▁प्रभावित 10745
▁समस्या 10740
▁ट्र 10736
▁উপ 10728
▁बिना 10728
bha 10726
▁നാ 10724
▁मौके 10715
জা 10712
▁যেতে 10712
▁test 10711
ছিল 10710
ेज 10698
▁US 10697
ফ 10694
▁something 10688
▁സാ 10680
വര് 10676
▁possible 10672
hat 10669
▁শরীর 10665
▁వె 10665
ग्र 10660
▁clean 10659
▁भा 10645
▁बारिश 10642
▁March 10635
வது 10631
ട്ടി 10626
▁بعد 10626
യിലെ 10623
▁Hindu 10620
्ज 10620
▁Al 10615
), 10615
ham 10609
▁उत् 10603
▁group 10601
nk 10598
▁दिखा 10596
ந்து 10595
▁మన 10591
▁कहते 10582
▁शर्मा 10582
ரோ 10573
▁देखते 10571
▁بہت 10571
▁विपक्ष 10562
▁Bureau 10561
cc 10540
▁Sonia 10540
را 10534
ச்சி 10527
▁Har 10526
val 10520
▁pass 10520
▁सोनिया 10510
▁Rajya 10507
pon 10505
बू 10503
ार्थ 10500
▁کلومیٹر 10494
nath 10492
ors 10490
▁जाएंगे 10489
▁2012 10484
▁लगता 10483
▁स्थानीय 10476
▁located 10471
▁এখন 10469
மி 10464
▁सही 10461
▁pay 10455
▁Committee 10451
use 10439
▁बोर्ड 10435
▁must 10431
▁cr 10422
▁استعمال 10421
াম 10415
% 10415
▁Pro 10411
ाइन 10408
▁अंदर 10407
▁സ്ഥിതി 10405
ന്ദ 10401
▁सुन 10398
ாக 10394
▁April 10385
▁raised 10383
▁expressed 10379
▁बताते 10379
▁তৈরি 10375
oo 10373
▁railway 10370
▁ప్ర 10364
ath 10363
▁மலை 10363
▁accident 10359
▁நோயாளி 10351
▁طرح 10346
ार 10345
▁சில 10344
णा 10341
▁समझ 10337
▁खर्च 10329
▁శరీర 10328
▁संबंधित 10325
▁جا 10322
▁उठा 10320
नगर 10319
ue 10318
▁കുറ 10311
▁धन 10307
▁play 10305
▁आपको 10305
▁फैल 10303
▁Va 10295
خ 10294
▁बनी 10285
▁किस 10281
▁கோ 10278
▁गंभीर 10276
▁स्थल 10270
▁book 10269
▁ওপর 10268
िर 10267
▁known 10264
▁free 10262
▁towards 10262
▁occur 10261
▁বল 10258
▁involved 10258
▁मई 10258
▁രോഗി 10258
▁announced 10256
పా 10256
▁29 10254
▁ஆனால் 10248
▁little 10245
gan 10240
ൗ 10240
▁प्रशासन 10238
ভ 10235
▁Earlier 10234
▁এমন 10212
▁point 10212
▁पि 10212
ിച്ചു 10207
ुक 10206
▁ചെയ്യ 10206
िव 10203
റിയ 10198
ुर 10195
▁House 10194
▁ഉണ്ടാകുന്ന 10187
▁प्रकार 10178
▁spot 10176
ులు 10154
▁बिजली 10153
▁श्री 10151
▁Ni 10150
▁एयर 10148
▁film 10142
ॉल 10136
നാ 10136
▁স্ 10134
▁दुष्कर्म 10128
▁വരുന്ന 10125
▁प्रयोग 10121
▁কাজ 10117
▁Punjab 10115
▁पंजाब 10111
▁मौसम 10109
र्थ 10106
▁benefit 10104
▁وجہ 10103
▁गंगा 10096
▁नोट 10095
ിക്കുന്ന 10091
▁eight 10084
ബ 10084
யும் 10084
▁rest 10075
▁बेहतर 10074
িক 10073
वान 10072
▁Ti 10069
▁top 10068
round 10066
ंप 10064
दर 10060
▁विधेयक 10048
ft 10046
ూ 10042
▁अहम 10039
▁দেওয়া 10027
▁December 10024
▁From 10022
पन 10022
▁air 10020
▁সু 10017
▁বে 10017
▁उम्मीदवार 10016
cor 10014
▁অ্যা 10013
▁Where 10010
ന്ത 10010
ள 10007
▁বার 10005
▁2015 10004
▁act 10002
റ്റ് 10002
வர் 10001
▁ఉన్నాయి 9994
▁foreign 9993
ার 9980
▁forces 9979
▁राजधानी 9969
▁बिल 9967
▁save 9964
താ 9964
്യ 9963
न्द 9959
▁अप्रैल 9959
▁পর্যন্ত 9958
ുന്നത് 9956
▁रंग 9953
▁करेगी 9953
▁कंपनियों 9947
▁என்று 9947
20 9946
▁ন 9943
ف 9942
▁medicine 9941
▁পড়ে 9933
▁let 9926
পুর 9919
▁अपराध 9918
▁bench 9917
\ 9917
▁सत्ता 9917
▁brought 9903
▁இருக்க 9901
wal 9899
▁कॉ 9883
▁became 9880
▁husband 9878
ियो 9866
▁God 9859
▁Kha 9859
▁প 9856
▁स्पष्ट 9850
বো 9836
▁लिखा 9836
കം 9834
▁Then 9832
▁जरिए 9832
▁وقت 9829
▁फोन 9821
▁आर्थिक 9821
▁June 9819
ত্ 9795
న్న 9790
▁अंतिम 9787
ষ 9785
▁capital 9785
▁ജ 9782
▁రా 9782
▁विश्व 9779
▁together 9776
▁پار 9768
▁শু 9767
▁वकील 9767
జ 9767
▁control 9761
▁বাচ্চা 9760
▁लो 9760
▁दिख 9758
മി 9756
▁सीट 9754
▁soldiers 9750
यों 9749
یر 9749
था 9745
निक 9741
▁करार 9741
ളി 9741
▁രക്ത 9739
▁included 9738
▁ऊपर 9738
▁परि 9727
▁जु 9724
ജ 9715
▁राहत 9711
▁ద్వారా 9706
▁demanded 9703
▁Under 9702
നെ 9702
▁पहचान 9701
তি 9697
▁सह 9695
▁বলে 9690
▁देखा 9682
▁bad 9680
▁West 9676
▁य 9674
▁ക്ഷേത്ര 9672
▁وہ 9666
▁eyes 9665
نی 9662
सु 9660
ோ 9660
▁job 9657
▁कहीं 9656
▁निजी 9656
र्श 9654
▁வா 9654
▁light 9653
र्न 9639
▁relief 9638
പ്പെടുന്നു 9636
▁2013 9635
▁योग 9633
▁once 9630
టువంటి 9628
▁ചെയ്യുന്നു 9627
▁Bal 9622
काल 9621
▁travel 9619
▁People 9617
നം 9616
▁ద 9612
▁major 9606
▁मार्ग 9605
മോ 9602
ोज 9599
لا 9597
▁संघ 9593
▁উপর 9591
tan 9586
பொழுது 9586
▁मुस्लिम 9584
▁స 9582
▁మె 9581
చ 9579
▁Why 9578
▁भाई 9576
▁పై 9572
▁নিজের 9569
ূ 9562
▁नंबर 9561
▁living 9556
एफ 9556
▁परीक्षा 9556
▁notice 9552
▁मना 9552
டை 9551
▁छात्र 9549
▁always 9548
▁वन 9545
ான 9537
जागरण 9531
▁close 9526
▁fall 9525
med 9525
▁सत्र 9525
▁முடி 9523
▁Verma 9520
स्ट्र 9515
▁വേ 9511
▁operation 9503
▁ഉണ്ട് 9503
▁anything 9496
▁line 9495
▁फिलहाल 9494
▁Bi 9492
▁happened 9490
▁wrong 9488
▁crores 9483
▁claim 9479
▁మా 9477
▁hands 9474
▁2. 9473
▁അവര് 9473
▁बह 9472
hal 9470
▁राष्ट्र 9469
ങ്ങളും 9469
▁stopped 9462
▁behind 9453
▁ہم 9453
▁നിന്നും 9450
जि 9448
▁return 9445
▁निर् 9444
▁available 9441
▁ताकि 9437
गर 9434
▁खान 9433
▁आय 9427
▁Hi 9424
▁খা 9422
▁पैदा 9421
▁बनने 9421
ంటే 9420
▁हासिल 9419
▁prepared 9418
பி 9417
ரை 9412
ஜ 9412
▁ചില 9405
▁appear 9402
▁नीति 9399
▁എനിക്ക 9398
റ്റി 9389
▁शुरुआत 9388
▁2011 9388
▁Act 9387
▁Haryana 9383
ட்டி 9382
▁km 9381
▁బ 9373
▁anti 9371
▁न्यायाधीश 9369
ంగ్ 9369
▁राजस्थान 9366
ങ്ങളുടെ 9364
▁রক্ত 9363
▁January 9355
பா 9344
▁later 9340
ങ്ങളെ 9339
▁జ 9338
▁issues 9334
▁answer 9333
▁இதை 9333
▁राज्यसभा 9328
▁दिसंबर 9327
▁जनवरी 9326
▁సం 9319
▁आंदोलन 9316
▁role 9311
▁हरियाणा 9310
▁അറിയ 9310
▁trying 9306
आ 9305
▁இரத்த 9304
▁list 9299
▁पति 9297
▁నా 9297
▁Ran 9287
▁Rajasthan 9285
pen 9273
▁വേണ്ടി 9262
▁enter 9260
▁കി 9258
app 9254
▁खुल 9250
▁बेहद 9239
ie 9238
ഞ്ച 9237
▁Pra 9236
▁আগে 9234
▁market 9233
▁gr 9229
वाह 9225
▁आदमी 9225
ice 9221
▁من 9221
ത്തി 9220
▁administration 9216
▁ढ 9216
kha 9215
▁टिकट 9212
▁sub 9210
▁शिव 9208
▁scam 9206
▁necessary 9205
పై 9205
▁Because 9202
▁जय 9202
▁नुकसान 9197
▁छात्रों 9195
▁சுற்றுலா 9194
ंडा 9189
পা 9188
▁اگر 9188
▁ము 9187
▁बजट 9184
▁fast 9179
गत 9178
▁বড় 9177
▁কাছে 9175
▁ask 9171
▁डा 9164
▁tried 9161
▁आकर 9156
▁problems 9148
▁तैनात 9145
ob 9144
▁July 9141
एल 9135
▁گیا 9135
▁असर 9131
pat 9125
▁pressure 9122
േണ്ട 9122
মে 9120
▁संभावना 9118
पे 9116
▁Here 9111
▁వా 9109
▁November 9106
ेंस 9103
வின் 9102
▁Anna 9099
्वा 9099
▁सुधार 9099
पर 9094
▁speak 9090
പ്പോള് 9082
ർ 9081
▁তাদের 9080
▁बदलाव 9079
স্ত 9078
रत 9077
ite 9072
తు 9067
▁पाक 9065
ound 9062
▁poor 9058
▁vote 9056
▁movement 9053
▁session 9051
▁अप 9048
▁करके 9047
ौर 9045
▁अगस्त 9044
ator 9041
्री 9038
▁registered 9034
nagar 9027
▁ഹ 9026
▁लोक 9025
ize 9024
▁नदी 9020
ning 9016
తా 9014
▁छा 9003
▁ticket 9002
▁निवासी 9001
▁കാരണം 8997
▁दर्द 8993
wi 8989
way 8989
▁term 8988
▁मजबूत 8988
▁Jan 8984
▁cold 8982
▁dispute 8981
▁রয়েছে 8980
▁hundred 8977
▁इलाज 8970
▁குழந்தை 8968
▁প্রতি 8952
నం 8940
▁Mishra 8938
▁पश्चिम 8934
ef 8933
कि 8933
▁Pat 8930
▁ഞ 8930
पति 8928
▁various 8925
انی 8920
▁ഇതിന് 8915
রু 8913
▁होकर 8910
▁discussion 8907
▁सहयोग 8893
▁ഓ 8893
▁बेटी 8892
▁Pakistani 8891
सर 8891
▁move 8884
▁ఉండ 8883
சு 8882
▁Meanwhile 8882
த்திற்கு 8878
ওয়া 8874
लैंड 8873
▁rule 8856
▁രോഗ 8854
▁सामान्य 8853
▁सुविधा 8850
▁Jo 8847
▁500 8847
▁പോ 8844
పి 8843
▁serious 8842
▁Can 8840
▁room 8838
▁करेगा 8838
▁संपत्ति 8837
▁తి 8836
▁হ 8835
▁mountain 8833
▁class 8826
▁দিকে 8825
्ड 8819
▁वर्ग 8817
The 8816
▁each 8815
▁ప్రతి 8813
हन 8811
▁तलाश 8809
ल्ड 8808
▁संयुक्त 8807
▁പറയ 8803
line 8802
▁among 8801
ala 8799
▁within 8799
▁নয় 8798
▁पे 8798
▁কু 8796
▁दवा 8796
▁built 8795
▁address 8795
▁जुलाई 8794
▁కు 8792
கு 8787
▁break 8786
▁மன 8786
द्द 8777
ree 8776
tro 8775
▁സി 8774
గు 8771
▁ডা 8768
▁उससे 8763
▁کئی 8762
▁Sar 8760
▁candidates 8756
▁ഏറ്റവും 8752
▁والے 8751
▁چ 8751
ler 8749
ral 8749
త్ 8749
▁Sena 8746
മീ 8740
abad 8734
▁भूमिका 8731
▁itself 8726
▁उनसे 8724
▁comes 8721
ंगी 8720
▁क्षेत्रों 8718
மும் 8714
▁जिन 8708
▁വഴി 8708
▁sector 8706
▁आयोजित 8704
▁अन्ना 8700
▁विजय 8699
▁நி 8699
▁மிக 8695
దా 8691
নের 8690
ष्ट 8680
▁70 8673
▁உடல 8673
▁शो 8671
rit 8668
ാര് 8665
▁past 8664
▁दिवस 8662
വര 8661
▁private 8658
▁সি 8651
ंगा 8649
യ്ക്ക് 8647
வும் 8641
▁तैयारी 8639
▁আস 8638
pan 8631
▁आतंकवाद 8627
▁प्रभाव 8626
জন 8622
▁ति 8621
ेगा 8611
മാ 8611
▁সমস্যা 8608
▁मेरे 8608
▁Manish 8608
▁തര 8607
▁അടുത്ത 8604
▁phone 8602
▁outside 8598
▁निर्णय 8596
▁society 8593
▁रहते 8589
▁कैसे 8586
▁पैर 8583
▁खारिज 8582
▁बाजार 8575
▁provide 8573
▁Election 8573
▁kill 8566
cess 8560
▁North 8560
▁എന് 8549
▁جس 8549
▁August 8544
▁ഒ 8544
▁सदन 8542
▁चुनौती 8541
▁लगाए 8525
सार 8515
▁రక్త 8513
▁لیکن 8512
ികള് 8510
▁कट 8509
बल 8508
▁सिर 8504
▁Joshi 8499
▁rate 8495
▁மு 8494
▁understand 8492
mit 8488
▁send 8488
▁total 8487
▁ஜ 8487
▁पाया 8486
▁प्रसाद 8486
▁रू 8485
यल 8484
▁അവിടെ 8476
▁अपील 8474
dh 8471
کر 8469
-2 8466
▁দ 8462
▁കൈ 8460
low 8458
டா 8456
▁according 8455
ac 8455
▁தூர 8448
సా 8443
▁कीमत 8440
▁एजेंसी 8436
▁टा 8432
نس 8429
▁ইত্যাদি 8428
▁Jagran 8428
గల 8426
▁named 8421
▁రెండు 8407
کا 8407
lam 8405
▁turn 8405
ప్పు 8405
ড়ি 8401
▁stone 8401
▁late 8400
وا 8397
▁building 8396
▁leadership 8396
ുന്നതിന് 8396
▁सोच 8385
▁தா 8383
कश्मीर 8379
▁camp 8378
▁करवा 8377
▁marriage 8376
▁effect 8372
▁2010 8370
മു 8369
▁प्रवक्ता 8367
ৌ 8365
▁जिसक 8354
▁பிறகு 8350
िय 8347
▁നമ്മള 8346
▁member 8343
सू 8339
చి 8339
▁மிகவும் 8338
▁ঝ 8337
▁Prasad 8333
▁سر 8331
▁स्क 8329
തും 8328
▁occasion 8327
▁जवानों 8327
▁प्रचार 8326
▁Finance 8322
ev 8319
ிலிருந்து 8316
▁fear 8315
▁മൂ 8315
িং 8310
ారు 8310
▁घोटाले 8310
out 8303
▁उतर 8302
ন্ড 8301
ालय 8301
▁released 8300
▁boy 8296
▁खेल 8295
▁September 8287
ح 8287
▁cause 8283
ீ 8283
▁नवंबर 8280
▁शव 8279
▁questions 8276
▁Defense 8272
िटी 8271
एंगे 8268
ास 8267
dic 8264
rn 8263
▁പു 8262
▁دل 8262
نچ 8261
▁search 8259
▁एल 8257
▁Sur 8254
▁निकाल 8252
दान 8250
▁कार्यालय 8242
نڈ 8241
ലാ 8235
यु 8233
चि 8233
▁கூட 8230
▁oil 8225
▁सदस्यों 8224
▁Am 8220
ిన 8218
▁behalf 8215
▁प्रकाश 8214
▁yet 8211
▁നല് 8211
▁Tamil 8208
▁मतदान 8207
▁Gupta 8206
▁हालात 8203
▁cent 8201
▁Ju 8201
، 8199
▁rape 8197
▁മി 8189
اں 8188
▁मैदान 8183
▁cap 8182
▁हाईकोर्ट 8182
▁साबित 8175
▁इलाकों 8174
ത്തിലുള്ള 8173
▁पहाड़ 8172
स्त्र 8169
▁जिसे 8167
ட்டு 8166
▁Many 8165
▁सभा 8164
▁দেখতে 8162
▁follow 8161
▁भेजा 8161
▁কারণ 8158
ल्ट 8152
দা 8141
पो 8141
▁कही 8141
क्ट 8138
▁जोड़ 8134
▁non 8129
▁organized 8125
▁பி 8123
ప్ప 8123
▁tourists 8122
▁Muslim 8122
▁hope 8118
▁South 8116
▁उम्र 8110
▁जस्टिस 8110
▁ममता 8107
बर 8097
▁او 8096
▁‘ 8094
▁वर्षीय 8094
▁मल 8093
▁പോലെ 8087
▁Although 8086
▁nor 8086
வேண்டும் 8084
ణ 8084
কো 8081
▁गैर 8081
▁যখন 8070
▁ক্যা 8069
▁स्वीकार 8066
▁increasing 8056
▁proposal 8053
thi 8053
▁completely 8051
▁Sachin 8050
ിരിക്കുന്നു 8046
▁পু 8045
▁گا 8045
▁service 8044
▁2009 8041
ियम 8039
▁नोटिस 8038
ౌ 8033
▁उठ 8032
▁continue 8031
anand 8029
ാൻ 8023
ൻ 8022
▁उसी 8021
▁सीटों 8020
ై 8013
garh 8012
देश 8012
▁وغیرہ 8006
టానికి 8004
▁നിന്ന 7996
▁ശരി 7995
पूर्ण 7992
▁পার 7990
▁पाकिस्तानी 7983
@ 7980
▁feet 7979
▁जवान 7978
▁చూడ 7978
▁എന്ന് 7974
▁difficult 7972
▁बढ़ाने 7969
▁Ban 7968
▁পরে 7967
▁दिशा 7967
ഡി 7966
▁ministers 7964
▁arrest 7963
▁seat 7961
ाबाद 7959
▁சிகிச்சை 7959
▁அதிகமாக 7956
▁believed 7955
▁பிர 7952
▁running 7939
▁Sanjay 7939
▁واقع 7936
▁দেখ 7932
▁responsibility 7932
▁allegations 7927
▁చె 7923
▁അല്ലെങ്കില 7922
കാര 7922
▁সুন্দর 7920
धे 7920
▁sign 7917
म्ब 7917
▁जन्म 7916
हि 7916
ദ്ര 7908
▁February 7906
ധി 7905
▁బా 7903
▁investigating 7899
bb 7898
▁नीचे 7898
▁common 7891
▁ஸ் 7891
ంద 7890
▁সা 7887
▁இட 7886
▁వలన 7886
▁महत्वपूर्ण 7884
िए 7884
േയും 7878
▁இருந்து 7878
ிருக்கிறது 7875
▁కిలోమీటర్ల 7872
▁... 7870
▁खोल 7868
▁sea 7862
char 7861
19 7859
▁budget 7859
▁cut 7857
ിച്ച് 7857
ق 7856
लिया 7855
▁पाए 7853
▁दिखाई 7853
स्प 7853
▁include 7851
▁வேண்டும் 7849
▁cha 7846
चर 7846
▁third 7841
শ্ 7840
জি 7836
▁Ri 7830
mu 7824
ज़ 7822
lay 7819
clock 7818
▁आरोपियों 7816
▁student 7805
▁Ganga 7805
▁شہر 7797
▁तेल 7796
▁সেই 7794
प्प 7791
rat 7786
▁लाने 7786
ഞ്ഞ 7784
ற்று 7779
▁Two 7777
▁ground 7772
▁फरवरी 7772
कु 7770
▁जताई 7768
▁అక్కడ 7768
▁inside 7766
uri 7759
থে 7757
ند 7757
భ 7756
னா 7748
▁বলা 7745
▁जमानत 7745
▁Bar 7742
ियर 7742
▁മാ 7737
▁इतना 7736
▁– 7735
▁തല 7734
▁कोलकाता 7733
▁policy 7731
▁Kar 7730
▁వెళ్ళ 7729
िस्ट 7728
▁Nitish 7726
▁विदेशी 7724
ized 7722
▁سکتا 7718
▁Kolkata 7716
▁crime 7711
▁വെ 7709
जर 7708
▁शा 7704
▁ত 7703
▁MPs 7702
▁বছর 7701
▁Day 7698
▁শ 7696
▁Development 7696
▁पर्यटक 7695
▁সময়ে 7694
▁peace 7691
▁lost 7689
ాలలో 7688
▁sun 7685
ita 7684
▁খুব 7682
▁കാണാന 7677
▁शिवसेना 7676
▁याद 7674
▁unit 7672
ाक 7672
▁درد 7668
▁Every 7667
▁complete 7666
▁एड 7666
▁डिग्री 7665
কু 7663
▁గు 7663
▁দূরে 7658
▁നിങ്ങളുടെ 7656
▁இருக்கின்றன 7656
▁വലിയ 7654
▁இரு 7649
▁80 7644
▁ഇട 7642
▁Pan 7641
टो 7641
▁गर्भ 7634
▁పా 7633
▁formed 7631
ign 7628
▁field 7627
▁चिंता 7622
স্থ 7621
▁दरअसल 7621
▁তারা 7617
▁October 7613
▁Park 7613
शे 7611
പ്പെട്ട 7607
▁Tiwari 7606
▁construction 7604
▁नया 7602
▁आते 7602
▁হওয়া 7601
▁സു 7597
▁کسی 7597
▁കു 7595
▁दायर 7593
▁అనేక 7593
سی 7593
లే 7587
▁खराब 7586
▁जि 7585
▁অন্য 7584
▁Force 7580
▁కో 7580
۔ 7579
▁फा 7578
ళ్ళు 7578
▁सूची 7576
▁घट 7573
▁दूरी 7573
▁Jaitley 7573
▁नीतीश 7571
▁अंग 7570
▁സ്ഥല 7569
শা 7567
தை 7567
▁घोषित 7564
▁देव 7560
▁जनरल 7559
▁भीतर 7558
▁sleep 7553
ற் 7553
mar 7550
ండ 7549
ஷ் 7548
▁human 7544
▁रहता 7538
▁خون 7536
പ്പ് 7534
▁Vijay 7532
▁ধ 7530
▁तरीके 7530
▁सितंबर 7530
▁Affairs 7527
ഫ 7527
10 7517
ঠা 7515
▁जेटली 7515
▁Manmohan 7514
▁கொ 7511
▁ഇല്ല 7510
ধা 7507
बार 7506
▁जैसी 7505
ाइड 7505
▁ఉంచ 7505
▁financial 7504
▁target 7496
▁Assembly 7496
नु 7496
▁बेटे 7491
▁मनमोहन 7485
റ്റര് 7476
▁imp 7475
▁wanted 7474
▁غ 7473
▁जज 7472
▁मारे 7472
▁ഒന്ന 7469
▁பார்க்க 7469
▁प्राप्त 7468
▁चु 7465
▁साध 7464
விட 7463
▁গু 7455
క్క 7455
▁بیماری 7453
▁Therefore 7452
▁Patel 7452
▁Tra 7451
▁இங்கே 7451
▁बैठ 7450
লের 7448
യായ 7448
▁পি 7443
ोल 7443
▁nothing 7442
ुआ 7441
▁पीड़ित 7440
▁اپنے 7438
▁ഉള്ള 7435
▁कार्यकर्ताओं 7433
పోతుంది 7432
▁হওয়ার 7430
▁उपयोग 7426
▁देकर 7426
▁भर्ती 7425
▁Sri 7424
rap 7423
िता 7423
▁MLA 7423
▁Rajnath 7423
डा 7420
▁चाहती 7417
▁message 7416
rr 7415
▁separate 7413
▁commission 7413
▁districts 7411
▁राशि 7408
وی 7405
ക്കി 7404
లను 7404
യൂ 7401
▁மூ 7398
▁युवक 7389
▁चुनावी 7385
▁വെള്ള 7383
रू 7381
▁पटेल 7380
▁دی 7379
▁UP 7374
ক্ষ 7373
▁rid 7371
mal 7366
▁झा 7364
▁राजनाथ 7363
▁Kal 7358
வே 7357
▁علاج 7357
ंदा 7356
गो 7356
చ్చ 7346
▁45 7344
ियन 7344
ാക 7334
▁خاص 7334
▁جن 7333
ஜ் 7328
▁তাই 7326
তো 7326
▁प्रवेश 7321
▁தோ 7319
ట్ట 7317
▁banks 7315
व्य 7314
రం 7314
সার 7311
হা 7310
▁Bank 7310
▁तोड़ 7309
▁University 7306
▁plant 7306
▁bail 7306
▁छोटे 7305
▁Ad 7302
▁संस्थान 7298
▁यात्रियों 7298
फर 7297
gar 7295
▁cost 7294
க்கொள்ள 7293
कल 7292
▁card 7291
ైన 7291
▁செ 7288
ഷ് 7287
▁forest 7286
time 7285
▁माध्यम 7285
▁کریں 7284
▁final 7283
where 7282
▁Who 7281
▁2008 7279
▁Madhya 7275
▁پا 7275
ड्ड 7274
▁collect 7270
▁सुरक्षित 7265
az 7264
ेगी 7264
▁BSP 7264
▁safe 7263
प्त 7263
▁affected 7261
▁श्रीनगर 7260
▁খাওয়া 7259
▁distance 7259
▁UPA 7258
▁check 7257
▁जग 7255
▁शीर्ष 7254
▁కి 7253
▁پہاڑ 7251
▁looking 7250
▁ചികിത്സ 7250
▁अंतरराष्ट्रीय 7246
▁संभव 7239
ത്ഥ 7239
▁Just 7237
▁केरल 7235
▁تھی 7234
▁rally 7232
▁ছোট 7230
ढ 7230
जीत 7229
Jagaran 7227
▁धारा 7226
▁ہوا 7226
िज 7221
ANI 7221
▁flow 7218
▁stand 7218
▁গেছে 7216
ron 7216
▁attacked 7216
cha 7215
♪ 7215
hir 7208
▁passed 7207
▁conference 7201
क्ल 7201
▁आसान 7200
▁तापमान 7199
▁दबाव 7194
law 7193
▁further 7191
▁girls 7185
▁Arvind 7183
▁संपर्क 7183
▁Kerala 7178
▁suffer 7176
లీ 7171
▁سال 7163
▁famous 7162
▁मात्रा 7162
▁सत 7161
▁पो 7160
▁থা 7159
▁मैंने 7157
bir 7154
ാണോ 7154
▁দি 7152
▁உள்ளது 7152
▁burn 7150
▁పు 7150
யால் 7149
▁چھ 7147
▁trains 7146
▁पहुंचा 7143
▁വേദന 7143
▁temperature 7142
খান 7140
اس 7140
▁Srinagar 7137
▁minutes 7136
▁sitting 7132
▁ভি 7131
▁Pratap 7131
▁Board 7130
ോട് 7129
▁favor 7128
भाव 7128
ible 7126
▁हथियार 7125
▁बसपा 7122
▁step 7121
नो 7119
▁मुश्किल 7118
లలో 7116
▁বু 7113
▁मिनट 7112
پی 7112
▁future 7111
▁period 7108
▁Baba 7108
ণ্ড 7107
▁consider 7107
നേ 7107
▁Patna 7104
▁പോകുന്ന 7103
▁lawyer 7100
▁लेते 7100
▁रोड 7096
▁নেই 7095
▁मत 7090
▁மேல் 7087
ాలను 7085
▁असम 7076
र्च 7072
▁पटना 7072
▁हमारी 7069
▁త 7067
▁Karnataka 7062
▁refused 7058
کی 7055
▁passengers 7051
▁होटल 7047
वेद 7044
ധ 7044
اح 7042
▁hold 7040
▁हिंसा 7039
▁रणनीति 7035
▁blast 7033
▁നമ്മുടെ 7031
घा 7030
డానికి 7030
▁चरण 7027
▁जोर 7025
▁Pre 7021
ാമ 7019
▁Un 7012
▁हमने 7006
▁मुलायम 7003
▁वैसे 7000
ट्री 6996
గ్ 6996
▁మూ 6995
▁ഉണ്ടാക്ക 6993
സ്റ്റ 6993
▁نام 6986
▁कर्नाटक 6982
▁طور 6981
▁closed 6976
▁violence 6968
▁removed 6967
ेन्द्र 6966
ினால் 6965
▁করবে 6964
▁project 6964
▁leg 6959
▁date 6959
मुख 6958
▁created 6956
▁مقام 6956
▁hard 6954
▁रोकने 6935
லாம் 6935
▁examination 6934
▁Rajesh 6934
▁pic 6929
▁command 6927
▁जिम्मेदारी 6926
▁sought 6923
्मा 6923
▁വന്ന 6922
▁പിന്നെ 6922
▁നോക്ക 6920
▁അതിന 6919
யான 6919
▁bar 6916
▁Gu 6916
ാര 6915
▁विधायकों 6912
ழு 6911
▁personnel 6905
▁rules 6902
টু 6900
▁Arun 6898
िग 6894
▁तमिलनाडु 6894
▁उठाया 6894
پور 6894
▁हार 6888
ত্ব 6887
▁connection 6884
▁நோ 6881
▁നമുക്ക 6878
यी 6876
▁తర్వాత 6875
▁Chi 6872
▁समूह 6868
▁ഗു 6868
▁kilo 6865
▁ہوئے 6865
▁अरविंद 6863
▁கை 6862
ష 6862
▁छात्रा 6858
▁व्यापार 6857
நோ 6857
ائ 6855
▁block 6853
ரின் 6853
క్ష 6853
▁GST 6850
ल्प 6849
▁heard 6848
ीकरण 6848
▁संसदीय 6848
▁file 6846
▁everyone 6845
्रो 6844
न्ना 6844
▁എന്നാല് 6842
▁دن 6839
च्च 6838
▁پ 6835
▁मगर 6829
▁सम्मेलन 6828
▁ব্যবহার 6826
dia 6823
▁പി 6823
ధ 6821
▁record 6819
▁पड़ता 6819
▁Significantly 6819
ാണെങ്കില് 6815
▁accept 6814
▁immediately 6812
▁शांति 6811
ിന്റെ 6811
▁Ali 6810
▁बाबा 6810
▁aircraft 6809
औ 6807
▁मंजूरी 6806
▁ആവശ്യ 6806
▁study 6805
▁ভা 6804
▁निवेश 6803
▁result 6802
▁Shi 6802
▁teacher 6802
ged 6801
र्ण 6799
▁പല 6797
▁పెద్ద 6797
ലോ 6793
▁पहुंची 6793
▁रैली 6789
সে 6788
▁अमेरिकी 6787
▁अनुमति 6785
ल्स 6784
▁കണ്ട 6783
▁names 6781
▁కారణంగా 6779
കളും 6777
പ്ര 6773
▁ordered 6771
▁பூங்கா 6770
रेट 6768
▁இல்லை 6764
ठा 6761
▁তাকে 6760
tory 6759
ர்கள் 6758
▁पं 6755
▁இரண்டு 6755
▁बेच 6754
▁हवाई 6752
ما 6748
▁سکتے 6746
▁వ్యా 6742
▁Chandra 6739
▁শুরু 6738
▁color 6737
▁Amit 6732
▁changed 6729
▁രാജ 6729
▁మధ్య 6725
यर 6723
▁Pal 6722
▁युवती 6722
▁पुराने 6719
▁अक्टूबर 6717
▁90 6716
▁agencies 6714
▁Uttarakhand 6711
লাম 6710
▁বিশেষ 6709
▁भूमि 6709
▁thought 6708
ানো 6707
த்தால் 6707
▁firing 6706
▁بڑھ 6706
▁weak 6703
▁defeat 6702
ency 6699
▁promise 6693
▁property 6691
▁पार्क 6688
▁മുന് 6686
वादी 6680
▁शहीद 6679
▁गठबंधन 6679
▁माल 6678
▁എന്റെ 6674
▁Akhilesh 6672
টো 6670
▁agreement 6670
▁admitted 6669
q 6667
▁उद्योग 6667
కో 6667
▁निशाना 6665
▁Jai 6663
▁response 6661
▁आवास 6660
ப்பிட 6660
▁सप्ताह 6659
▁कं 6656
▁کرتے 6654
▁உணவு 6653
▁దగ్గర 6651
▁خوبصورت 6651
▁விட 6650
क्शन 6644
▁கொண்ட 6640
▁prevent 6639
▁instead 6632
▁والی 6632
▁economic 6629
▁खाने 6628
▁అంద 6627
دار 6627
▁press 6626
▁ل 6618
▁improve 6617
▁पहल 6616
फो 6614
ेल 6613
▁समारोह 6612
ജി 6612
ഥ 6612
▁कॉलेज 6610
▁ആക 6607
یم 6607
▁efforts 6606
▁পর্যটক 6603
▁ചെ 6603
▁संकेत 6602
েই 6601
▁अखिलेश 6601
ब्र 6600
▁पढ़ने 6598
▁ముందు 6598
▁Council 6595
▁എന്നെ 6592
▁गठन 6591
▁सार्वजनिक 6591
▁Nagar 6590
स्व 6590
▁Tri 6589
ton 6589
▁जंगल 6589
▁अतिरिक्त 6588
▁పొ 6588
ara 6585
तु 6585
dal 6582
▁പറ്റ 6577
▁पहला 6575
▁भीड़ 6575
▁குறை 6574
▁র 6571
▁Jha 6566
ब्ब 6566
सं 6566
▁খু 6563
▁মু 6562
za 6555
hra 6550
▁forward 6549
▁word 6549
ً 6549
▁मानव 6547
▁సి 6547
▁विश्वास 6546
▁করেন 6543
▁presented 6542
▁अच्छा 6541
ிய 6541
▁villages 6540
▁रहती 6539
ৃ 6534
▁देवी 6534
▁भोजन 6533
యో 6526
▁सामाजिक 6525
▁பெரிய 6525
▁heavy 6521
▁दोस्त 6521
తోపాటు 6521
▁खूब 6520
▁स्प 6520
्यो 6520
खे 6519
▁পারেন 6514
▁शासन 6513
த்தி 6513
▁walk 6512
the 6512
▁gone 6510
▁अं 6510
▁Lal 6505
സാ 6504
গা 6503
▁declared 6502
▁இதன் 6502
▁காணப்படுகிறது 6502
▁parts 6499
▁क्लिक 6499
▁दोपहर 6495
▁आरक्षण 6495
▁കൊ 6490
▁मंत्रियों 6484
▁Nadu 6482
▁tea 6481
▁ہوتے 6481
▁पेट 6480
▁राज्यपाल 6479
▁जीएसटी 6479
वल 6477
▁कड़ी 6477
▁प्रत्याशी 6477
▁connect 6475
▁ফে 6475
▁shop 6471
▁भू 6471
▁যাবে 6470
▁beautiful 6469
▁cross 6468
▁environment 6460
ల్ల 6452
▁hear 6450
ார் 6449
▁District 6448
▁सबक 6446
▁addition 6444
▁contest 6443
प्ल 6442
ेश्वर 6442
ഖ 6441
▁कराई 6440
▁பயன்படுத்த 6440
▁evidence 6439
▁आशंका 6439
▁tree 6438
▁جان 6438
▁Commissioner 6432
▁तमाम 6431
▁ওষুধ 6430
▁పర్వత 6430
कारी 6428
▁ت 6426
ষ্ট 6425
ത്തിനു 6425
▁ran 6424
▁కొ 6421
ability 6419
▁विश्वविद्यालय 6419
▁మంచి 6416
▁talking 6405
▁جانے 6405
▁கோவில் 6403
▁watch 6402
ियत 6402
▁समुद्र 6400
▁چو 6399
▁fund 6398
▁type 6397
ண்டி 6397
ায় 6396
ط 6396
▁उत्तराखंड 6395
bh 6394
▁medical 6393
▁Mulayam 6393
मू 6391
▁challenge 6389
▁across 6389
dent 6388
▁current 6387
▁World 6385
సర్ 6385
మీ 6380
▁steps 6379
गल 6377
ini 6376
▁युद्ध 6372
پر 6372
▁हटा 6369
ట్ల 6369
▁ബാ 6362
भर 6361
ె 6361
▁यानी 6360
బ 6360
ంతో 6359
▁പൊ 6358
▁ശേഷം 6355
▁थाने 6353
স্ 6351
టీ 6351
▁loss 6350
▁பூ 6349
▁हों 6348
▁cities 6340
രോ 6339
▁Ex 6338
▁प्रेम 6338
க்கும் 6337
গে 6332
▁হ্যা 6332
▁కోసం 6332
▁Kamal 6326
▁তখন 6323
ంటి 6322
▁संत 6321
▁राजा 6320
▁रुक 6318
▁చ 6316
రే 6315
▁మంది 6313
▁journey 6312
▁तेजी 6312
▁ഇതു 6310
▁అది 6310
▁آ 6310
हम 6309
▁भवन 6309
▁அது 6308
▁கொடுக்க 6307
▁notes 6306
ണി 6300
▁international 6298
▁हालत 6296
▁సా 6296
▁मुद्दा 6296
▁doctors 6291
15 6291
▁share 6290
anda 6289
▁संबंधी 6288
▁remove 6286
▁direction 6282
▁मं 6282
▁Bill 6281
▁encounter 6281
पत्र 6280
పూర్ 6278
▁Aam 6273
▁চু 6263
▁అన్ని 6261
ദ്യ 6259
▁ഏ 6258
శ్ర 6258
त्रा 6254
▁অনু 6252
▁Opposition 6250
▁ट्वीट 6250
▁अभि 6246
▁చికిత్స 6246
▁മുതല് 6243
▁secretary 6242
▁हवा 6239
▁మే 6239
▁शिकार 6238
▁अरुण 6235
▁து 6235
▁کھانے 6235
ிறது 6234
▁मेडिकल 6231
एच 6229
▁दोषी 6229
▁স্থান 6228
தாக 6225
▁പക്ഷെ 6224
ో 6223
▁परिजनों 6221
▁Mal 6220
കള 6218
▁क्षमता 6217
▁جب 6217
▁Goa 6214
▁സമ 6214
▁நிலை 6214
▁کرنا 6212
▁Special 6207
▁देता 6207
▁आस 6207
▁प्रावधान 6206
▁अमित 6204
▁रखी 6203
ല്ലേ 6201
ging 6200
▁Deputy 6198
▁अच्छी 6198
▁कमेटी 6194
▁പറഞ്ഞ 6193
▁normal 6191
▁video 6188
achin 6186
▁کھ 6181
ध्य 6180
ங்களில் 6180
▁सैन्य 6176
▁രൂപ 6176
▁दौरे 6175
രുത് 6175
జా 6172
▁కలుగ 6171
▁घेर 6170
ping 6169
▁मिलकर 6168
▁दब 6167
▁fill 6166
▁കഴിക്ക 6166
खंड 6165
erma 6162
▁विरोधी 6161
▁अली 6161
▁reservation 6159
▁भविष्य 6159
▁కొన్ని 6159
▁देंगे 6158
ां 6156
▁गुरु 6155
▁అవ 6155
▁completed 6152
▁protect 6151
▁qua 6147
▁চোখ 6147
ल्ला 6147
▁আজ 6146
साथ 6146
; 6145
▁हमेशा 6144
▁पूछा 6142
▁huge 6140
▁अल 6139
▁मूल 6138
▁അയാള 6138
ങ്ങൾ 6137
▁लेना 6135
▁যাওয়া 6134
▁handed 6134
11 6132
▁relations 6131
▁region 6130
▁లేక 6128
▁whether 6126
▁پہلے 6126
▁आरोपों 6126
▁കട 6124
▁Sai 6122
णी 6118
▁provision 6115
▁लड़की 6115
▁डर 6114
ിലും 6114
யிலிருந்து 6114
▁महासचिव 6114
گر 6108
শি 6106
▁32 6106
ப்பி 6103
▁جگہ 6103
▁सीबीआई 6102
▁Ravi 6101
पूर 6101
ام 6100
▁పి 6097
▁Governor 6096
യായി 6096
▁उड़ 6093
लू 6092
▁அந்த 6092
▁बरामद 6091
க்கி 6090
▁withdraw 6088
▁நான் 6088
▁lack 6086
▁হচ্ছে 6084
▁முக்கிய 6084
ഗ് 6082
▁price 6079
▁मौका 6079
▁گی 6079
▁बीमारी 6078
▁community 6075
डे 6075
▁यूपी 6074
▁उसमें 6072
▁crowd 6070
▁वी 6068
دھ 6068
ष्ठ 6067
चल 6063
▁gang 6062
▁साजिश 6062
▁सोशल 6062
minal 6061
గి 6061
▁اسے 6060
▁Kishor 6057
▁base 6053
▁चाहता 6052
▁किसान 6052
▁Click 6051
ज्ज 6050
ল্ 6049
▁ల 6048
▁ग्रामीण 6044
बंध 6041
▁காரண 6041
স্ট 6040
▁ఎక్కువగా 6039
▁चौक 6037
▁இங்கு 6036
▁Hospital 6034
▁सफाई 6032
▁Both 6030
▁गोवा 6028
▁paper 6026
ীয় 6021
▁37 6021
ണ്ഡ 6021
▁anyone 6020
ڈی 6019
▁application 6018
▁सम्मान 6017
लाल 6015
▁संदेश 6014
▁सामना 6013
യില 6013
থ 6012
▁चढ़ 6012
having 6007
▁చిన్న 6007
▁results 6006
▁पर्यटन 6006
▁थाना 6006
▁Jag 6005
▁Jharkhand 6004
▁മല 6004
▁suicide 6000
▁airport 6000
▁सक्रिय 6000
ٹا 6000
▁force 5998
▁Foreign 5996
▁മോ 5996
ভাব 5993
▁निदेशक 5993
▁आता 5992
ന്നു 5991
▁जिलों 5990
पु 5990
رو 5989
ദി 5988
▁मीटर 5986
▁strike 5985
▁पाने 5985
చే 5983
वें 5981
▁Bas 5980
▁nine 5979
▁बचाव 5979
▁संबोधित 5979
سٹ 5977
ദ് 5976
வ் 5976
▁പക്ഷേ 5972
▁सद 5970
▁Vice 5969
ద్ 5969
▁speed 5968
ंडे 5968
കാല 5968
▁Nag 5967
▁दर्शन 5967
െങ്കിലും 5967
▁नोटबंदी 5966
ज्ञ 5964
▁परिणाम 5964
▁घाटी 5964
্ 5960
▁جاتے 5960
▁పర్యాటక 5952
▁नव 5951
▁যার 5950
▁टैक्स 5950
्रि 5949
देव 5949
▁relationship 5948
കളെ 5948
കളില് 5948
▁families 5947
▁Road 5947
▁संस्था 5944
▁Express 5941
नर 5938
▁लगाई 5936
▁discussed 5935
▁ফো 5933
▁MLAs 5933
ిస్తుంది 5927
▁caught 5926
লার 5924
▁بنا 5923
▁whose 5922
▁ചെറിയ 5922
▁দ্বারা 5921
ഗ്ഗ 5920
▁بھر 5919
▁CM 5918
▁becoming 5917
▁saw 5917
▁അധിക 5913
▁कैबिनेट 5905
آ 5905
▁criminal 5904
▁पैसे 5903
▁income 5902
▁agency 5902
▁ঘ 5900
▁activities 5899
▁चीज 5899
`` 5898
രാ 5896
▁کام 5896
▁पुत्र 5895
▁گ 5895
▁ہ 5893
ിക 5890
▁hotel 5889
പി 5889
▁नियंत्रण 5888
▁بی 5888
▁जाकर 5884
▁युवा 5884
▁suggest 5882
▁சிறு 5882
▁उपाध्यक्ष 5882
▁इन्कार 5881
▁एक्सप्रेस 5880
▁గో 5880
▁போன்ற 5879
▁करनी 5878
▁لے 5877
▁informed 5876
ంత 5876
▁उतार 5874
ং 5872
▁possibility 5870
▁खड़े 5870
▁दस्तावेज 5870
दास 5869
▁রো 5866
▁নাম 5866
▁recovered 5865
▁कार्यकर्ता 5862
றி 5857
▁सूर्य 5856
▁driver 5855
മുണ്ട് 5855
▁पड़े 5853
▁వే 5853
▁जरूर 5852
▁کوئی 5852
gram 5850
▁اپنی 5850
▁ஒவ்வொரு 5849
പ്പി 5848
▁allowed 5846
▁नेशनल 5846
▁ഇവ 5846
▁try 5845
ിട്ട് 5841
▁spokesman 5840
▁Mukherjee 5839
▁गरीब 5839
▁अरब 5839
▁बीते 5838
پا 5838
▁कृषि 5837
▁हिंदू 5837
▁م 5837
▁employees 5836
क्षित 5835
ென்ற 5835
▁लालू 5834
▁കണ്ണ 5834
▁personal 5833
▁লে 5833
सि 5833
छु 5832
▁सर्व 5831
▁मुखर्जी 5831
▁questioned 5829
▁military 5828
▁votes 5828
▁காரணமாக 5828
▁36 5827
▁अंत 5825
▁సమయ 5825
▁দেয় 5824
ेयर 5824
▁इस्तीफा 5822
▁sister 5821
▁কিলোমিটার 5820
Manish 5820
oc 5816
▁phase 5811
▁दम 5807
हरा 5806
രു 5805
▁जरिये 5804
▁ठंड 5800
▁প্রথম 5798
▁चुन 5798
▁biggest 5797
ங்கு 5792
▁తమ 5789
▁birth 5787
▁प्रतिबंध 5783
▁टिप्पणी 5782
▁راج 5782
▁ലോക 5781
റാ 5781
బ్ 5777
▁শুধু 5776
▁गयी 5776
▁सीएम 5776
▁citizen 5775
र्ब 5774
▁स्वामी 5774
യു 5774
▁doctor 5773
▁आनंद 5773
▁समुदाय 5772
▁बनाई 5769
▁America 5768
▁United 5767
jan 5766
▁দেখে 5765
▁someone 5765
▁Director 5764
▁Sho 5763
▁तीनों 5761
▁natural 5760
▁bomb 5757
ங்கா 5757
▁keeping 5755
▁भु 5755
▁पोस्ट 5754
▁হে 5752
ेस 5752
▁Dal 5750
▁ചെയ്ത 5750
▁illegal 5748
▁بے 5748
▁வர 5747
40 5743
▁idea 5743
నీ 5742
▁مان 5742
X 5735
▁झारखंड 5735
▁organizations 5733
▁गिरफ्तारी 5733
▁limit 5732
▁arm 5732
▁संभाल 5732
▁தூ 5732
▁अहमद 5730
ழ 5728
▁संविधान 5727
▁ദൂര 5726
▁कारोबार 5723
▁talks 5722
▁कमजोर 5721
▁रु 5721
▁بو 5721
▁నుంచి 5719
▁trouble 5718
▁रास्ते 5718
ുടെ 5717
▁NDA 5717
க்கிறது 5713
▁हिरासत 5713
▁পাহাড় 5712
▁தொ 5707
▁हु 5706
tation 5705
▁everything 5702
نٹ 5702
▁आवाज 5701
▁एंड 5697
▁প্রায় 5695
▁success 5694
▁fake 5694
▁দুই 5691
▁பக்க 5691
கோ 5688
▁terrorism 5687
وٹ 5686
ప్ర 5685
▁फांसी 5685
▁ছা 5683
▁Sun 5681
▁सलाह 5681
▁اہم 5681
▁कार्ड 5680
▁अफ 5679
▁भगवान 5679
▁रुख 5678
شی 5677
കു 5676
க்கம் 5675
ക്കാ 5672
▁सख्त 5671
▁eye 5669
▁महसूस 5669
▁successful 5666
▁मुद्दों 5663
ः 5660
▁ര 5660
▁Test 5658
ிற்கு 5658
फ्ट 5657
▁കൂടുതല് 5657
▁হাত 5656
▁research 5655
▁Since 5653
▁schools 5652
▁بن 5652
▁board 5651
▁आयोजन 5649
ക്കാര 5649
yan 5647
▁Fi 5645
▁foot 5645
▁सीधे 5644
▁slogan 5642
अलग 5642
▁मरीज 5641
▁परिषद 5641
யம் 5641
▁language 5640
▁expected 5640
▁तनाव 5637
மீ 5637
▁trans 5636
▁decide 5636
▁honor 5636
हे 5636
▁enough 5635
▁తా 5633
▁பயணி 5632
ளை 5627
▁vehicles 5626
సు 5626
▁परेशान 5625
ंव 5621
▁जिम्मेदार 5620
▁स्थापित 5619
▁plane 5616
ट्र 5614
▁جلد 5613
▁उधर 5612
মের 5611
▁release 5610
▁جی 5610
▁door 5608
▁नागरिक 5608
पीए 5605
tric 5603
▁लड़ाई 5601
▁Devi 5598
▁बैंकों 5598
▁জায়গা 5593
▁फीसदी 5592
▁picture 5589
▁course 5588
▁dream 5588
▁बर 5587
সের 5586
▁कैद 5585
▁path 5579
▁लिख 5578
gh 5577
▁buy 5577
▁married 5576
▁தி 5576
गंज 5575
▁fine 5574
▁لی 5574
▁संजय 5573
पीएस 5572
▁தே 5568
▁తీస 5561
▁joint 5558
▁चिकित्सा 5558
మే 5557
▁उल्लंघन 5556
▁माहौल 5555
▁चू 5553
▁मेरी 5553
▁विषय 5552
▁माता 5552
▁secret 5549
▁fixed 5549
త్త 5549
▁இருக்கும் 5547
▁வெ 5546
▁भाषा 5545
जू 5539
च्छ 5538
ண 5536
▁മേ 5535
स्ता 5534
▁मांगी 5534
▁പ്രധാന 5534
▁threat 5533
▁জি 5532
▁लु 5531
▁चंद्र 5529
▁গো 5528
light 5528
▁उठाए 5527
▁தண்ணீர 5527
▁മീ 5522
▁prove 5521
വ് 5521
▁करे 5518
ിത 5517
జి 5517
తీ 5517
▁কী 5513
ஞ்ச 5513
▁सांसदों 5513
▁इनके 5512
क्षक 5512
▁Along 5511
ചെയ്യ 5509
▁মাথা 5508
▁Sanjeev 5508
घर 5507
▁ahead 5505
्ट 5501
▁अहमदाबाद 5501
gal 5499
्रा 5498
▁डॉक्टर 5498
▁दूसरा 5497
ാസ 5496
12 5494
ంట 5494
▁दर्जन 5493
போ 5492
▁సమయంలో 5492
▁proper 5491
▁join 5491
ుడు 5490
▁मानना 5489
জে 5488
िंद 5488
ঃ 5487
ിരിക്ക 5487
کھ 5487
▁گھ 5487
▁शहरों 5486
▁నీ 5485
ங்களுக்கு 5484
▁hour 5483
▁needs 5483
▁Assam 5482
▁Tilak 5482
▁ചെയ്യുന്ന 5482
▁Lord 5480
▁जै 5480
दो 5480
▁सुना 5476
▁incidents 5475
▁नाग 5475
▁संग 5475
▁aware 5474
▁बम 5471
▁दि 5470
▁Mah 5466
ാത്ത 5465
▁جنگل 5463
▁victory 5462
rup 5461
▁comment 5461
▁Shri 5461
▁claimed 5461
्टर 5460
ുളള 5459
▁सफल 5458
রী 5451
▁गोली 5450
ത്തു 5449
▁హ 5449
▁कैंसर 5447
ന്ന് 5441
▁కల 5440
▁जुड़ी 5439
क्षा 5439
▁लाइन 5436
▁దాని 5435
▁add 5434
▁അവരുടെ 5434
▁नियुक्ति 5434
▁event 5432
▁खतरा 5432
▁സര് 5432
▁Bad 5430
▁speech 5429
▁प्रेट्र 5429
ത്തില 5428
▁Former 5426
▁ചു 5425
▁तभी 5424
▁चलने 5423
টার 5419
▁कर्मचारियों 5419
▁യാത്ര 5416
▁যাওয়ার 5412
▁population 5411
▁बचा 5411
▁समक्ष 5408
வீ 5408
லோ 5408
▁supporters 5406
▁status 5405
ھ 5405
▁ఆరోగ్య 5404
▁damage 5403
▁उड़ान 5403
▁2007 5402
▁strict 5400
▁अंक 5400
▁می 5400
▁नियम 5399
▁Ahmedabad 5398
▁Mun 5394
▁provided 5390
▁Muslims 5390
ృ 5390
▁Only 5388
ப்பட்ட 5386
ाइज 5385
▁వస్తుంది 5385
সু 5384
▁నొప్పి 5384
▁dozen 5383
یشن 5383
▁else 5379
▁college 5377
ক্ত 5374
▁allow 5373
▁ല 5371
▁Security 5369
▁எடுத்து 5369
വേ 5368
ిత 5366
▁contact 5365
▁రోజు 5365
form 5364
▁attract 5364
▁सिफारिश 5362
ization 5361
▁preparing 5360
▁پیر 5358
▁green 5357
▁என்ற 5356
য়ার 5354
▁Sushma 5354
▁लॉ 5354
CI 5353
ഘ 5352
▁बाग 5350
ప్పుడు 5350
▁गत 5346
▁wrote 5345
▁legal 5341
▁దూరం 5340
bar 5339
▁मौ 5339
ఢ 5339
▁वार्ता 5338
▁தன்னுடைய 5336
പ്പെട 5335
کو 5335
▁जाति 5333
اؤ 5333
லே 5330
▁चली 5328
▁attempt 5326
మ్మ 5325
▁चोट 5322
▁കഴിയുന്ന 5322
▁যেখানে 5321
यां 5321
▁युवाओं 5320
▁Son 5317
▁pm 5317
▁martyr 5315
ஷ 5315
▁बद 5314
▁विपक्षी 5312
ിനു 5310
ష్ 5310
বাস 5308
াল 5308
▁बीमार 5308
▁నేను 5308
▁چار 5307
▁परियोजना 5306
ഫ് 5305
▁నీటి 5305
▁least 5304
▁remember 5304
▁চলে 5304
കോ 5304
▁খাবার 5300
▁گو 5297
می 5296
িয়া 5295
▁दुकान 5295
ক্স 5291
ట్లు 5290
▁respect 5289
تر 5289
▁Prakash 5287
லில் 5287
▁మో 5285
റില് 5284
▁جیسے 5284
ক্তি 5282
▁रास्ता 5280
▁బయట 5280
▁जमकर 5279
▁FIR 5278
▁gas 5277
▁భ 5277
মো 5275
▁भरोसा 5273
▁इतिहास 5272
▁cash 5270
মু 5270
▁సు 5269
▁सहमति 5268
▁permission 5267
▁मुठभेड़ 5264
▁पुरुष 5261
▁வருட 5259
ஜி 5257
श्व 5255
▁खड़ा 5254
▁ف 5253
▁tradition 5252
▁ر 5251
▁पंचायत 5246
▁आसपास 5245
▁संशोधन 5244
▁அவசிய 5243
▁Dar 5240
▁situated 5239
▁ऑपरेशन 5239
दि 5239
▁చేర 5238
▁तृणमूल 5238
▁सुषमा 5235
▁religion 5234
▁अवसर 5234
▁కానీ 5234
▁اندر 5234
▁Trinamool 5233
▁سا 5231
युक्त 5230
▁اب 5230
▁moment 5229
▁शक्ति 5224
▁Sam 5223
▁تین 5223
▁flight 5221
స్తు 5221
▁पड़ी 5220
▁இதனால் 5220
▁Sub 5219
▁கண் 5215
▁நகர 5214
फ्र 5213
ద్ద 5212
बाजी 5211
রাম 5207
▁earlier 5206
▁position 5205
▁हाउस 5205
▁history 5203
▁हादसे 5202
▁recorded 5197
▁inquiry 5196
▁ताकत 5195
▁അടി 5194
▁చెప్ప 5193
▁രക്ഷ 5192
▁പ്രദേശ 5192
ாய் 5191
▁section 5190
ंडर 5190
▁കൂടെ 5190
▁Ru 5189
▁किशोर 5187
ப்பா 5186
लिंग 5185
▁বস 5183
▁పడ 5183
స్తుంది 5181
▁পৌঁছ 5180
▁figure 5179
ండ్ 5179
▁بھ 5177
தால் 5176
థ 5175
▁Cabinet 5174
▁نا 5173
▁services 5171
ন্ধ 5170
ali 5169
▁നിറ 5169
గం 5169
▁चले 5167
▁एजेंसियों 5167
▁بس 5167
▁താഴ 5166
▁संप्रग 5166
▁Pur 5165
▁site 5165
▁नेपाल 5165
▁கால 5165
▁adopt 5159
▁হি 5159
▁मुकदमा 5159
▁होनी 5158
योग 5157
▁దూరంలో 5157
▁Nepal 5155
▁parents 5152
ठी 5151
▁चंद 5151
▁opinion 5150
▁कौन 5150
▁భోజన 5150
▁Of 5143
▁Hyderabad 5141
مند 5141
ിക്കുക 5140
▁مہ 5140
og 5139
▁घाट 5138
▁Aadmi 5138
▁आखिर 5136
▁opened 5135
▁ആരോഗ്യ 5134
▁Ojha 5134
ब्ल 5133
ంగ 5132
▁विशेषज्ञ 5131
സര് 5130
ாமல் 5128
ுதல் 5127
▁Law 5126
യി 5126
▁কেন 5125
▁फर्जी 5124
ত্র 5123
पीसी 5123
▁Chinese 5119
▁dig 5118
▁यात्री 5118
▁അല്ല 5118
▁alone 5117
▁trust 5115
▁फुट 5115
▁হলে 5114
▁rights 5114
▁route 5114
کار 5114
لو 5114
charge 5113
▁മുറി 5111
दु 5110
▁वाहन 5107
▁गैस 5106
సం 5105
▁Ke 5104
ൂര് 5103
▁ఉన్నది 5102
▁लक्ष्य 5101
▁Shankar 5100
▁کرتا 5100
▁आती 5099
▁গা 5098
▁मिलेगा 5098
▁concern 5096
▁রাজ 5095
▁avoid 5092
▁above 5091
▁grand 5091
▁poll 5090
▁हैदराबाद 5085
फी 5084
▁stomach 5083
▁صحت 5082
മില്ല 5081
প্র 5080
க்கிய 5080
▁वृद्धि 5078
▁रुपए 5078
▁निगम 5077
▁reported 5076
நா 5075
▁represent 5071
▁शोध 5071
▁ग्राम 5071
▁prime 5070
▁தேசிய 5069
▁director 5067
ిక 5065
னுடைய 5064
▁چاہیئے 5063
▁मुक्त 5061
▁बहु 5061
▁terror 5060
▁Russia 5060
▁चे 5054
اد 5053
▁killing 5052
گھ 5050
▁directly 5048
কাল 5046
▁इन्हें 5045
▁पारित 5044
स्ती 5043
▁truth 5042
▁ജോലി 5042
▁नेटवर्क 5041
डीए 5040
▁harm 5039
▁Health 5039
▁Pak 5039
▁तुरंत 5039
▁அமைந்த 5036
ধি 5035
▁voice 5035
یل 5035
ডি 5034
▁అని 5033
vin 5032
▁ఉద్ 5030
▁ডি 5029
▁টি 5028
▁পরি 5027
▁treat 5025
▁ऊर्जा 5024
▁என்ன 5023
▁இயற்கை 5023
▁রে 5022
▁सेक्टर 5022
▁സ്വ 5022
▁తన 5022
▁returned 5021
▁conspiracy 5021
▁चीनी 5016
▁धमकी 5012
▁സെ 5010
গত 5009
▁defense 5006
▁establish 5005
ക്കുന്നു 5005
▁difference 5004
▁रद 5004
ண்ட 5003
▁न्यायमूर्ति 5003
അ 5002
▁चौधरी 5002
▁सुझाव 5001
▁खो 5000
▁वैज्ञानिक 5000
بی 5000
▁मंच 4999
▁వారి 4999
▁গে 4998
▁उनमें 4998
த்திலிருந்து 4998
eshwar 4997
▁పిల్లల 4997
▁جانب 4997
▁പേര 4996
▁deep 4994
మవుతుంది 4994
▁डो 4993
▁டி 4991
▁ഭാഗ 4990
धु 4989
▁judge 4988
శాల 4988
▁پیٹ 4987
جی 4986
▁کن 4983
▁अध्ययन 4981
▁minor 4980
▁பழ 4980
▁గర్భ 4979
▁Patra 4978
▁തു 4978
▁மணி 4978
▁create 4977
▁weather 4977
▁सवार 4977
▁Chidambaram 4976
ाधिकार 4974
▁ആര 4974
▁மக்கள் 4974
▁സാധാരണ 4973
▁helicopter 4972
▁Reporter 4971
▁hit 4969
▁Three 4967
▁अमर 4967
▁न्यायालय 4966
▁responsible 4964
PC 4960
▁लिहाजा 4958
ൊക്കെ 4958
▁তিন 4957
▁குடி 4956
▁super 4954
కంటే 4954
▁جائے 4954
യ്ക്ക 4953
لے 4953
য়ের 4952
▁listen 4952
▁happy 4952
লী 4951
▁दौर 4951
ப்பை 4948
▁दलित 4948
ரே 4947
▁खाद्य 4945
फे 4943
▁Lalu 4941
یہ 4941
▁Pranab 4939
ified 4938
ല്ലോ 4938
ుతాయి 4937
ంట్ 4937
▁फायदा 4936
इंड 4936
▁പട്ട 4934
▁Before 4928
▁Chennai 4928
▁पूर्ण 4927
▁കാരണ 4927
▁పొంద 4925
▁நேர 4922
▁கர் 4922
▁तट 4921
▁खुश 4920
▁நீர் 4920
▁पाई 4919
▁చర్మ 4917
▁delay 4916
▁आत्म 4913
▁छूट 4913
▁formation 4912
▁வித 4911
▁जयपुर 4908
▁touch 4907
▁middle 4907
▁ministry 4907
▁religious 4905
▁लोकपाल 4905
▁training 4904
▁chance 4904
▁documents 4904
ശി 4904
ங்களை 4903
que 4901
▁കൂടി 4900
▁milk 4899
▁இதில் 4898
▁Jaipur 4896
▁remained 4891
িস 4890
▁ജന 4889
▁कथित 4888
▁पत्थर 4887
▁സഞ്ചാര 4887
టు 4887
▁प्रधान 4886
▁Chhattisgarh 4885
▁custody 4885
▁हफ्ते 4885
▁बचाने 4885
jha 4885
▁വീ 4883
▁जिक्र 4880
▁mouth 4878
▁चुनावों 4877
▁అల 4876
▁எந்த 4875
▁cancer 4873
টের 4873
▁बैठे 4873
▁പോയി 4872
కొ 4872
▁ঘা 4871
ganj 4869
▁कराए 4869
ంచు 4869
▁भले 4868
దో 4868
▁wait 4867
▁coal 4866
▁Bharat 4865
▁مقدار 4865
▁মুখ 4863
▁Today 4862
പൂര് 4862
▁talked 4859
▁नक्सलियों 4857
▁सच 4856
▁Gunat 4855
▁rejected 4854
▁Gun 4854
మో 4853
बंदी 4852
▁Andhra 4851
ির 4850
▁लंबे 4850
▁لوگ 4850
log 4849
முடி 4849
▁themselves 4847
▁നില് 4847
▁पुल 4846
▁नौकरी 4846
▁செல் 4846
▁low 4845
▁Officer 4845
# 4845
▁beginning 4844
▁raid 4843
▁लगने 4842
▁স্যা 4840
▁Dev 4839
्यु 4839
▁बाकी 4838
▁कानूनी 4837
▁पहन 4836
▁കഴിഞ്ഞ 4835
▁Agra 4834
▁park 4834
▁சூ 4834
ائیں 4834
▁extreme 4830
ീയ 4830
▁विस्फोट 4827
▁electricity 4826
ঞ্চ 4826
▁despite 4826
▁इंतजार 4824
പ്പോ 4824
തര 4823
▁പാല 4820
▁മഞ്ഞ 4820
▁యాత్ర 4820
▁پیش 4820
▁शराब 4819
▁note 4818
▁پھر 4816
▁Keep 4815
వైపు 4814
▁resign 4814
▁reduce 4813
▁न्याय 4812
izing 4811
▁shock 4811
▁வேலை 4811
▁தான் 4810
▁sell 4809
లకు 4809
▁story 4808
▁टूट 4808
▁Himachal 4807
▁అను 4806
▁ട 4804
▁link 4803
▁Advani 4802
ئی 4801
▁cell 4799
▁animal 4796
▁2000 4795
▁आजम 4795
▁ഇപ്പോള് 4795
▁सीटें 4795
یاں 4792
▁രണ്ടു 4787
▁गर्म 4786
েরা 4785
▁हिमाचल 4785
▁gold 4781
▁Lokpal 4781
▁संगठनों 4781
▁चिदंबरम 4781
▁राव 4779
▁एसपी 4777
▁देती 4776
▁मूल्य 4776
▁appointment 4774
▁ഉയര 4774
▁పైన 4774
▁Hindi 4772
▁wish 4771
▁खून 4771
▁neighbor 4770
▁पहुंचने 4770
▁जाहिर 4767
▁reaching 4765
▁आयु 4764
▁राजग 4764
ుకోవాలి 4764
▁सफलता 4763
களுடைய 4763
کش 4763
▁प्रदान 4762
▁శ 4762
▁বের 4761
▁രണ്ട് 4759
cept 4758
ின்றது 4758
▁arrangements 4757
பு 4757
रूप 4756
▁மருந்து 4756
▁पर्यावरण 4755
▁strengthen 4754
▁কোনো 4752
▁ర 4752
ification 4751
▁এসে 4751
▁celebrate 4747
▁उत्पाद 4746
▁ഗ്ര 4745
▁broke 4744
▁మి 4744
▁flood 4743
▁बहन 4743
▁danger 4740
▁ভাল 4737
▁direct 4737
▁শেষ 4737
▁means 4737
▁destroy 4736
▁शिक्षक 4736
▁ചേര് 4736
▁attention 4734
▁victims 4734
▁পারবে 4727
▁நல்ல 4727
▁رنگ 4727
▁33 4725
▁cover 4725
▁हाथों 4725
▁engaged 4724
▁बर्फ 4720
▁উদ্যান 4719
pt 4718
▁അങ്ങനെ 4717
▁പുര 4717
یٹ 4717
▁മാര് 4716
▁ধরে 4714
ജ് 4714
▁അമ്മ 4714
espite 4713
▁Jam 4713
▁बजाय 4712
ఖ 4712
▁आडवाणी 4712
ందు 4711
▁Che 4709
▁leaving 4709
ാവുന്നതാണ് 4709
▁भग 4708
ழி 4708
▁حالت 4708
▁भाषण 4704
రణ 4704
▁تھے 4704
कृष्ण 4703
▁ஹ 4703
ঙ্ক 4702
▁रखे 4702
▁रखते 4702
ानी 4701
▁Guru 4700
சை 4699
▁கோவில 4698
▁ع 4698
▁വയറ 4697
யோ 4697
▁Nar 4695
▁अथवा 4695
▁சிறந்த 4695
▁ഉണ്ടാക 4694
▁चेन्नई 4691
▁spent 4689
▁almost 4688
ங்களின் 4688
▁Facebook 4685
▁review 4684
▁Chand 4684
ுகிற 4683
▁ദേശീയ 4682
▁कब 4681
▁അതി 4680
uddin 4679
▁بیچ 4679
▁तत्काल 4678
▁ഉപയോഗിക്ക 4678
ூ 4678
▁monitor 4677
▁मकान 4673
▁lead 4672
▁घो 4672
▁Temple 4671
▁വെള്ളം 4668
ڑھ 4668
▁শা 4667
▁بار 4667
िड 4665
▁رہے 4665
▁Later 4664
▁చే 4664
▁Will 4663
▁सालों 4663
▁investigate 4660
तत्कालीन 4660
ാതെ 4660
ട്ടെ 4660
▁समान 4659
ानंद 4658
▁అయితే 4657
▁expert 4655
▁International 4652
▁വ്യക്തി 4652
▁fulfill 4649
کس 4648
▁फेसबुक 4648
▁रहेगा 4646
▁standing 4645
▁ఉంటాయి 4643
▁Krishna 4641
▁दूध 4640
▁कौ 4640
ுவதற்கு 4639
▁आयुक्त 4636
▁active 4635
ിൽ 4635
▁Swaraj 4634
▁voters 4634
▁Naxalite 4632
▁track 4631
കര 4630
ശാല 4628
▁प्रणब 4628
ാനുള്ള 4627
யே 4627
▁jawans 4626
▁data 4625
▁drink 4623
ിക്കാന് 4623
ஹ 4621
▁एयरपोर्ट 4620
▁अध्यक्षता 4620
▁details 4619
mission 4618
▁कर्ज 4618
▁arrived 4617
సీ 4615
▁జాతీయ 4615
▁born 4614
▁कार्यकाल 4613
▁ஊ 4612
▁snow 4611
▁ഹൃദയ 4611
▁produce 4609
▁strategy 4608
▁Bajpai 4608
▁strength 4607
▁आंध्र 4607
▁لوگوں 4606
▁अशोक 4605
▁Right 4604
▁ചൂട 4604
▁hill 4601
▁shot 4601
▁Bangladesh 4600
পি 4599
▁আসা 4595
▁गुजर 4595
्लू 4592
▁दुर्घटना 4592
▁उल्लेखनीय 4592
▁முதலிய 4590
▁मधु 4589
▁गि 4585
ிருந்த 4585
دہ 4585
▁ഇങ്ങനെ 4584
బడిన 4584
▁امر 4584
▁সূর্য 4583
▁మూడు 4583
വീ 4582
▁valley 4581
▁సె 4580
▁संसाधन 4579
వలన 4579
▁Ashok 4578
▁परिसर 4577
ঠ 4576
गार 4575
▁తక్కువ 4575
ുണ്ടോ 4572
ాంత 4572
▁ആഹാര 4571
కుండా 4571
bra 4570
▁राजीव 4570
▁ദിവസം 4569
റോ 4568
पोर्ट 4566
▁cabinet 4565
▁Ki 4564
▁शपथ 4564
झा 4563
ട് 4563
▁अवैध 4562
یوں 4562
▁തീര് 4561
ിംഗ് 4561
ণা 4556
▁लेख 4555
▁छत्तीसगढ़ 4554
▁चलाने 4552
▁self 4549
▁गौर 4549
▁पीड़िता 4548
▁कल्याण 4545
▁learn 4544
യം 4544
▁ജല 4544
▁trade 4543
▁രോഗം 4543
▁குளிர் 4543
▁बुला 4540
రె 4539
▁खाली 4536
▁स्थानों 4536
ഹി 4533
्रेट 4532
▁Sinha 4531
▁journalist 4528
▁Banerjee 4528
▁ஏரி 4525
బడుతుంది 4525
ഷ്ട 4524
▁ചാ 4524
▁जैसा 4522
▁ہوئی 4522
▁विकसित 4518
▁காய் 4517
pai 4517
▁বন্ধ 4515
▁American 4515
put 4514
யு 4514
जेएनएन 4512
▁CPI 4512
▁उचित 4511
ിട്ട 4511
▁fair 4509
وری 4509
▁voting 4509
▁परीक्षण 4506
▁समाप्त 4505
▁जिनमें 4504
▁डाय 4503
▁நதி 4503
▁इतनी 4500
▁پیدا 4498
▁2006 4497
▁ভেতর 4496
స్థ 4496
؟ 4496
ரியா 4494
▁पसंद 4492
▁நீர 4492
▁बनाकर 4490
▁मिश्र 4487
னால் 4486
ிருக்கும் 4486
னின் 4486
▁shown 4484
▁बढ़ने 4483
▁अनेक 4482
▁विस्तार 4482
▁রাখা 4481
▁போல 4481
▁மி 4481
यंत्र 4478
ড়ে 4477
দিন 4477
▁കുട്ടികള 4477
▁Ahmed 4476
▁British 4474
▁ভাগ 4473
▁हॉ 4473
با 4473
▁1, 4472
▁proposed 4472
▁स्वराज 4471
▁রাষ্ট্রীয় 4469
▁villagers 4469
▁అవుతుంది 4469
▁పూ 4468
হার 4467
▁तिवारी 4467
லின் 4466
யில 4466
▁తరువాత 4466
▁Ji 4465
▁बहस 4464
▁ആര് 4464
▁Baj 4463
▁തോന്നുന്ന 4462
▁கே 4462
▁Women 4461
▁ഹി 4461
▁announcement 4460
▁deployed 4460
▁Sal 4459
द्वार 4458
وک 4457
▁आपके 4456
ص 4454
▁exercise 4453
ग्राम 4452
▁निकट 4451
▁गुप्ता 4450
▁judges 4446
▁لگا 4446
▁Janata 4446
▁write 4445
▁प्राकृतिक 4445
▁తగ్గ 4445
▁debate 4444
▁हल 4444
▁ఒ 4444
▁জন 4443
▁mark 4441
▁ज्यादातर 4441
▁قسم 4441
▁launch 4441
মান 4439
▁తప్ప 4438
▁seems 4437
പക്ഷ 4437
جا 4435
▁लंबी 4434
▁ఇవ్వ 4434
▁बनर्जी 4433
▁reduced 4431
▁ചുറ്റ 4429
ఠ 4427
▁சிறிய 4425
press 4422
▁quite 4421
▁एच 4421
▁மற்ற 4421
▁protection 4420
തിനാല് 4420
റു 4417
room 4416
▁उठाने 4416
▁खुलासा 4416
కం 4416
▁തെ 4415
▁മൈ 4415
▁festival 4413
▁दशक 4412
വശ 4412
তার 4411
▁खाना 4411
▁मुख्यालय 4409
▁दोबारा 4408
മല്ല 4408
▁throw 4407
▁कस 4406
▁बच्ची 4406
▁रूस 4402
ബി 4402
▁গর্ভ 4401
▁முழு 4401
আ 4400
▁اسی 4400
కూ 4397
▁रोज 4395
▁advocate 4393
▁दाम 4393
▁হৃদ 4391
▁highest 4391
▁creat 4390
▁করি 4390
▁thinking 4390
▁Maoists 4389
▁About 4388
▁afternoon 4388
▁இருந்தது 4388
্ব 4387
▁mentioned 4386
▁കൊടുക്ക 4385
పడ 4384
ഏകദേശം 4383
▁lower 4381
ാലും 4381
▁प्रबंधन 4379
▁ہوں 4378
▁continued 4377
▁पत्रकारों 4377
▁போது 4377
▁Gadkari 4377
▁फि 4376
▁तस्वीर 4375
▁കാര്യ 4373
ശ്ര 4372
▁பே 4372
▁similar 4370
▁हवाला 4369
ായിരുന്നു 4369
▁வே 4369
غ 4368
▁جھ 4367
▁संघर्ष 4365
▁രാത്രി 4365
టా 4365
▁ലക്ഷ 4364
▁ٹی 4364
▁wall 4363
दीप 4363
▁హి 4363
▁demanding 4362
ാത 4362
▁Min 4360
SP 4360
▁रवाना 4359
িল 4357
▁കിലോ 4356
▁مل 4356
▁riots 4353
ستان 4351
▁Mamta 4348
▁function 4347
▁अंतर 4347
களும் 4347
▁একজন 4345
▁महज 4345
▁సూర్య 4345
▁easy 4344
▁চল 4344
▁സൂര്യ 4344
மோ 4344
▁মহা 4343
▁flag 4343
▁बांग्लादेश 4342
▁تقریبا 4341
▁using 4339
▁maximum 4339
▁घुसपैठ 4339
▁খে 4338
▁angry 4338
▁లాభ 4336
Pratap 4334
▁निगरानी 4333
జీ 4333
▁मिलेगी 4331
▁गडकरी 4331
▁joined 4329
▁विकल्प 4329
▁வை 4328
कुल 4326
▁رہا 4326
গুলো 4325
▁सहयोगी 4324
▁आयकर 4324
▁residence 4323
▁बातें 4319
point 4317
▁আসে 4316
▁যাতে 4315
JnN 4314
▁परिवर्तन 4313
▁accepted 4312
▁स्वागत 4312
▁നഗര 4312
ग्रस्त 4307
▁सिख 4307
▁मोह 4307
▁ഭാരത 4307
▁drinking 4305
▁चाहे 4305
▁हित 4305
▁product 4303
▁Among 4301
▁waiting 4301
▁गीत 4301
▁پو 4301
▁न्यूज 4300
▁website 4299
▁revealed 4298
▁সারা 4296
▁appeal 4296
▁எல்லா 4296
▁English 4294
▁तकनीक 4294
pati 4292
▁machine 4292
▁statue 4291
▁سکتی 4291
▁Jain 4290
റിന് 4289
▁സന് 4289
▁گئی 4289
▁जदयू 4289
സ്ഥാന 4285
▁चाह 4284
▁கொண்டு 4284
ിട്ടുള്ള 4283
▁spend 4282
▁गांवों 4281
ജന 4278
▁ذریعے 4275
▁Mohan 4274
▁newspaper 4273
▁missing 4273
▁वर्तमान 4273
த்திர 4273
▁breath 4271
▁লক্ষ 4271
▁Information 4271
▁عام 4271
▁resignation 4271
▁മറ 4266
انے 4266
▁बाढ़ 4263
ക്കുന്ന 4262
▁charges 4261
বাদ 4260
▁कर्मचारी 4260
▁சூரிய 4258
▁മൂലം 4257
had 4256
ث 4255
▁Allahabad 4253
▁सका 4253
బా 4252
ോള 4249
▁వారు 4249
▁క్యా 4249
▁purpose 4248
▁சரி 4248
▁हिंदी 4245
▁fell 4244
▁सुंदर 4242
▁आवेदन 4241
▁traffic 4240
▁മഹാ 4240
▁2004 4239
▁Mayawati 4239
▁gun 4238
▁ఇతర 4238
▁தலை 4237
▁बॉ 4236
इयों 4236
▁दौरा 4233
▁स्वयं 4233
▁کل 4233
▁missile 4233
▁धार्मिक 4232
▁based 4230
▁রাস্তা 4229
▁বো 4229
▁संकट 4229
▁निभा 4227
▁করলে 4226
▁എന്നു 4226
▁దీనిని 4226
▁رہتا 4226
▁Islam 4223
▁approved 4221
▁गति 4219
க்கூடிய 4219
స్తాయి 4219
▁led 4218
िक्स 4218
▁किमी 4218
▁रच 4217
▁मायावती 4217
▁Sangh 4216
▁टू 4215
മ്പ 4215
▁मिसाइल 4213
▁participate 4210
क्का 4210
▁कन् 4210
▁पैसा 4208
▁শো 4206
▁winter 4206
▁bullet 4206
▁পায় 4205
▁जुटा 4204
▁express 4203
▁chairman 4202
▁شروع 4201
▁प्रदूषण 4200
▁ബ്ര 4200
ணி 4200
లం 4200
▁purchase 4199
বু 4198
ബാ 4197
▁game 4196
ঘ 4195
యి 4195
▁बढ़ती 4194
▁ധ 4194
▁energy 4193
▁കര 4193
▁साढ़े 4192
▁കഴിയ 4192
▁implemented 4190
▁facilities 4189
▁പരി 4189
▁Rajiv 4188
▁freedom 4188
कर्ता 4188
▁രീതിയില 4188
ذ 4188
▁पढ़ाई 4187
▁മെ 4187
▁സമയം 4185
▁لگتا 4185
மே 4184
( 4183
▁खुफिया 4183
▁रोजगार 4182
▁Chaudhary 4182
▁مطابق 4181
▁bodies 4180
▁opportunity 4180
भाग 4180
ള്ള 4180
वां 4179
▁सामान 4178
▁بر 4178
▁س 4178
▁maintain 4177
▁prices 4176
▁सत्य 4176
തില് 4176
మైనది 4176
▁குறைந்த 4175
▁పేరు 4175
▁2002 4174
▁प्रेस 4172
▁இர 4172
▁மல 4172
▁Those 4171
▁stage 4170
▁கால் 4170
▁अच्छे 4169
ௌ 4169
▁वेबसाइट 4168
తాయి 4167
▁Sources 4166
ഗ്ര 4165
▁para 4164
▁Most 4164
▁नजदीक 4164
▁जैन 4163
▁সো 4162
▁व्यक्त 4161
▁civil 4160
وز 4160
▁इस्लाम 4159
▁জো 4157
▁എടുക്ക 4157
▁ചര് 4157
▁impact 4156
ப்படி 4156
▁ఇక్కడి 4156
ैया 4154
▁witness 4153
▁season 4152
▁चेतावनी 4148
▁true 4146
কর 4145
▁Comp 4145
▁भाव 4144
▁సమస్య 4144
▁इलाहाबाद 4143
▁नियमों 4141
▁अचानक 4141
পে 4140
▁कोयला 4139
▁effective 4137
▁degree 4137
▁प्रसिद्ध 4137
▁বাবা 4134
▁शायद 4134
▁രോഗങ്ങള 4134
নী 4133
నో 4133
▁instructed 4132
▁सियासी 4132
▁सहायता 4130
▁മണി 4130
▁ഇനി 4130
▁white 4129
▁Asia 4129
▁caste 4129
▁बां 4128
▁ప్రదేశం 4128
▁പ്രകൃതി 4126
▁अंजाम 4124
▁घूम 4124
▁లా 4124
▁हटाने 4123
▁discuss 4122
▁গ্রাম 4118
▁খুবই 4118
▁ప్రత్యేక 4117
▁ঢ 4116
পার 4116
▁மூன்று 4115
▁carry 4112
▁పో 4112
▁लाया 4111
ात्मक 4110
▁மூலமாக 4110
▁recently 4108
▁जिंदगी 4108
▁मेरा 4108
▁प्रतिक्रिया 4106
▁Anand 4104
▁management 4103
▁concerned 4103
▁வழி 4103
▁छोटी 4102
▁നില 4100
▁എല്ലാം 4098
▁atmosphere 4097
▁मानसिक 4097
▁ఎత్తు 4097
▁अल् 4096
മേ 4096
▁تا 4096
▁town 4094
▁2005 4094
▁शब्द 4094
പാ 4094
▁स्कूलों 4093
▁വേണ്ട 4093
▁മാറ്റ 4092
▁বাইরে 4090
▁مشہور 4089
▁पूजा 4088
▁गाय 4086
▁मिशन 4086
▁गुर 4085
▁sit 4084
▁কেউ 4083
▁बोले 4083
▁جہاں 4083
▁मुहैया 4081
ിരുന്നു 4081
బ్బ 4081
▁survey 4080
▁பொழுது 4079
వ్వ 4079
▁implement 4079
▁controversy 4078
▁ആളുകള 4078
▁Corporation 4077
▁सुनिश्चित 4077
▁পান 4076
▁পুরো 4076
var 4076
▁रिकॉर्ड 4075
इस 4074
▁চার 4072
ഹ് 4072
ാറ 4071
▁মত 4070
▁associated 4067
ൽ 4067
▁किनारे 4066
▁contract 4065
▁रै 4065
▁Narayan 4063
ঘু 4062
▁শি 4062
கம் 4062
▁abroad 4061
بھ 4061
ులకు 4060
▁सम् 4059
سک 4059
▁मांगा 4059
▁south 4058
▁Cho 4057
▁Bhopal 4057
▁പാര് 4057
▁समीक्षा 4055
▁ബോ 4054
▁இருந்தால் 4054
▁নতুন 4053
▁പൂര് 4053
▁Nav 4052
▁जितन 4052
▁जोशी 4052
▁সাহায্য 4051
▁loan 4049
▁सिद्ध 4049
▁பெண் 4049
▁ऐ 4048
▁आबादी 4043
▁ধরণের 4042
స్ట్ 4042
▁കുറവ 4040
▁பின்பு 4040
▁ফা 4039
▁गवाह 4039
▁হো 4038
▁short 4038
▁alive 4038
▁अर्थ 4037
▁அவர் 4037
▁তেল 4036
▁Such 4036
Kamal 4036
▁प्रशिक्षण 4034
▁खाते 4034
▁भुगतान 4033
▁External 4033
നോ 4032
யூ 4032
▁تیل 4032
▁weapons 4026
dev 4025
ন্স 4024
এ 4023
▁کمی 4022
▁சோ 4021
▁والا 4019
▁mass 4018
▁உலக 4018
انہ 4018
▁ताज 4017
▁Lalit 4015
वाई 4014
▁Jaya 4012
▁Chairman 4011
▁আবার 4009
▁presence 4009
▁முறையில் 4009
ম্ব 4008
▁TV 4008
▁फंस 4006
▁परमाणु 4006
▁பார் 4005
▁raise 4004
▁भोपाल 4004
▁majority 4002
ించి 4002
▁జా 4002
▁علاوہ 3999
▁scandal 3999
▁डेढ़ 3998
आप 3998
▁कैंप 3995
നീ 3995
▁एफ 3993
ില 3992
▁intelligence 3991
▁couple 3989
▁प्ले 3988
ీయ 3988
▁দূর 3987
▁மருத்துவ 3987
▁Rao 3986
▁इनकी 3986
▁கிடைக்கிறது 3986
▁School 3985
▁കൊണ്ട 3985
▁లే 3985
▁coalition 3985
▁require 3982
▁mistake 3982
▁गाड़ी 3981
▁செல்ல 3980
▁इंजीनियर 3979
▁ஏற்பட்ட 3979
▁অব 3978
▁Senior 3978
یت 3978
▁বিখ্যাত 3977
▁জানা 3977
▁गतिविधियों 3977
ెను 3973
We 3971
▁नील 3971
من 3971
▁মাঝে 3970
तौर 3970
▁पुष्टि 3967
▁ফি 3966
▁தர 3965
▁அடி 3965
▁സ്ത്രീകള 3964
سر 3964
▁More 3963
▁कॉल 3963
▁മനുഷ്യ 3963
▁செய்து 3963
▁ഇഷ്ട 3962
▁militant 3962
শী 3961
ത്വ 3960
▁தவிர 3960
▁ఔషధ 3959
ڑی 3959
▁fly 3958
ధు 3957
▁تم 3957
احت 3957
▁welcome 3956
▁गये 3956
பர் 3955
▁بچوں 3955
কালে 3954
▁लड़ने 3953
▁example 3952
▁ഹോ 3952
▁began 3951
▁तुलना 3951
▁نیشنل 3951
▁جھیل 3951
▁फेंक 3950
▁आजादी 3949
▁അതു 3949
▁खोज 3948
ഷണ 3948
▁ہاتھ 3948
▁College 3947
▁உடல் 3946
▁daily 3945
▁projects 3945
ٹھ 3944
▁ഗ്രാമ 3943
▁supply 3942
▁Manoj 3941
ధి 3941
▁پاس 3941
▁പാട 3940
▁Jayalalitha 3939
▁Panchayat 3938
▁Varanasi 3938
▁justice 3938
▁இடம் 3938
▁கொள்ள 3937
▁lodged 3936
ம்ப 3936
▁degrees 3935
▁वास्तव 3935
▁experience 3934
▁அதை 3932
▁नारायण 3931
▁suspect 3930
▁verdict 3930
▁bridge 3929
▁prison 3928
▁പ്രത്യേക 3928
▁കണ്ടു 3925
▁আট 3924
▁appointed 3921
▁किताब 3921
▁দেব 3920
▁থাকা 3920
പ്പിച്ച 3918
▁तलाक 3917
▁ഇന് 3917
െല്ലാം 3916
বান 3915
▁canceled 3915
னர் 3915
▁अनुभव 3913
▁دیکھنے 3911
▁Dalit 3911
▁liter 3909
▁Judge 3909
▁নে 3908
এর 3907
Tiwari 3907
യുണ്ട് 3906
▁largest 3904
▁फूल 3904
▁മുഖ 3904
▁award 3903
ചാര 3901
డీ 3900
ঝ 3899
▁सड़कों 3898
▁वाराणसी 3895
jeev 3895
▁کہا 3893
ങ് 3892
ഠ 3892
▁correspondent 3892
▁एलान 3891
▁योजनाओं 3890
बद्ध 3889
▁வைத்து 3889
▁sentence 3888
▁सफर 3887
▁imposed 3886
▁छोड़कर 3884
▁सैनिकों 3884
▁rail 3883
▁ट्रेनों 3882
▁संग्रह 3879
▁सुनाई 3879
ظ 3879
▁ensure 3878
▁प्रभारी 3876
▁Azam 3876
▁recent 3875
▁जयललिता 3875
▁economy 3873
▁divorce 3873
ర్ణ 3871
▁वर्षो 3870
▁सिन्हा 3869
ৈ 3868
▁পড় 3867
ుని 3867
▁ஆரம்ப 3866
▁worship 3865
▁प्रणाली 3865
▁mental 3863
▁রি 3863
▁mentioning 3863
▁ఐ 3863
▁regular 3862
▁मुकाबले 3861
▁सेंटर 3861
رہ 3861
▁वीर 3859
കി 3856
▁تعمیر 3856
▁vehicle 3854
▁شکل 3854
ப்போ 3851
▁objection 3850
$ 3850
▁വിളിക്ക 3850
▁popular 3848
ٹر 3846
▁moving 3845
▁इमारत 3844
▁कामयाब 3842
▁மெ 3842
▁जिन्हें 3841
▁அளவு 3839
▁street 3838
▁کافی 3837
▁तारीख 3836
▁हक 3835
ంది 3834
▁crisis 3833
▁रहेंगे 3833
▁परेशानी 3833
▁പഴ 3833
ড়িয়ে 3832
▁technology 3831
▁ملک 3831
▁Abhishek 3830
வதற்கு 3830
▁కేవలం 3830
എ 3828
▁ജീവ 3826
▁जिनक 3822
▁चैनल 3821
▁पालन 3820
ക്കം 3820
▁भय 3819
▁हिस्से 3819
▁گھر 3819
ভা 3818
▁currently 3818
▁पाल 3817
▁వ్యాధి 3817
▁रखना 3816
▁launched 3815
▁partner 3814
లోని 3814
▁లోపల 3814
▁परंपरा 3813
▁battle 3812
▁నిర్మించ 3812
▁بچے 3812
▁റ 3810
▁इच्छा 3809
graph 3808
▁पूछे 3807
▁ট 3806
▁rescue 3805
▁disturb 3803
▁सिस्टम 3803
पूर्व 3803
▁पीट 3803
▁സമയ 3803
▁പുതിയ 3803
▁ڈی 3803
▁वाहनों 3802
▁आग्रह 3802
▁മഹ 3802
▁पोल 3801
രോഗ 3801
െന്ന 3799
▁ఉపయోగ 3799
▁institutions 3798
▁tension 3797
▁boat 3796
▁पिछड़ 3796
▁constituency 3795
மின் 3794
▁अल्पसंख्यक 3793
▁हमारा 3792
▁प्रत्येक 3790
▁அதிகரிக்க 3790
▁monsoon 3789
▁पेड़ 3788
▁জে 3786
▁नियमित 3786
श्त 3785
▁চে 3784
ബ് 3784
సన 3783
▁മര 3782
جن 3782
ध्यक्ष 3782
▁devotees 3781
▁Raja 3780
▁মো 3778
▁ഹാ 3778
▁ప్రారంభ 3778
▁मानसून 3775
▁அருகில் 3775
▁उत्पादन 3774
▁माफी 3774
▁clothes 3772
▁channel 3772
▁विधि 3772
▁জীবন 3771
▁method 3771
ম্ 3770
ुद्दीन 3770
وار 3770
▁equal 3769
▁पुरस्कार 3769
ட்டா 3769
▁reduc 3768
▁perform 3767
▁एशिया 3766
▁নেওয়া 3765
▁বলতে 3765
IM 3765
ിട്ടില്ല 3765
▁തി 3764
CO 3763
தில் 3763
▁Institute 3760
▁chair 3759
▁आगरा 3759
▁production 3758
▁न्यायिक 3758
▁راستے 3757
bri 3756
▁Celsius 3756
▁সামনে 3754
▁hurt 3754
▁फायरिंग 3754
▁അകലെ 3753
▁ను 3752
▁opposed 3751
▁समझौते 3751
రియా 3751
▁نکل 3751
▁قدرت 3751
লু 3748
اض 3748
▁seriously 3747
▁মান 3747
▁سبب 3747
▁ഡി 3746
ാവസ്ഥ 3746
▁पेट्रोल 3745
▁वेतन 3745
▁చేస్తుంది 3744
▁சாதாரண 3743
▁आलोचना 3742
கொள் 3742
مل 3742
▁मिश्रा 3742
▁Service 3741
▁ল 3741
▁relatives 3739
വില് 3738
▁जब्त 3738
inder 3737
▁साधा 3735
▁डॉक्टरों 3734
▁ఉపయోగించ 3734
▁సంవత్సరాల 3734
tter 3733
▁समर्थकों 3731
▁गठित 3729
▁आत्महत्या 3729
▁দিতে 3726
▁முன்ன 3726
▁पहुंचाने 3726
▁அதிகமான 3724
▁പ്രതി 3722
▁growing 3720
▁पड़ेगा 3720
▁lie 3719
নিয়া 3718
▁തോ 3717
▁डॉलर 3716
▁মানুষ 3714
▁भड़क 3714
▁अफसरों 3714
▁చు 3714
▁मालिक 3713
▁என 3713
▁brain 3712
▁ट्रैक 3711
▁वायु 3709
▁संरक्षण 3709
▁parliamentary 3709
▁nature 3706
▁अनुमान 3706
▁previous 3705
CR 3705
▁petrol 3704
▁महिलाएं 3704
চার 3703
▁भूल 3703
▁explain 3701
ண்ட் 3701
▁legislators 3700
▁অবশ্য 3699
▁count 3699
ద్ర 3698
▁तीसरे 3697
▁instructions 3695
യര് 3695
డా 3695
র্ট 3693
▁returning 3693
▁Bangalore 3693
▁कार्यवाही 3692
▁मतलब 3692
ിലേക്ക് 3692
▁Tax 3691
গুলি 3688
▁Japan 3688
▁کھانا 3688
▁पढ़े 3687
ாவின் 3687
▁2018 3686
▁با 3686
▁घुस 3685
lal 3684
▁टीवी 3684
തിനെ 3684
▁Twitter 3684
ரண 3683
▁sheet 3681
▁described 3681
▁अर्जी 3681
▁shoot 3680
▁agreed 3679
▁मद्देनजर 3679
▁रहीं 3679
▁கிலோமீட்டர் 3678
▁باہر 3678
▁دوران 3678
▁सारे 3677
മരുന്ന 3676
▁identified 3675
▁begin 3674
ാവശ്യ 3674
▁Constitution 3673
ിപ്പിക്കുന്ന 3672
ుకో 3672
▁दुख 3671
▁conduct 3670
▁Group 3670
▁لا 3669
▁उर्फ 3669
▁റോ 3667
▁പുറത്ത 3666
தீ 3666
▁కంటే 3666
▁इंटर 3664
▁প্রয়োজন 3663
▁उपाय 3663
▁मशीन 3662
▁headquarters 3661
▁आवंटन 3661
▁കാര്യം 3661
▁வெளி 3661
▁fruit 3660
▁kilometers 3659
▁అవి 3658
▁billion 3657
ന്റെ 3657
▁First 3656
▁नियुक्त 3656
▁गृहमंत्री 3656
▁তিনি 3655
ுவதால் 3654
▁এখানকার 3653
▁Education 3652
▁फसल 3652
▁மாத 3652
▁মন 3650
member 3649
തായി 3649
▁surrounded 3647
▁अर्थव्यवस्था 3647
▁considering 3646
ുകള 3646
▁ട്ര 3646
▁دیگر 3646
▁Mur 3645
▁పూర్తి 3644
▁nuclear 3643
twitter 3643
▁जला 3641
▁എത്ര 3641
▁Mamata 3641
▁earthquake 3639
▁invest 3639
▁शरद 3639
▁definitely 3637
▁reporters 3637
▁estimate 3636
▁இதய 3636
చె 3636
▁Team 3635
ിയുടെ 3635
തീ 3635
▁dam 3633
▁మొదలైన 3631
▁घटनाओं 3630
▁चालक 3629
▁Sharad 3627
▁अवधि 3627
▁आवश्यक 3626
▁pollution 3625
▁reply 3625
▁తే 3624
▁ഏതെങ്കിലു 3623
നും 3622
চা 3621
▁especially 3621
▁Public 3621
ധന 3621
தோ 3621
▁broken 3620
కార 3619
▁image 3618
▁मात्र 3618
▁बलों 3618
▁ഓര് 3616
▁உயர 3616
ল্লা 3615
▁جانا 3615
▁मेट्रो 3614
▁भूकंप 3614
▁സമീപ 3614
ിക്കുന്നത് 3613
▁ভুল 3612
wala 3611
▁കുറച്ചു 3611
▁attitude 3610
▁చి 3610
▁سورج 3610
▁ഫ 3609
▁easily 3608
▁কখনও 3608
▁Kanpur 3606
▁grant 3605
▁मजदूर 3605
▁Plan 3604
▁बीज 3604
▁ذ 3604
▁সেখানে 3603
▁சீ 3603
▁एक्ट 3602
▁அரு 3602
▁बरस 3601
ലിന് 3601
ఫ్ 3601
▁জিন 3600
രിയ 3600
▁பீ 3600
▁ছাড়া 3599
▁دھ 3598
▁owner 3597
ঞ্জ 3595
▁കുടിക്ക 3593
▁ED 3593
്യം 3592
▁NIA 3591
▁నెల 3590
▁respond 3589
▁historic 3589
▁सर्वे 3589
▁इजाजत 3589
▁তারপর 3588
▁IT 3588
▁آج 3588
▁মাত্রা 3586
▁সালে 3586
▁பை 3585
রণ 3584
▁इंडियन 3583
▁തീര 3583
▁வந்த 3583
▁investment 3582
కర 3581
▁लगाते 3580
[ 3580
▁వేడి 3580
▁चयन 3579
▁रेखा 3579
▁आपूर्ति 3579
ানোর 3576
▁कानपुर 3573
▁గొప్ప 3573
gam 3572
▁বর 3571
▁ఇందులో 3571
وب 3571
▁वस्तु 3570
▁వై 3570
▁appealed 3570
سن 3569
▁industry 3568
▁دیا 3568
— 3568
▁hanging 3567
▁initiative 3566
▁పని 3566
▁ڈھ 3564
▁policemen 3563
▁నే 3563
కులు 3563
ത്തിലും 3562
▁ح 3562
ெ 3561
ভূত 3560
তু 3560
▁देरी 3560
▁चिकित्सक 3558
▁progress 3556
▁পার্ক 3556
▁guard 3555
▁नाराज 3555
ുകളില് 3555
▁പര 3555
ഷം 3554
▁వచ్చే 3554
▁option 3551
ത്തും 3551
സം 3551
▁drug 3550
▁मंडल 3549
দি 3548
▁வீ 3548
▁சக்தி 3547
▁engineer 3545
ింది 3545
▁সত্য 3544
▁paid 3543
▁ठाकरे 3543
▁وہاں 3543
▁বেড়ে 3542
▁manner 3542
▁கிட்டத்தட்ட 3542
▁پڑ 3542
▁সবাই 3541
▁committed 3540
▁correct 3539
▁त्रि 3538
▁श्रेणी 3538
▁हेलीकॉप्टर 3537
ষ্ 3536
▁spoke 3536
▁custom 3534
▁मजबूर 3533
▁खबरों 3533
▁ജീവിത 3533
ുണ്ടാകുന്ന 3533
▁విధంగా 3533
▁کھا 3533
▁যেমন 3530
▁preparations 3530
▁dismissed 3530
▁हंगामा 3530
▁पुरानी 3529
▁ईरान 3527
▁फरार 3527
▁निकालने 3523
▁सेल्सियस 3523
▁ट्विटर 3523
▁بات 3522
▁মোট 3520
ుతూ 3520
▁నీరు 3519
▁జరుగుతుంది 3519
ాడు 3518
▁വൈ 3517
▁అప్పుడు 3515
▁forget 3514
▁रकम 3514
▁പറഞ്ഞു 3514
▁यौन 3513
▁अखबार 3510
▁മാസ 3509
▁ملا 3509
▁ذریعہ 3509
pul 3508
▁carrie 3508
▁देखकर 3508
▁सुख 3507
▁दलील 3507
▁खुले 3506
ഹാ 3506
MC 3506
▁decade 3505
బడింది 3505
▁సరస్సు 3505
▁بچہ 3505
▁കിട്ട 3504
ശ് 3504
▁alert 3502
▁مع 3501
▁समाधान 3500
▁बदले 3499
▁அதன் 3498
ئیں 3498
▁elected 3497
▁സാധിക്ക 3497
▁teach 3496
▁সৌন্দর্য 3495
▁निपटने 3495
▁سفر 3495
▁বেশী 3494
പര്യ 3493
▁रहेगी 3492
▁அதாவது 3492
▁fully 3491
▁അര് 3491
బి 3491
▁پہنچ 3491
▁recommendation 3490
▁मोहन 3487
▁conversation 3486
अप 3485
▁विवाह 3485
▁முக்கியமான 3484
▁వ్యక్తి 3483
வில்லை 3482
▁लूट 3481
▁ঘন্টা 3480
▁जुड़ा 3480
वाड़ा 3480
▁समाजवादी 3479
▁labor 3478
▁तथ्य 3478
▁nation 3477
▁intention 3477
▁चेहरे 3476
▁প্রধান 3475
▁പൂ 3475
▁alliance 3474
ൂര 3473
▁जानकार 3472
ாது 3471
ரல் 3470
▁مو 3470
▁عمر 3470
▁मंत्रिमंडल 3470
▁അല 3469
▁دونوں 3469
ക്കോ 3468
▁రో 3468
ത്തിന്റെ 3466
▁പറയുന്നത് 3466
▁தல 3466
▁Similarly 3463
▁முக 3463
▁ரா 3463
▁ٹھیک 3463
▁safety 3462
▁বন 3462
▁elder 3462
▁अंग्रेजी 3462
▁പ്രസിദ്ധ 3462
▁बदलने 3461
ిస్తాయి 3461
्लो 3460
அ 3460
▁Hazare 3460
▁Kashmiri 3459
▁ഭക്ഷണ 3459
కె 3459
▁certain 3458
▁लगाकर 3457
▁तीस 3457
హా 3457
▁আনন্দ 3455
▁सकेगा 3455
▁സം 3455
▁പോയ 3455
▁హృదయ 3455
▁सकेंगे 3454
ப்பது 3454
▁கிராம 3453
▁मानते 3452
▁സോ 3452
▁governor 3451
▁नौसेना 3451
▁ശക്തി 3451
▁টা 3450
▁செய்வத 3450
▁rural 3449
kant 3449
▁ऐतिहासिक 3449
▁बांध 3449
దే 3447
▁متعلق 3447
گی 3447
▁आजाद 3445
▁নিচে 3444
▁develop 3444
▁sexual 3443
▁കുട്ടി 3443
▁ബി 3443
▁निचल 3442
ுவது 3442
▁compensation 3441
▁২ 3440
▁இவை 3440
▁चाय 3438
▁न्यूनतम 3438
▁Swa 3436
▁जगहों 3436
లె 3436
place 3435
ാദ 3434
▁लड़कियों 3433
▁விடு 3433
▁ছ 3432
▁Speaker 3432
▁झूठ 3432
▁बढ़ावा 3430
▁राह 3430
▁ग्रुप 3430
▁प्रबंध 3427
▁స్వ 3427
থি 3426
▁सां 3426
ാറുണ്ട് 3426
▁மீ 3426
▁sugar 3425
▁జీవ 3425
▁rob 3424
▁Pandey 3424
▁युवकों 3423
▁रिकार्ड 3423
ించిన 3423
در 3423
ological 3422
▁मिलते 3421
▁नाकाम 3421
വിന് 3421
▁प्रोजेक्ट 3419
▁পরীক্ষা 3418
ক্ষণ 3418
▁আরও 3418
▁alias 3417
▁कमरे 3416
mail 3415
एमसी 3415
▁এতে 3414
ുടേയും 3413
▁گل 3412
▁পর্যটন 3411
▁Water 3410
▁छोटा 3410
▁तंत्र 3409
തിന് 3409
▁Research 3408
शाली 3408
চি 3405
▁മുകളില 3405
▁नक्सली 3404
▁നിന്നു 3404
ঁচ 3403
▁రంగు 3403
▁पश्चिमी 3402
▁അഥവാ 3402
▁स्थापना 3401
▁affect 3399
ப்பதற்கு 3399
धर 3398
jit 3397
भूत 3396
▁बहुमत 3396
▁online 3395
▁वित्तीय 3395
▁എവിടെ 3395
▁minimum 3394
▁পাথর 3394
▁महत्व 3394
லிருந்து 3394
▁آنے 3394
ষ্টি 3393
ऋ 3393
▁ش 3393
TC 3392
▁चै 3392
▁key 3391
▁author 3390
▁वर्मा 3389
▁गर्मी 3388
ண் 3388
▁देगी 3387
ിട 3387
▁failed 3386
▁फंसे 3386
ట్టు 3386
▁worse 3385
യിലും 3385
▁రూపంలో 3385
▁ঘর 3384
োর 3384
▁செய் 3383
றை 3383
സിന് 3382
▁மர 3382
▁తయార 3382
▁उनको 3381
▁வாழ்க்கை 3381
▁اوپر 3381
▁proceedings 3380
▁हजारे 3380
▁attend 3379
▁उद्देश्य 3377
▁காட்சி 3377
▁പഴയ 3376
హ్ 3374
ود 3374
ரிய 3373
▁వాటి 3372
▁సేవ 3372
▁scientist 3371
▁played 3371
▁വയസ്സ 3371
▁अधिकांश 3370
▁वापसी 3370
▁എണ്ണ 3370
▁کرتی 3370
ంచ 3369
▁निर्धारित 3366
▁आवश्यकता 3364
മാര 3364
▁Indira 3363
ോടൊപ്പം 3362
ഢ 3360
▁crop 3359
▁trial 3359
ڑا 3359
▁കേ 3357
▁culture 3356
▁clearly 3356
▁భాగం 3356
▁ক্ষতি 3355
▁संस्कृति 3355
▁समझौता 3354
▁duty 3353
ക്കാര് 3353
▁ہونا 3353
▁फंड 3352
▁उपस्थित 3352
▁भावना 3352
▁शर्त 3352
▁Leader 3351
▁কারণে 3349
▁felt 3349
▁৩ 3348
▁judicial 3348
* 3348
▁आश्रम 3348
▁रामदेव 3348
▁ഐ 3347
▁دنیا 3347
کل 3346
▁immediate 3345
▁earn 3345
▁ఖ 3345
▁Ramdev 3345
▁Sang 3344
▁रुप 3344
തം 3343
▁వైపు 3343
▁आंख 3343
▁growth 3342
▁పె 3342
మె 3342
▁भेजने 3340
▁Naidu 3339
സ്ത 3339
▁১ 3338
▁പ്രശ്ന 3338
▁പേര് 3338
▁অংশ 3336
টাই 3335
▁female 3335
க்கை 3335
ழ் 3334
▁لیں 3334
▁Actually 3333
▁जापान 3333
▁കേന്ദ്ര 3333
▁பெற 3333
▁రాజ 3333
▁د 3333
▁আসলে 3332
ൊന്നും 3332
▁زندگی 3332
▁ब्रिटेन 3331
▁জায়গায় 3330
ব্ 3330
▁மார் 3330
▁climb 3328
▁affidavit 3327
▁constantly 3325
▁किये 3325
▁नोएडा 3325
▁കൂട 3325
দু 3324
पिता 3323
നായ 3323
▁ചി 3323
▁அதனால் 3323
▁Amar 3322
▁अनुरोध 3322
▁உணவ 3322
ন্দ 3321
▁टेस्ट 3321
▁इंदिरा 3321
▁উত্তর 3319
▁cow 3317
▁रफ्तार 3316
▁സ്ഥലത്ത 3316
▁ट्रांस 3315
▁facility 3314
▁गार्ड 3313
وپ 3313
▁पायलट 3312
▁நான்கு 3312
▁फार्म 3311
▁വേഗ 3311
மாகும் 3311
▁آر 3309
یس 3309
▁network 3308
ാനും 3307
▁auto 3306
▁ایسا 3306
▁modern 3305
▁activist 3305
▁Rama 3305
▁changing 3304
▁بال 3304
▁Bhushan 3304
▁ڈ 3303
▁importance 3302
▁காண 3302
▁ప్రకృతి 3301
▁بڑی 3301
▁दायरे 3300
▁महाराज 3300
▁வைக்க 3300
▁physical 3299
▁علامت 3299
्ता 3297
▁కారణం 3297
▁মেয়ে 3296
▁हट 3296
▁মহিলা 3295
▁कक्षा 3295
▁సుమారు 3295
▁build 3294
▁گئے 3294
▁sentenced 3294
▁தங்க 3293
▁solution 3292
ുകളും 3292
▁కొద్ది 3291
త్తు 3291
▁toilet 3290
▁വയ്ക്ക 3290
▁கோட்டை 3290
▁राजद 3289
▁भेजे 3289
▁சிறிது 3288
വരെ 3287
▁കുഴ 3285
▁உதவி 3285
▁Char 3284
వ్ 3284
▁क्रम 3283
▁মনো 3282
▁targeted 3281
▁सामूहिक 3281
▁आधुनिक 3279
னே 3278
▁కోట 3278
▁हिस्सों 3277
▁ராஜ 3277
▁Medical 3275
▁ANI 3274
▁Noida 3273
शाला 3272
దీ 3272
▁Telangana 3271
▁ईडी 3271
▁ruling 3270
▁मुंह 3269
▁இப் 3269
▁fish 3268
▁শহর 3268
▁RSS 3268
▁করেছে 3267
ുമോ 3267
▁எண்ண 3267
▁வண்ண 3267
ైనా 3267
▁شی 3266
▁রকম 3265
▁request 3264
▁पत्रकार 3264
▁మహ 3264
▁खड़ी 3263
▁خراب 3263
▁wave 3261
▁ட 3260
▁critic 3259
▁इंटरनेट 3259
▁विशाल 3259
▁ప్రజలు 3259
▁എങ്ങനെ 3258
▁tweet 3258
▁लश्कर 3258
▁महंगाई 3258
▁Salman 3258
▁guilty 3257
nder 3256
▁ضروری 3255
్యా 3254
త్వ 3252
फ्ल 3251
▁పెట్ట 3250
▁सुरक्षाबलों 3250
స్తారు 3248
▁जंग 3247
▁ആള 3247
படி 3247
ूंगा 3247
▁Station 3246
▁उम्मीदवारों 3246
▁کبھی 3245
▁शख्स 3244
▁ഖ 3244
ుతారు 3244
▁RJD 3243
▁resolve 3242
▁banned 3242
▁അതുകൊണ്ട് 3242
കാ 3242
యు 3242
▁ضرورت 3242
മാര് 3240
▁dangerous 3239
▁دان 3239
▁advantage 3238
▁ওয়া 3237
▁मोहम्मद 3237
▁అవసరం 3236
وس 3236
▁Maharaj 3235
▁प्राथमिक 3235
एसटी 3235
▁ఆనంద 3235
▁खेत 3234
▁कहने 3234
▁neither 3233
▁truck 3233
▁Parliamentary 3233
▁قدیم 3232
▁category 3231
രം 3231
നില് 3231
ளவு 3231
▁విగ్రహ 3229
▁तेलंगाना 3229
▁प्रमाण 3228
ائٹ 3228
▁పరిమాణం 3227
▁निकाला 3226
ங்கி 3226
▁برف 3226
▁যত 3225
▁threatened 3225
▁forced 3224
▁താഴെ 3224
▁இடத்தில் 3224
తే 3224
▁डाला 3223
ിക്കുകയും 3223
▁പറയുന്നു 3223
▁నాలుగు 3223
▁లేదు 3223
▁pending 3223
▁developed 3221
▁Four 3221
▁रेप 3221
തിനു 3221
▁కలిసి 3221
▁অর্থ 3220
▁violation 3218
ദ്ദ 3218
▁பகுதி 3218
▁विज्ञान 3217
▁घिर 3217
▁ఆహార 3217
▁whereas 3216
▁گر 3216
▁सलमान 3216
▁সমুদ্র 3215
▁त्याग 3214
களால் 3214
▁slow 3213
▁ایسے 3213
▁গাছ 3212
কারী 3212
మై 3212
ட்டை 3211
▁ঐ 3210
▁inflation 3210
▁ஒ 3210
డంతో 3210
▁until 3209
▁construct 3208
▁pray 3208
াতে 3207
ুর 3205
▁حصہ 3205
▁Nehru 3204
▁Child 3203
▁नायडू 3202
ுக்கு 3201
▁Asaram 3201
▁शांत 3198
▁గ్ 3198
▁वारदात 3198
▁খো 3197
▁baby 3196
AI 3196
▁யா 3195
▁ఇప్పుడు 3195
मैं 3194
▁उमर 3193
లతో 3193
▁देगा 3192
▁शेख 3191
▁ஹோ 3191
കൊണ്ട് 3189
▁നെ 3189
▁समझा 3188
िंदर 3188
ാട 3188
▁علاقے 3188
▁facing 3187
▁’ 3186
▁Other 3185
▁noteworthy 3185
▁अधिकतम 3185
▁కలిగి 3185
▁موسم 3184
▁साझा 3183
ایا 3182
▁sharp 3181
▁ദേവ 3181
ാൽ 3181
▁warned 3180
▁कमान 3179
▁بند 3179
▁ഡോ 3178
▁টাকা 3176
▁खतरे 3176
-20 3176
یش 3176
ঙ 3174
▁War 3173
▁Gul 3173
▁फाइल 3173
▁Work 3172
▁مور 3172
▁गेट 3171
மு 3171
▁পরিষ্কার 3170
ിലൂടെ 3169
കര് 3169
▁মধু 3168
▁ഹെ 3168
▁തോന്ന 3168
▁শক্তি 3167
சன 3166
డో 3166
▁Thackeray 3166
▁चोरी 3165
▁सकी 3164
▁சமய 3164
▁غیر 3164
जासं 3164
▁though 3163
▁അവസ്ഥ 3163
മൂല 3163
▁आसाराम 3162
্যু 3161
ിരിക്കുന്ന 3161
ிக்க 3159
నె 3159
▁పార్ 3158
▁backward 3157
▁tomorrow 3157
द्वीप 3157
▁परिवहन 3157
▁sold 3156
▁industrial 3155
▁tweeted 3155
टीसी 3154
▁लहर 3154
▁बुलाया 3154
ിക്കും 3154
ந்தி 3154
Jassa 3154
▁doubt 3153
ുകളുടെ 3152
▁छोड़ने 3151
▁प्रश्न 3151
▁قل 3151
▁ভে 3150
▁প্রাচীন 3149
▁बताई 3149
▁लेंगे 3148
▁മറ്റ 3148
▁Last 3147
గే 3147
▁একে 3146
▁सहायक 3146
▁publish 3145
▁पूछ 3145
▁गंभीरता 3144
മാകുന്ന 3144
▁அதில் 3144
▁మీద 3144
▁آن 3144
▁ഭക്ഷണം 3143
▁communal 3142
▁மீட்டர் 3142
రక 3142
▁Command 3140
▁റി 3140
▁शिविर 3139
▁हड़ताल 3139
▁എടുത്ത 3139
▁লি 3138
▁ഒന്നും 3138
▁లభిస్తుంది 3138
▁वायुसेना 3137
▁अंदाज 3136
▁സ്പ 3134
മെ 3134
▁ہند 3134
بر 3134
▁पर्याप्त 3133
▁প্যা 3132
শো 3132
കൃത 3132
कांत 3131
▁കള 3131
▁நேரம் 3128
▁प्यार 3125
▁ব্র 3124
▁উঁচু 3124
▁match 3124
▁মূর্তি 3124
▁East 3123
▁ceremony 3123
கிழ 3123
▁அமைக்கப்பட்ட 3122
▁നടത്ത 3121
▁সং 3120
▁Pune 3120
▁వైద్య 3120
▁ٹر 3120
▁आपदा 3119
ச்சை 3119
▁inaugura 3118
▁मस्जिद 3117
ొ 3117
▁ڈاکٹر 3117
▁माल्या 3116
▁fourth 3114
▁لگ 3114
േക്ക് 3113
▁یو 3113
chand 3112
▁সহজ 3111
కీ 3111
▁दिक्कत 3110
పోవడం 3110
▁democracy 3109
▁தீ 3109
సార్లు 3109
▁பனி 3108
▁ప్రాచీన 3108
▁drop 3107
బడి 3107
▁allocation 3105
▁belong 3105
▁৫ 3104
▁स्वतंत्रता 3104
▁confirmed 3103
▁Ramesh 3102
▁அமைந்துள்ளது 3102
▁शारीरिक 3100
▁കുള 3100
▁flat 3099
▁storm 3099
▁fired 3098
ैक्ट 3098
▁सारी 3098
▁वादा 3098
▁బాధ 3098
▁ഉപയോഗ 3097
▁Lanka 3096
▁घरेलू 3095
▁ലാ 3094
▁బి 3094
▁consume 3093
ঁচা 3092
▁বাস 3092
▁शाखा 3092
▁தின 3092
▁വില 3091
▁नागरिकों 3090
தில்லை 3090
▁identity 3089
▁JDU 3089
▁ہل 3088
▁effort 3087
▁approval 3087
ుకొని 3087
ada 3086
▁punishment 3086
▁अगली 3085
▁employment 3084
▁छवि 3084
టర్ 3084
▁میل 3084
▁vegetable 3083
ஹா 3083
ذا 3083
▁proved 3082
▁Five 3082
▁desire 3080
▁nearby 3079
▁जताया 3079
ल्फ 3077
▁branch 3076
▁৪ 3073
ئ 3072
പ്പെടുന്ന 3071
▁తయారు 3070
لہ 3070
য়ো 3069
▁दौड़ 3069
▁گرم 3069
▁புகழ்பெற்ற 3068
▁అత్యంత 3068
▁കാഴ്ച 3067
▁తల 3065
▁பார்த்த 3064
క్రమ 3064
▁surprise 3063
▁बनाना 3063
▁ز 3063
▁ఎవర 3062
▁quick 3060
▁meters 3060
▁Additional 3060
▁അതായത് 3060
▁ഇരു 3058
▁NCP 3057
▁Association 3056
▁संदिग्ध 3055
▁ടി 3055
యూ 3055
షన్ 3053
▁highway 3052
▁गुट 3052
മായും 3052
ിന 3052
▁register 3051
wood 3051
েন 3050
▁আলাদা 3050
ender 3050
▁platform 3049
చేయ 3049
▁డ 3049
▁మొదలైనవి 3049
▁उत्साह 3048
▁செய்த 3048
▁additional 3047
ফে 3046
▁ചെയ്തു 3046
▁ب 3046
एनएस 3046
യില്ല 3045
▁dance 3044
ാകുന്ന 3043
சன் 3043
▁উত্ 3042
▁Manohar 3042
బు 3042
ത്തിനും 3041
▁دیں 3041
▁Navy 3040
▁आखिरी 3040
സ്റ്റ് 3040
ായിരിക്കും 3040
ரீ 3040
డే 3040
▁bribe 3039
▁staff 3038
▁imprisonment 3038
▁വന് 3038
▁మై 3038
▁মহ 3036
মিন 3035
▁3. 3035
▁జీ 3035
▁decrease 3034
▁Monika 3034
▁থাকার 3033
▁ఉదయ 3033
▁گے 3033
दू 3032
▁आपत्ति 3032
▁അവസാന 3032
▁അര 3032
▁कामकाज 3030
▁मकसद 3029
▁अग्रवाल 3029
▁ஈ 3029
▁کار 3029
▁স্বাস্থ্য 3028
▁فن 3028
েও 3027
▁pilot 3027
▁സമയത്ത് 3027
కే 3027
ology 3026
ন্ডা 3026
▁joining 3026
సారి 3026
▁అధిక 3026
▁माकपा 3026
മായിരുന്നു 3025
▁Kiran 3024
▁transport 3024
▁ختم 3024
▁Uma 3023
ग्रह 3023
▁चौहान 3023
▁convicted 3023
▁ఇలాంటి 3020
▁ఎందుకంటే 3020
▁मनोहर 3019
▁مختلف 3019
▁ఒకటి 3018
▁सकें 3017
టో 3017
▁ట్ర 3017
ভো 3016
▁ధ 3016
▁হয়েছিল 3015
▁unique 3015
▁seized 3015
▁सबूत 3015
வர 3015
తం 3015
▁Pawar 3013
▁अनिवार्य 3013
▁मच 3013
▁அனைத்து 3013
▁tenure 3013
▁جم 3011
রিয়া 3010
▁നിറഞ്ഞ 3010
▁மனித 3010
▁directed 3009
▁Human 3008
భూ 3008
▁suspended 3007
▁लाइसेंस 3007
▁ഓരോ 3007
▁शंकर 3006
▁அறிகுறி 3006
कर्मी 3005
▁बताने 3005
▁থাকবে 3003
▁साइट 3003
▁पड़ोसी 3002
▁मेरठ 2999
▁മാറ 2999
▁دودھ 2999
▁Nand 2998
▁Prior 2997
ക്കാന് 2997
শ্চ 2996
▁Chauhan 2996
▁पवार 2996
▁ग्रामीणों 2995
▁ഫല 2994
▁என் 2994
ভি 2993
▁വന 2993
చ్ 2993
▁ജാ 2992
▁దా 2992
ுடன் 2991
▁نظر 2991
▁achieve 2989
▁पार्टियों 2988
▁नेहरू 2988
ுகின்றனர் 2987
▁conducted 2986
▁Azad 2986
▁പ്രാ 2986
▁അവരെ 2985
▁য 2984
▁खींच 2984
▁కనిపిస్త 2984
▁ডে 2983
▁मोर्चा 2983
விலிருந்து 2982
▁সাধারণ 2981
▁deposited 2981
▁ऑनलाइन 2981
▁वसूल 2981
▁लोकतंत्र 2980
ുന്നതിനു 2980
বন 2979
▁பயண 2979
▁রাজা 2978
▁blow 2977
▁नाबालिग 2977
▁ది 2977
▁పద్ధతి 2977
▁Meerut 2976
▁స్థల 2976
▁Ajay 2975
▁దీనికి 2975
▁AK 2974
▁आगामी 2972
▁Mallya 2972
▁রস 2971
▁తీసుకొ 2970
▁കൂടുതല 2969
ّ 2968
▁आधिकारिक 2968
▁पुणे 2967
▁دیکھ 2966
▁license 2965
▁जुट 2965
▁മനസ്സിലാക്ക 2965
▁১০ 2964
ள் 2964
ഗ്ല 2963
നു 2963
▁capacity 2962
▁Control 2962
▁যাত্রা 2962
▁खेती 2962
▁Digvijay 2962
▁വീണ്ടും 2961
وم 2961
▁catch 2960
हाल 2960
▁style 2958
▁പെട്ടെന്ന് 2958
ുകയാണ് 2958
▁ഇന്ന് 2958
▁प्रथम 2957
▁चेयरमैन 2957
▁ലോ 2957
▁கலந்து 2957
band 2956
▁शुरु 2955
நீ 2955
▁రావ 2955
▁గా 2955
രുടെ 2954
শে 2953
▁signal 2953
▁इतन 2950
▁चर्च 2949
▁promote 2948
nika 2948
▁آرام 2947
▁হাতে 2946
▁single 2946
கால 2946
دھی 2946
▁बांट 2945
▁രാജ്യ 2945
▁సౌ 2945
▁दाग 2943
ബന്ധ 2943
▁ക്യാ 2943
ുന്നതിനുള്ള 2941
▁கெ 2941
गांव 2941
▁جڑ 2940
▁Network 2940
ন্ট 2939
▁transfer 2939
▁गोलीबारी 2939
▁Chandigarh 2938
▁coach 2938
نک 2938
▁स्पेशल 2936
▁உணர 2936
▁சம 2935
▁ആയിര 2934
க்கொண்ட 2934
ధా 2934
▁मृत्यु 2933
▁செய்கிறது 2932
▁electoral 2932
▁ক্র 2931
▁meaning 2929
▁سمندر 2929
▁Samajwadi 2929
▁Metro 2928
ருக்கு 2928
▁BSF 2927
मंद 2927
▁प्रस्तावित 2927
▁तकनीकी 2927
വ്യാപ 2927
▁మార్గం 2927
▁পো 2926
▁প্রাকৃতিক 2926
▁besides 2925
▁Office 2925
▁बिल्कुल 2925
▁दिलाने 2925
▁cooperation 2924
▁வளர்ச்சி 2924
▁ब्लॉक 2923
ম্প 2922
▁assured 2922
▁فائدہ 2922
▁Gur 2921
ঙ্গল 2920
▁Gopal 2920
▁दिग्विजय 2920
chan 2918
டர் 2918
▁Swami 2917
▁Left 2916
▁satellite 2916
▁அங்கு 2916
▁floor 2915
▁vice 2915
▁மே 2915
യിൽ 2914
▁ప్రధాన 2913
▁మహా 2912
دا 2912
പ്രദ 2911
▁Conference 2910
▁सांप्रदायिक 2910
▁हिसाब 2909
▁رات 2909
▁खुशी 2907
▁कायम 2907
▁continuously 2906
▁ভাবে 2906
▁തേ 2906
യ്ക്കു 2905
▁സംസാരിക്ക 2905
ண்டு 2905
▁आधारित 2904
▁তবে 2903
▁Jat 2903
ാണു 2903
▁रमेश 2902
▁century 2901
▁میٹر 2901
▁space 2900
▁മുതല 2900
நீர் 2899
▁మొత్తం 2898
▁आपराधिक 2898
▁amendment 2897
▁इंकार 2894
▁निशान 2893
▁டா 2893
ഷ്യ 2890
▁वीजा 2889
ുമില്ല 2889
▁గంటల 2889
▁ڈال 2889
▁കൂട്ട 2888
▁guest 2887
▁வருகிறது 2887
▁peak 2886
▁योग्य 2886
▁முதல் 2886
▁सफेद 2885
▁ഉയര് 2885
▁ഒര 2885
▁ఇం 2885
▁दिखाया 2883
▁ISI 2883
कुमार 2882
▁ఏదైనా 2881
▁Abhi 2881
▁দাঁত 2880
▁जिन्होंने 2880
▁राजमार्ग 2879
مہ 2879
▁ദൈവ 2878
ষ্ঠ 2877
▁ബന്ധ 2876
ట్లయితే 2876
റും 2875
▁ഉപ 2874
கே 2873
▁लिहाज 2872
▁കുറഞ്ഞ 2872
▁risk 2871
▁domestic 2870
▁internal 2870
▁global 2870
▁रिजर्व 2870
▁rich 2869
▁എത്ത 2869
▁తెలుస 2869
▁কখনো 2868
▁पढ़ 2868
▁colleague 2867
▁afraid 2866
ുന്നതാണ് 2866
▁সঙ্গে 2865
▁গাড়ি 2865
▁लागत 2864
▁Investigation 2864
▁பொருட் 2863
▁लंबित 2863
▁জীব 2862
▁रिहा 2862
▁مس 2861
▁निलंबित 2861
▁dark 2860
▁innocent 2860
▁മതി 2860
ീന 2860
डीआर 2860
▁পড়া 2859
▁division 2858
▁വേണം 2858
▁തയ്യാറ 2858
▁விட்ட 2858
▁फ्रांस 2857
ഹാര 2856
▁থাকতে 2855
▁detect 2855
▁deposit 2855
▁prisoners 2855
▁సముద్ర 2855
▁थोड़ा 2854
▁CRPF 2854
▁Nitin 2853
▁Odisha 2852
ജ്ജ 2852
▁अधिनियम 2851
▁آنکھوں 2851
▁പച്ച 2850
ദാ 2849
▁സൗന്ദര്യ 2849
▁മനോഹരമായ 2849
▁बराबर 2848
▁ர 2848
▁दैनिक 2847
▁ফেলে 2846
▁क्रिकेट 2845
▁मसले 2845
▁material 2843
▁raising 2843
▁समस्याओं 2843
▁बरत 2842
▁worry 2840
▁എത്തിച്ച 2840
▁இதற்கு 2840
சிய 2840
▁double 2839
ல்ல 2839
బర్ 2839
▁ফুট 2838
▁যান 2838
▁deliver 2838
ഷി 2838
▁Section 2838
▁नाराजगी 2838
▁এটি 2837
ுகின்றன 2836
▁அங்கே 2836
▁صرف 2836
▁فٹ 2836
মন 2835
वर्ती 2835
▁suddenly 2834
▁طرف 2834
▁অথবা 2833
▁challenged 2833
▁संगीत 2833
ണ്ട് 2833
▁अपहरण 2833
▁initial 2832
▁payment 2831
الی 2831
ীদের 2830
▁Through 2828
ుకోవడం 2828
▁एफआइआर 2826
▁বিভিন্ন 2825
▁கவன 2824
▁arrival 2823
▁कठिन 2823
ക്ട 2823
▁రె 2823
▁music 2822
▁visa 2822
▁பள்ளத்தாக்க 2821
రంగ 2821
▁അനുഭവപ്പെട 2820
நிலை 2820
▁മാത്രം 2819
െടുക്ക 2819
▁depend 2818
▁counter 2818
▁রঙ 2817
টির 2817
ിരുന്ന 2817
▁ശരിയായ 2816
▁കൊണ്ടു 2816
▁اثر 2816
▁rise 2815
▁faith 2814
▁ലഭിക്കുന്ന 2814
▁കാണുന്ന 2814
গান 2813
▁लोकप्रिय 2813
आइसी 2813
▁इंतजाम 2813
▁Airport 2811
भक्त 2811
▁गुलाम 2811
▁जेएनएन 2811
▁installed 2810
▁ഉണ്ടായ 2810
▁ரோ 2810
▁శక్తి 2810
▁கார் 2809
▁దృష్టి 2809
▁श्रीलंका 2808
ச்சு 2808
▁false 2807
ाचार्य 2807
▁গুরুত্বপূর্ণ 2806
▁tribal 2806
▁सिटी 2805
▁শিশু 2803
▁భాగ 2803
▁परियोजनाओं 2803
▁expenditure 2802
▁भूषण 2802
দ্র 2801
▁performance 2801
एसए 2801
▁JNN 2801
▁প্রভাব 2800
▁pull 2800
▁അദ്ദേഹം 2800
▁ചെറു 2799
▁poison 2798
▁కొరకు 2798
▁condemn 2798
▁prepare 2797
▁Thakur 2797
▁अमल 2797
▁ठाकुर 2797
▁cleanliness 2796
య్య 2795
▁సాధారణ 2795
ഭാര 2794
▁சாலை 2794
ൾ 2794
▁ധാരാളം 2792
జే 2792
▁अजय 2791
▁فیصد 2791
▁जुड़ 2790
▁صاف 2790
▁দে 2789
PL 2789
সব 2788
▁थोड़ी 2788
▁মাস 2787
▁دینے 2786
▁पेंशन 2786
▁denied 2784
▁अफसर 2784
▁قریب 2783
▁stuck 2782
▁ఊ 2782
▁मालूम 2780
▁draft 2780
▁সঠিক 2779
▁compared 2779
▁जिंदा 2779
▁மோ 2779
▁नामांकन 2779
▁Roy 2778
ుతున్న 2778
▁टु 2775
▁बिगड़ 2775
▁টে 2774
ാതിരിക്ക 2774
ிருக்க 2773
▁Ravindra 2772
▁कमांडर 2772
توں 2772
▁آس 2772
▁Magistrate 2772
▁গেলে 2771
দ্ধ 2771
▁महीनों 2771
स्तरीय 2770
▁जहाज 2770
▁हरकत 2770
▁कांफ्रेंस 2770
ുമ്പോള് 2770
కరమైన 2770
▁सूबे 2769
▁பெ 2769
▁మొ 2769
gaon 2768
▁Income 2768
▁పెరుగు 2768
▁ट्रक 2767
▁புற்றுநோய 2767
▁ফুল 2766
▁नितिन 2766
▁മാന 2766
வர்கள் 2766
▁काग्रेस 2766
▁দৃশ্য 2765
▁राजेश 2765
▁വിനോദ 2765
ப்பட 2765
▁মহিলাদের 2764
▁उदाहरण 2762
▁object 2761
▁व्यवहार 2761
▁লাভ 2760
▁throughout 2760
శ్వాస 2760
▁خواتین 2760
▁بڑے 2760
▁നേര 2759
▁آدمی 2759
▁बढ़ते 2758
ாட்சி 2758
যুক্ত 2757
பே 2757
▁விரும்ப 2756
▁రి 2756
▁تیز 2756
▁Sharif 2756
▁दीपक 2755
▁ഭാഗത്ത 2755
▁ഗോ 2755
▁ఏర్పడ 2755
نو 2755
बंद 2754
▁दीक्षित 2754
▁early 2753
▁ड्रा 2753
▁model 2752
▁व्यापक 2752
▁1999 2750
▁premises 2750
டோ 2750
ாலும் 2750
▁രാവിലെ 2749
ദേശ 2748
▁सिलसिले 2747
CA 2747
▁സ്ഥലം 2746
టె 2746
ائن 2746
▁स्थगित 2745
யினால் 2743
▁suit 2742
▁Bhan 2742
▁भूख 2741
▁ഹോട്ടല 2740
াই 2739
▁Ranchi 2738
▁बगैर 2738
▁مفید 2738
▁subject 2737
▁separatist 2737
▁गोपाल 2736
▁ফল 2735
▁পছন্দ 2735
▁समर्थक 2734
▁പ്രവര് 2731
▁জয় 2730
▁जिनके 2730
▁എന്തെങ്കിലും 2729
▁ای 2729
▁Vajpayee 2729
▁मित्र 2728
▁सीआरपीएफ 2728
▁अकेले 2726
▁முடியும் 2726
స్సు 2725
▁బీ 2725
▁nomination 2725
▁ক্ষেত্রে 2723
▁پتھر 2723
▁জন্ম 2722
▁clarified 2722
▁शुल्क 2722
▁अक्सर 2721
▁डालने 2721
▁వారికి 2721
▁पिछली 2720
ভে 2719
▁स्वच्छ 2719
▁4. 2719
ற்ப 2719
------ 2719
▁यूनिवर्सिटी 2718
▁चंडीगढ़ 2718
▁arise 2717
▁सहारा 2717
▁స్థితి 2717
▁কার 2716
▁আর্ 2716
فت 2716
▁பாக 2715
▁मतदाताओं 2715
▁Anil 2714
▁उपकरण 2714
▁ग्राहक 2714
র্গ 2713
▁கரு 2713
▁बीएसएफ 2712
▁സ്ത്രീ 2712
ల్లో 2712
▁annual 2711
& 2711
▁മാത്രമല്ല 2711
▁மை 2711
▁focus 2710
▁سطح 2710
▁praise 2709
▁ایسی 2709
▁गहरा 2708
▁തുടങ്ങിയ 2708
ందే 2708
▁standard 2707
▁ఆలయం 2707
▁देशभर 2706
▁आंकड़ों 2706
ఋ 2706
▁मनीष 2705
ాను 2705
▁commit 2704
▁পর্বত 2704
▁అడుగు 2704
▁শিখ 2703
వీ 2703
▁interview 2702
▁আই 2701
দ্ 2701
ശ്വ 2701
্স 2700
▁श्रम 2700
▁स्मृति 2700
ക്കള 2699
▁سانس 2699
▁চিন্তা 2697
▁trip 2697
▁बाबत 2697
▁పక్ష 2697
▁پھیل 2697
▁cancel 2697
▁হাজার 2696
ம்பு 2696
ராஜா 2696
▁sky 2695
▁gift 2695
▁settled 2695
▁سن 2695
സ്സ 2694
▁dialogue 2693
▁trapped 2692
▁स्वतंत्र 2692
▁advised 2691
▁Bhavan 2690
దర్శన 2689
తారు 2688
গ্র 2687
▁confidence 2687
▁வேக 2685
▁मणिपुर 2684
▁சுற்று 2684
ర్థ 2684
▁प्रताप 2682
▁begun 2681
▁legislator 2681
▁বেশ 2680
▁Bharti 2680
▁fierce 2680
▁स्टेट 2680
ീസ് 2680
▁ஏற்படும் 2680
য 2679
▁রেখে 2679
▁Valley 2679
▁sale 2679
த்திரை 2679
▁پوری 2679
▁master 2678
▁Vishwa 2678
▁शैल 2678
▁శుభ 2678
▁சொல்ல 2677
▁value 2676
▁இன்று 2676
্র 2675
▁ലി 2675
▁கரை 2675
▁stress 2674
▁Yamuna 2674
▁కాని 2674
▁योगदान 2673
▁अधिवक्ता 2673
▁निधन 2672
▁படி 2672
▁ک 2672
▁items 2671
▁ছেলে 2671
▁apart 2671
▁Taj 2671
▁തണുപ്പ 2670
▁निकले 2669
▁కాదు 2669
▁చేయడం 2668
▁प्रशासनिक 2666
▁குள 2666
نگا 2666
▁बधाई 2666
▁ফিরে 2665
നിയ 2665
டே 2664
▁کہتے 2664
▁سردی 2663
▁కొండ 2662
▁शुभ 2661
▁সন্ 2660
▁अधिग्रहण 2660
ഥി 2660
ക്കുക 2659
▁Indore 2658
▁submitted 2658
▁मॉडल 2658
▁visible 2657
সো 2657
▁बुरी 2657
▁മനസ്സില 2657
▁சொ 2657
▁ప్రజల 2657
▁মিনিট 2656
স্থল 2655
▁Abdul 2655
▁आश्वासन 2655
ফি 2654
▁whatever 2654
▁जताते 2654
▁پھ 2654
▁রু 2653
▁print 2653
▁Khe 2653
▁മനസ്സ 2653
▁वाजपेयी 2653
▁ഭയ 2652
▁மகா 2652
▁گاؤں 2652
▁লাল 2651
▁अब्दुल 2651
ക്ര 2651
▁ধীরে 2650
▁కొత్త 2650
▁passport 2649
▁एनआइए 2649
டீ 2648
ించే 2647
▁Which 2645
▁టీ 2645
▁ہا 2645
▁ஒன்று 2644
▁surgery 2643
▁मानें 2643
▁അനു 2643
▁ആദ്യം 2643
▁நடு 2643
டன் 2643
▁गरीबों 2642
▁വല 2642
▁తీసుకో 2642
▁నూనె 2641
▁Bharatiya 2641
ഴി 2640
▁பட 2640
ِ 2640
▁मुखिया 2639
▁चेक 2638
▁Official 2637
▁आदर्श 2637
ాలకు 2637
ంతు 2637
▁নিতে 2635
▁Seeing 2635
▁Authority 2635
▁रवि 2635
ത്തിന 2635
தே 2635
▁నగరం 2635
ٴ 2635
▁ज्ञान 2634
▁अनिल 2634
ാല 2634
▁reality 2633
▁क्षेत्रीय 2633
నొ 2633
▁ग्रहण 2632
▁ठहरा 2632
▁राज्यमंत्री 2630
▁விமான 2629
▁arrangement 2627
▁सक्षम 2627
ഗാ 2627
▁நேரத்தில் 2627
▁হোটেল 2626
▁డి 2626
▁স্ব 2625
▁stick 2625
राज्य 2625
▁कंपनियां 2623
▁उपभोक्ता 2622
▁ഊ 2622
ట్టి 2622
▁మీటర్ల 2622
▁ম্যা 2621
▁यमुना 2621
னோ 2621
چی 2621
▁ব্যবস্থা 2620
قت 2620
▁চেষ্টা 2619
▁sense 2619
▁Agency 2619
▁पंडित 2619
తుంది 2619
▁رو 2617
സില് 2616
▁ٹ 2616
▁ভর 2615
▁इंदौर 2615
▁संवेदनशील 2614
ാള 2614
നാഥ 2613
گا 2613
▁quality 2612
▁providing 2612
ئے 2612
▁Ganges 2611
▁नवाज 2611
▁approach 2610
▁وی 2610
سل 2610
▁summer 2609
▁seeking 2609
▁Shan 2609
▁पढ़ा 2609
▁विधान 2609
லு 2609
ाउंड 2608
▁पासपोर्ट 2608
▁എന്നാണ് 2608
▁चलाया 2607
ുമ 2606
ദേവ 2606
கிறார் 2606
న్నింటి 2606
▁থেকেই 2605
▁reform 2605
▁పరి 2605
హార 2605
▁कपड़े 2604
ৎ 2603
زی 2603
▁সর 2602
▁stamp 2601
శి 2601
▁Parrikar 2601
▁Manipur 2600
▁बढ़ोतरी 2600
▁महानिदेशक 2600
▁writing 2599
▁जोड़ने 2598
िस्तान 2598
▁صبح 2598
▁খ 2597
▁investigated 2597
▁मारपीट 2597
▁శాతం 2596
▁arrange 2595
भारत 2594
▁ठहराया 2594
▁सागर 2594
▁গিয়ে 2593
కుల 2593
▁رہی 2593
▁دماغ 2593
▁যাচ্ছে 2592
▁strongly 2592
▁ബുദ്ധിമുട്ട 2592
সন 2591
▁ചെയ്യാന് 2590
▁फीट 2588
کشن 2588
▁advice 2587
▁शरीफ 2587
▁firm 2586
▁യ 2586
▁Suresh 2586
▁ദിവസ 2585
▁പണി 2585
▁যথেষ্ট 2584
▁twice 2584
▁Jail 2584
▁debt 2584
▁رکھیں 2584
▁anger 2583
▁लंबा 2582
shek 2581
০০ 2580
▁Afghanistan 2580
▁చేసే 2580
▁रिश्तेदार 2579
సే 2579
▁होंगी 2578
தம் 2578
▁நிறைந்த 2578
▁பாதை 2578
▁পেয়ে 2577
▁policies 2577
▁Arunachal 2577
ഛ 2577
▁Shukla 2576
▁رہتی 2576
▁Mufti 2575
▁দর্শন 2574
দিকে 2574
▁নির্মাণ 2573
முடைய 2573
▁খান 2572
▁solve 2572
▁सूरत 2572
ജ്ഞ 2572
ഞ്ഞു 2572
▁Legislative 2571
▁കഴിക്കുന്ന 2571
▁மருந்த 2570
▁ट्रंप 2570
▁ஐ 2569
ڑے 2569
▁सईद 2569
▁fee 2568
▁نیچے 2567
▁আয় 2566
▁பொ 2566
▁Reddy 2566
▁symbol 2565
▁complained 2565
▁शर्म 2564
▁कर्मियों 2563
▁requested 2562
▁actor 2562
▁వీ 2562
ஜா 2561
ాలతో 2561
▁निर्मल 2560
▁Meteorologi 2560
▁जुटी 2559
▁الگ 2559
▁تب 2559
▁বন্ধু 2558
▁यूपीए 2558
▁balance 2557
▁Talk 2557
क्की 2557
▁computer 2556
▁काउंसिल 2556
▁കുറിച്ച 2556
ன்ற 2556
▁வந்து 2556
▁فی 2556
▁കഴിയും 2555
BJP 2555
▁fighter 2554
▁दत्त 2554
▁പെ 2554
▁അപകട 2552
▁fan 2551
▁చేత 2551
▁ঘুর 2549
▁सिरे 2549
▁लिमिटेड 2549
▁Yoga 2548
▁Deepak 2548
▁ഉപയോഗിക്കുന്ന 2548
एएनआई 2548
▁Europe 2547
▁করছে 2547
▁सैनिक 2547
▁जुटे 2547
খা 2546
స్తూ 2546
▁ഇരിക്ക 2544
ിക്കണം 2542
▁అంత 2542
▁circumstances 2541
▁खतरनाक 2541
వృ 2541
জী 2540
ரில் 2540
চে 2539
▁selected 2539
▁प्रोफेसर 2539
▁सलाहकार 2539
▁കല്ല 2539
▁തൂ 2539
▁متاثر 2539
भाजपा 2539
▁तार 2538
▁தேவை 2538
▁finger 2537
তর 2535
▁diplomat 2535
▁Civil 2534
▁प्रारंभ 2534
▁ব্যক্তি 2533
▁rent 2533
▁శా 2533
▁स्वरूप 2532
اتی 2532
▁புற 2531
▁implementation 2530
శా 2530
▁सुरेश 2530
ত্ত 2529
ാലയ 2529
رز 2529
ിലാണ് 2528
▁তথা 2527
ദ്ദേശ 2527
പുര 2527
▁प्रगति 2526
▁IIT 2525
▁टै 2524
▁लापता 2524
ത്തിൽ 2524
▁कितना 2523
▁मृतक 2523
▁recover 2522
▁दंड 2522
▁அவர்கள் 2522
▁ഫ്ര 2520
దన 2519
▁दया 2518
தல் 2518
▁सर्विस 2517
▁बरकरार 2517
▁आंकड़े 2516
▁ज्योति 2516
വുമായ 2516
▁रेड्डी 2515
▁except 2514
▁इसीलिए 2514
ാക്കി 2513
ത്തിലാണ് 2513
▁రాత్రి 2513
نوں 2513
▁റെയില 2512
েশন 2511
▁مناسب 2511
র্ক 2509
▁கீழே 2509
▁নিজেদের 2508
▁औसत 2508
▁Ajit 2508
▁yesterday 2506
▁بچ 2506
▁बच्चा 2505
▁Rath 2504
▁शिमला 2504
▁ചെയ്യുക 2504
▁admission 2503
▁टकरा 2503
▁ఏర్పాటు 2503
▁प्रशांत 2502
▁ஓ 2502
▁سبھی 2502
▁सर्वाधिक 2501
▁അട 2501
▁ఉత్తర 2501
ঘাট 2500
▁پت 2500
▁photograph 2499
▁Line 2499
చ్చి 2499
▁निशाने 2498
▁చా 2498
▁escaped 2497
ধু 2497
▁measures 2497
▁తో 2497
▁विवादित 2497
▁scene 2496
▁இன் 2496
▁مت 2496
▁हत्याकांड 2496
▁കേട്ട 2495
▁சென்ற 2494
▁جل 2494
▁appropriate 2493
▁फॉर 2493
കല 2493
▁dirt 2491
னம் 2491
▁Priyanka 2491
விற்கு 2490
▁independent 2489
ജീ 2489
▁நிற 2489
பூ 2488
▁निपटा 2487
▁फ्लैट 2487
▁basic 2486
ാവുന്ന 2486
▁چاہئے 2486
▁Swamy 2486
▁कड़ा 2485
▁चीफ 2485
▁اچھی 2485
▁Front 2484
▁آتے 2484
▁structure 2483
ుటకు 2483
▁मुफ्ती 2483
▁زمین 2482
ھی 2481
▁उद्घाटन 2481
▁বিশ্বাস 2480
▁failure 2480
▁മരുന്നു 2480
வெ 2480
പ്പിക്ക 2479
▁നടക്ക 2479
▁అంటారు 2479
▁ढंग 2478
ിനും 2478
▁rank 2477
work 2477
▁Pandit 2476
ട്ടു 2476
▁प्राधिकरण 2475
▁प्रियंका 2475
▁सदस्यीय 2475
▁लिखे 2474
▁ऑफिस 2474
▁ஏற்பாடு 2474
മാന 2473
▁மூளை 2473
کن 2473
▁وادی 2473
▁মিটার 2472
सिंह 2471
▁wearing 2469
▁സന്തോഷ 2469
ഞ്ചി 2469
கர 2469
adav 2469
▁کمزور 2468
জার 2467
डब्ल्यू 2467
▁ശ്രീ 2467
▁filing 2467
▁practice 2466
▁बेटा 2466
▁apologize 2466
নায় 2465
▁কেন্দ্র 2465
▁credit 2465
▁gathered 2464
▁शरण 2464
▁प्राथमिकता 2464
▁Naxal 2463
▁डिजिटल 2463
▁सूत्र 2463
▁അവര 2462
க்கா 2462
▁birthday 2461
ഫി 2461
▁আম 2460
▁बताए 2460
▁కలిపి 2460
▁لینے 2460
യ്യ 2459
▁शेर 2458
গড় 2457
▁agenda 2457
▁അകത്ത 2457
ிலும் 2457
▁ఇదే 2457
▁దు 2457
▁कमांड 2457
▁শিব 2456
▁rebel 2456
తాడు 2456
▁சிலை 2455
▁கிடைக்க 2454
وت 2454
▁Trump 2454
▁escape 2453
ിഷ്ട 2453
വാര 2453
▁ചെയ്യുന്നത് 2453
▁مدد 2453
▁तीख 2452
గ్ర 2451
▁கடை 2450
▁तर्क 2449
చు 2449
▁यूरोप 2448
▁अफगानिस्तान 2448
క్కు 2448
▁गायब 2447
സോ 2447
▁ரி 2447
▁താമസ 2446
▁உருவாக்க 2446
▁rising 2445
▁रांची 2445
▁अभिनेता 2445
▁టి 2445
▁অবস্থা 2444
▁डीएम 2444
ാണെന്ന് 2444
▁ప్రకారం 2444
▁सुशील 2444
▁పరీక్ష 2442
▁پینے 2442
▁absence 2441
▁Know 2441
த்தல் 2441
▁భవన 2441
▁design 2440
டைய 2440
▁silent 2439
▁கழி 2439
▁ഉറങ്ങ 2438
▁ഭൂ 2438
▁சந்த 2438
election 2437
▁oath 2436
حد 2436
▁Shimla 2435
▁ফু 2434
▁average 2434
friend 2434
തുപോലെ 2434
▁Sushil 2434
▁புதிய 2433
গু 2432
▁passenger 2432
പ്പോഴ 2432
▁കാര് 2432
وال 2432
▁serve 2431
▁yoga 2430
▁अधीक्षक 2430
▁हवाले 2430
000 2430
▁advance 2429
▁kg 2429
▁നടക്കുന്ന 2429
▁৬ 2428
গল 2428
தாகும் 2428
▁تاریخ 2428
▁अंतरिक्ष 2427
▁औपचारिक 2426
▁संहिता 2426
▁independence 2425
▁ধরনের 2425
▁technical 2425
▁پھل 2425
▁भ्रम 2424
▁धमाक 2424
യന് 2424
▁హా 2424
▁హె 2424
▁వయస్సు 2424
▁جائیں 2424
▁Africa 2423
স্থান 2423
▁ప్రపంచ 2423
▁सदस्यता 2422
▁reserve 2421
▁வசதி 2421
తుల 2421
روں 2421
▁notification 2421
వె 2420
ন্ন 2419
▁రోజుల 2419
▁నది 2419
▁Taking 2418
▁examined 2418
വല 2418
சர் 2418
▁हस्ताक्षर 2416
র্জ 2415
శీ 2415
▁آئی 2414
▁بڑا 2414
র্ণ 2413
▁earth 2413
▁knowledge 2412
▁मंगल 2412
▁influence 2411
▁শতাংশ 2411
▁promotion 2411
▁सिविल 2411
விட்ட 2411
பெ 2411
▁IAS 2411
▁ഔഷധ 2410
▁خود 2410
▁anniversary 2409
▁సంవత్సరం 2409
▁دوسرے 2408
▁retired 2408
▁ভো 2407
▁Lt 2407
▁బాగా 2407
ంజ 2406
প্ল 2405
▁ट्रस्ट 2404
▁১৫ 2403
വേദന 2403
▁شم 2403
ഭാവ 2402
▁مال 2402
▁cheap 2401
आरएस 2401
▁राजस्व 2401
▁happiness 2400
▁পথ 2400
▁टाइम 2399
▁संतोष 2398
ণী 2397
▁Satya 2397
▁politician 2397
▁பறவை 2397
سا 2397
kumar 2396
▁ड्राइवर 2396
▁దృశ్య 2396
ణి 2396
▁জু 2394
▁मशहूर 2393
▁रावत 2393
చన 2393
▁اش 2393
▁Korea 2392
▁plot 2392
▁കീ 2392
▁തീ 2392
▁வழியாக 2392
▁రకాల 2391
▁खां 2390
▁வயது 2390
AAP 2390
▁ब्रिटिश 2389
▁கலை 2389
▁కారణ 2389
▁వెళ్ళి 2389
▁Food 2388
ించడం 2388
▁transaction 2388
▁Rawat 2387
യിലൂടെ 2385
▁बीमा 2384
▁சிறப்பு 2384
▁सीमित 2383
▁ক্লা 2382
▁নিজ 2382
ర్యా 2382
▁कब्जा 2381
▁بل 2381
▁Ghaziabad 2380
കെ 2380
▁মারা 2379
▁উচ্চতা 2379
▁Rajendra 2379
▁पुराना 2379
▁اپنا 2379
▁شکار 2378
▁Earth 2377
തിര 2377
رک 2376
৫ 2375
▁అల్ 2375
▁چاہیے 2375
▁सब्सिडी 2375
দেশ 2374
▁western 2373
▁उभर 2373
▁గుర్తు 2373
▁पाठ 2372
▁ఇటువంటి 2372
▁Resource 2372
▁मतदाता 2372
▁पुस्तक 2371
▁ముఖ 2371
▁achievement 2370
▁दृष्टि 2370
▁London 2369
based 2368
ശേഷം 2368
▁കൊല്ല 2368
▁ప్రభావం 2368
▁agree 2367
▁धूम 2367
▁வைத்த 2367
পু 2366
▁spirit 2366
ন্ত্র 2365
▁गाजियाबाद 2365
▁తిరిగి 2365
▁Abdullah 2365
▁Organization 2364
േറ്റ 2364
ండు 2364
▁സഹായ 2363
▁தோன்ற 2363
ధ్య 2363
▁مقامات 2362
ঙ্গা 2361
▁सैकड़ों 2361
▁دکھائی 2361
▁ఉంటే 2360
▁Babu 2359
▁sensitive 2358
▁Mahatma 2358
presidential 2358
▁संदेह 2358
▁റാ 2358
▁लोकायुक्त 2358
গো 2357
▁बुखार 2357
▁झेल 2357
▁అయి 2357
▁Lokayukta 2357
▁تیار 2356
ഡോ 2355
வாக 2355
వరం 2355
▁constitution 2354
▁കുട 2354
▁choice 2353
▁லா 2353
▁मान्यता 2352
▁executive 2351
▁रिश्तों 2351
▁अरुणाचल 2350
▁പറഞ്ഞത് 2350
مر 2350
नायक 2349
▁साहित्य 2348
▁ஹா 2348
▁মস্তিষ্ক 2347
▁एसोसिएशन 2347
▁यातायात 2347
శ్ 2347
▁সমস্ত 2346
▁institute 2346
▁union 2346
▁രണ്ട 2346
▁ബീ 2346
জের 2345
▁divide 2345
▁ড 2345
▁लिखकर 2345
▁continuous 2344
▁മനോ 2344
▁محسوس 2344
▁ما 2344
▁Regard 2343
▁പോലും 2343
ணம் 2343
▁నిర్మాణం 2343
▁؟ 2343
▁Dawood 2343
ছু 2342
েশ্বর 2341
▁diesel 2341
▁विज्ञापन 2341
▁സത്യ 2341
▁گرد 2341
ছেন 2340
▁positive 2340
▁affair 2340
▁Nations 2338
▁ढाई 2338
▁നടന്ന 2338
▁মানসিক 2337
▁সুর 2337
▁photo 2337
▁சர் 2337
▁मुजफ्फरनगर 2337
PF 2336
▁ভাই 2335
▁முழுவதும் 2335
నియా 2335
▁সার্ 2334
down 2334
▁దాదాపు 2334
ేశ్వర 2334
▁इस्तीफे 2333
▁ജോ 2332
▁బరువు 2332
ক্ষা 2331
▁نقصان 2331
▁घंटों 2330
▁அமைதி 2329
▁assault 2329
দে 2328
▁1993 2328
▁फोर्स 2328
ுள்ளது 2328
▁حاصل 2328
▁pilgrims 2327
▁argument 2326
▁Sikh 2326
▁चेहरा 2326
▁complain 2325
▁নামে 2324
▁छेड़छाड़ 2324
▁Ansari 2323
ऑ 2323
▁मुसलमानों 2323
▁പ്രമേഹ 2323
▁पुलिसकर्मियों 2322
▁कितनी 2321
▁42 2321
▁धरती 2321
വാദ 2320
ంపై 2320
▁निर्वाचन 2320
▁expect 2319
▁DMK 2319
▁उठाते 2318
▁अंसारी 2318
▁ఉంట 2318
ക്രിയ 2317
▁আকর্ষণ 2316
▁priority 2316
▁உண்மை 2316
▁گھوم 2316
▁Muzaffarnagar 2316
▁హో 2315
▁poverty 2314
▁resources 2314
▁ദുര 2314
▁குண 2314
▁تر 2314
▁urged 2313
ാധി 2313
▁hide 2312
▁కూర్చ 2312
▁ओडिशा 2312
▁silence 2311
▁winning 2311
കാരി 2311
▁വച്ച 2311
▁पीडि़त 2311
వర్ 2310
পাত 2309
রূপে 2309
▁കുറയ 2309
▁بھگ 2309
▁multi 2306
▁invited 2306
ംബ 2306
▁उग्र 2305
▁নদীর 2304
▁जनहित 2304
▁രീതി 2304
▁ഉറക്ക 2304
ఫ 2304
▁തെറ്റ 2303
দার 2302
▁जहर 2302
ുന്നതു 2302
▁overcome 2301
▁Highway 2301
▁ഡാ 2301
▁لو 2301
▁jump 2300
▁दफ्तर 2300
▁നന്നായി 2300
▁institution 2299
▁नक्सल 2299
▁ہوٹل 2299
▁देहरादून 2297
▁শুধুমাত্র 2296
▁అడవి 2296
▁ہمارے 2296
یات 2296
▁پڑتا 2296
▁కార్ 2295
▁RTI 2295
Sanjay 2295
▁सुपर 2292
ஸ்ட் 2292
▁ఉప 2292
▁शौचालय 2291
▁मौजूदगी 2290
▁स्मारक 2290
പ്പു 2290
స్థాన 2290
▁ধর্ম 2289
▁উঠ 2289
▁farmer 2289
▁सामग्री 2289
▁పీ 2289
▁AIIMS 2288
▁मनोज 2288
சோ 2288
▁48 2287
▁എളുപ്പ 2287
▁अटल 2286
സ്ഥല 2286
ക്സ് 2285
▁বস্তু 2284
▁bottle 2284
▁వేయ 2284
ത്തേ 2283
80 2283
▁பயிற்சி 2283
▁ব্যাপারে 2281
▁एम्स 2281
▁മൂന്ന് 2281
ാക്ക 2281
▁teenager 2280
▁ongoing 2280
▁വള 2280
ిస్తారు 2280
▁لگتی 2280
▁Lashkar 2280
হি 2279
▁Ayodhya 2279
▁दुश्मन 2279
▁പിടിക്ക 2279
▁consult 2278
▁प्रतिदिन 2278
▁دھو 2278
▁సో 2277
▁pension 2277
▁ماہ 2276
పం 2275
ग्राफ 2274
power 2273
▁महात्मा 2272
▁हमलों 2272
വാസ 2272
▁വന്നു 2272
▁போல் 2272
▁Reserve 2271
▁इलेक्ट्र 2270
▁آگے 2270
▁दंगों 2270
েল 2269
▁Ranjan 2269
▁प्रतिनिधि 2269
▁कंप्यूटर 2268
▁വിറ്റ 2268
മ്മാണ 2268
న్నాయి 2268
▁तारीफ 2267
▁தாக்க 2267
▁پل 2267
شن 2267
▁ദിവസവും 2266
ந 2266
ఎ 2266
▁নদী 2265
ட்ரா 2265
سٹر 2265
▁एकजुट 2265
ക്കാല 2264
▁لال 2264
▁পাখি 2263
▁दिमाग 2263
▁संस्कार 2262
گو 2262
▁बिक्री 2261
இ 2261
▁அளவில் 2260
விட்டது 2260
▁Dehradun 2259
▁विद्यालय 2259
▁പ്രായ 2259
ட்டின் 2259
▁disaster 2258
▁குறைவாக 2258
▁ضرور 2258
جر 2258
▁نکال 2258
ক্সি 2257
▁नारे 2257
▁பருவ 2257
▁Tata 2256
▁constitutional 2256
േണ്ടി 2256
వై 2256
▁سڑک 2255
▁wake 2254
▁मचा 2254
విధంగా 2254
पीएफ 2253
▁ऑटो 2253
▁रंजन 2253
▁పూర్తిగా 2253
▁जाएंगी 2253
▁elements 2252
▁kidney 2252
▁introduced 2251
▁మొదటి 2251
▁బె 2251
▁NGO 2250
وان 2250
▁পদ্ধতি 2249
▁যন্ত্র 2249
▁മാത്രമേ 2249
▁بنے 2249
▁सेवाओं 2248
India 2247
▁பழைய 2247
▁Shinde 2247
കൂട 2246
வார 2246
45 2246
കരമായ 2245
▁constituted 2243
▁अयोध्या 2243
▁सुबूत 2243
▁മറ്റു 2240
ന്മാര 2240
க்காக 2240
▁অঙ্গ 2239
▁Chha 2239
▁याचिकाकर्ता 2239
▁తీసుకు 2238
▁warning 2237
േണ്ടത് 2236
▁ഭൂമി 2236
▁defend 2235
ள்ள 2235
▁ఆకర్షణ 2235
▁தெரிய 2234
▁Bagh 2233
▁చేసి 2233
▁Superintendent 2233
▁liquor 2232
വസ്തുക്കള 2232
▁स्थायी 2231
▁ruckus 2231
▁Bedi 2230
▁సరి 2230
▁యా 2230
▁धमाके 2230
▁offered 2229
▁टाटा 2229
ద్ధ 2229
▁दाऊद 2229
▁marry 2227
मंडल 2227
ുമുണ്ട് 2227
▁സാധിക്കും 2227
ാണ 2227
▁ജനങ്ങള 2226
▁లభించ 2226
ছা 2225
▁council 2225
گاہ 2225
ാളി 2224
তম 2223
▁fishermen 2222
▁வன 2222
▁గల 2222
▁बतौर 2219
▁आतंक 2219
▁பால் 2219
নাথ 2218
▁तस्वीरें 2218
▁கழு 2218
లిక 2218
▁عمل 2218
▁दोषियों 2218
▁engine 2217
▁leak 2217
▁उल्लेख 2217
▁रिश्ते 2217
▁ചുവ 2217
டம் 2217
▁موجود 2217
▁struggle 2216
▁निश्चित 2216
ശ്യ 2216
▁সকল 2215
PTI 2215
▁शिंदे 2215
▁सम्मानित 2214
ഇ 2214
▁കിട്ടിയ 2214
▁Transport 2213
ുമെന്ന് 2213
▁ఓ 2213
్యం 2213
اف 2213
▁मुआवजा 2211
▁डूब 2210
ിരിക്കുന്നത് 2210
▁পদার্থ 2209
▁crack 2209
▁শহরের 2209
▁സുഖ 2209
▁జల 2209
▁बेदी 2208
▁ഫാ 2208
కై 2208
▁emergency 2207
▁गोयल 2207
▁संवाद 2206
▁receiving 2205
▁कितने 2205
▁അന 2205
ത്തിലൂടെ 2205
ంబ 2205
انا 2205
িতে 2204
▁cricket 2204
▁അത്ര 2204
▁கூற 2204
ুল 2203
▁difficulties 2203
▁Captain 2203
▁संवैधानिक 2203
▁संचालन 2202
▁தோட்ட 2202
اؤں 2202
▁Israel 2201
▁औद्योगिक 2201
▁মাত্র 2200
▁removal 2200
▁formula 2200
▁കളി 2200
▁ശിവ 2200
چھ 2200
▁Omar 2199
▁AIADMK 2199
▁Power 2198
▁श्रद्धालुओं 2198
▁अब्दुल्ला 2198
▁अधिसूचना 2198
▁regional 2197
ുമായി 2197
▁১৮ 2196
फॉर्म 2196
▁बहादुर 2196
ക്കൊണ്ട 2196
▁உட் 2195
▁planning 2194
▁డా 2194
▁snowfall 2193
▁convict 2192
▁generation 2190
▁अपेक्षा 2190
ഗോ 2190
స్త 2190
▁భూమి 2190
▁రూప 2190
▁সম্পূর্ণ 2189
▁Subhash 2189
ങ്ങി 2189
▁ठोस 2188
▁ഉള് 2188
ట్రా 2188
▁Social 2187
▁അനുഭവ 2187
மானது 2187
بو 2187
▁lawsuit 2187
ন্টি 2186
▁অভ 2186
▁tank 2185
▁certificate 2185
▁प्रकरण 2185
▁ഡെ 2185
▁رہنے 2185
▁বছরের 2184
▁holiday 2184
▁నిర్మించిన 2184
▁পরিমাণ 2183
▁অবস্থায় 2183
krishna 2183
▁तीसरी 2183
▁Amritsar 2182
वंश 2182
ڈر 2182
▁কাপ 2181
▁বিশাল 2181
▁ধন 2180
▁സ്വയം 2180
▁نو 2180
▁alcohol 2179
வதி 2179
▁স্ত্রী 2178
▁वैश्विक 2178
▁ATM 2178
▁எடுத்துக் 2177
وہ 2177
ন্দা 2176
▁সংগ্রহ 2176
▁झटका 2175
ബോ 2175
▁അദ്ദേഹത്ത 2175
▁controversial 2174
▁অত্যন্ত 2173
▁hidden 2173
▁expensive 2173
▁कृष्णा 2173
▁قابل 2173
▁കിട 2172
த்துக் 2172
▁जुर्माना 2172
മാരുടെ 2171
నది 2171
turn 2170
പോലെ 2170
▁अमृतसर 2169
ാസ് 2168
▁JD 2168
▁निर्भर 2167
യാക 2167
ച്ചു 2167
ులను 2167
▁اتر 2167
▁घोटाला 2167
▁என்றால் 2166
யர் 2166
ിച്ചത് 2165
▁டெ 2165
ছিলেন 2164
▁stock 2164
रोधी 2164
▁minority 2164
▁মার 2163
▁lift 2163
▁interrogation 2163
▁വീട 2163
▁وزن 2163
▁ধার 2162
▁सौदे 2162
▁ضلع 2162
▁अपमान 2161
നാണ് 2161
▁লু 2160
▁గొ 2159
▁Bombay 2158
▁administrative 2158
ലും 2158
▁सुभाष 2157
▁എന്തിന 2157
பட 2157
▁మహిళల 2156
▁हेड 2155
▁गिरावट 2155
▁അളവ് 2155
▁Prashant 2155
▁रिश्वत 2155
▁जानिए 2154
▁യൂ 2154
▁കുഞ്ഞ 2154
ரெ 2154
▁حصے 2154
▁Sudhir 2153
▁डीजल 2152
▁निदेशालय 2152
പര 2152
▁സ്റ്റ 2152
யுடன் 2152
రాయి 2152
▁دستیاب 2152
▁विस्तृत 2151
▁रिहाई 2151
▁ഡ 2151
▁बाबू 2150
▁शेयर 2150
▁നൂറ 2150
▁पहुंचाया 2149
मणि 2148
▁निंदा 2148
లై 2148
▁Srishti 2148
ঠি 2147
▁ലഭ്യമ 2147
▁நாட் 2147
▁బలహీన 2147
اج 2147
▁permanent 2146
▁చేస్తారు 2146
▁बुजुर्ग 2145
▁मुफ्त 2145
▁ललित 2145
▁ब्योरा 2145
▁घटनाएं 2145
ിലുള്ള 2144
▁கிலோ 2144
க்கல் 2143
ుడైన 2143
മാക 2142
▁চেয়ে 2141
▁इटली 2141
ണിയ 2141
െണ്ണ 2141
▁ல 2141
▁انھیں 2141
▁परिजन 2140
▁अग्नि 2140
▁science 2139
▁മരണ 2139
ویں 2139
ടെ 2138
▁இவ்வி 2138
▁courage 2137
▁कब्जे 2137
▁శివ 2137
▁ایس 2137
कर्मियों 2136
▁را 2136
▁culprit 2136
▁mining 2135
▁সৃষ্টি 2133
▁urban 2133
ক্ক 2132
ন্ডার 2132
▁Another 2132
▁import 2132
▁ഏത 2132
▁കല 2131
രിക്ക 2130
▁चालू 2129
▁नतीजे 2129
▁பற்றி 2129
▁যুক্ত 2128
Jagran 2128
▁aspect 2127
വള 2126
▁ప్రాంతం 2126
▁अनशन 2126
▁নিকট 2125
▁Padma 2125
▁வெளியே 2125
▁Directorate 2124
▁கட்டி 2124
▁அவ 2124
▁stranded 2124
▁ماں 2122
▁Dikshit 2121
బె 2121
bility 2120
▁पथराव 2120
▁আক্রান্ত 2119
▁ശ്രദ്ധ 2119
▁എന്നീ 2119
▁Referr 2116
সী 2115
▁surrender 2115
▁लटक 2115
اری 2115
▁SSP 2115
▁Given 2114
▁Yatra 2114
▁కే 2114
▁శిశు 2114
▁सर्जरी 2113
పీ 2113
▁skill 2112
▁धूप 2112
▁چھوٹے 2112
▁box 2111
▁इकाई 2110
ട്ര 2110
্রো 2109
risht 2109
▁जागरूक 2108
▁तबाह 2108
പ്രയോഗ 2108
▁परंतु 2107
▁সবুজ 2106
شر 2106
▁बेंगलुरु 2105
స్తా 2105
▁चूंकि 2105
▁স্থানে 2104
▁विद्या 2104
▁खनन 2104
▁പ്രശ്നങ്ങള 2103
आइएम 2103
▁करेंगी 2102
▁ശ്രദ്ധിക്ക 2102
⁄ 2102
▁एसएसपी 2101
▁VK 2101
▁उक्त 2100
▁ഉണ്ടായിരുന്ന 2100
▁കഴിച്ച 2099
دھا 2099
▁finance 2099
▁چل 2098
▁essential 2097
▁जबरदस्त 2097
▁نزدیک 2097
▁गुस्सा 2096
▁அமைந்துள்ள 2096
కారం 2096
▁नवीन 2095
▁भटक 2094
▁Joint 2093
▁Border 2093
ుట 2093
▁SIT 2093
▁சேர்த்து 2092
▁இல்லாமல் 2092
▁நகரம் 2092
▁آب 2092
▁प्रत्याशियों 2092
▁चपेट 2091
▁ടെ 2091
▁पुलिसकर्मी 2091
▁closure 2090
▁केदारनाथ 2090
▁بہتر 2090
▁बदमाश 2090
▁پانچ 2089
▁worried 2088
| 2088
विमर्श 2088
▁ഹൈ 2088
▁یعنی 2088
نگی 2088
▁enemy 2087
▁violent 2087
शंकर 2087
▁Sukh 2086
▁पवित्र 2086
▁Inspector 2086
▁आरएसएस 2086
▁കെ 2085
ക്കുള്ള 2085
▁Giri 2084
▁ఇలా 2084
▁Sector 2083
▁ముఖ్య 2083
▁دیتا 2083
പു 2082
▁గురించి 2082
▁చెందిన 2082
▁गैंगरेप 2082
▁প্রকৃতি 2081
▁corporation 2081
மையான 2081
▁बीएस 2081
বী 2080
▁പ്രയോജന 2080
▁വിട 2080
▁Madhu 2079
▁Irani 2079
▁membership 2079
▁34 2079
▁कालेज 2079
▁स्टार 2079
ఫీ 2079
▁इधर 2078
▁ക്ഷീണ 2078
ഷ്ഠ 2078
ுவத 2078
▁வல 2078
▁విషయం 2078
িয়ার 2077
शासित 2077
ുന്നതിനും 2077
▁చేసిన 2077
▁memory 2076
▁निराश 2076
▁எடை 2076
▁దేవాలయం 2076
▁جیسی 2076
▁मसौद 2076
অ 2075
▁সম্ভব 2075
▁Company 2075
▁சரியான 2075
▁கிடைத்த 2075
▁கட்டிட 2075
▁بیٹھ 2075
▁نم 2075
▁যেকোন 2074
▁جر 2074
െടുത്ത 2073
▁பெயர 2073
▁Dainik 2073
▁Bhupendra 2072
▁शेष 2072
▁జి 2072
দ্বার 2071
▁Bench 2071
▁Obama 2071
িকা 2070
খি 2070
▁IPS 2070
▁छुट्टी 2070
▁കേള 2070
▁probably 2069
▁దూ 2069
▁పేరుతో 2068
ভার 2067
▁برس 2067
▁severe 2066
▁വിശ്രമ 2066
▁جاسکتا 2066
▁encourage 2065
▁അയ 2065
▁پتہ 2065
▁പേടി 2064
▁eliminate 2062
▁காரணம் 2062
▁দেশের 2061
▁చూ 2061
▁तूफान 2060
▁മൃഗ 2060
▁ہوگا 2060
ண்ண 2059
▁எரி 2058
▁ఎలా 2058
దేవి 2058
▁entry 2057
▁probe 2057
▁Kedarnath 2057
▁இருந்த 2057
రిక 2057
▁हस्तक्षेप 2056
▁നഷ്ട 2056
▁முன் 2056
கர் 2056
▁सेंट्रल 2055
▁লো 2054
யைப் 2054
▁ছাড়াও 2053
▁व्यवसाय 2053
▁पृथ्वी 2053
▁اکثر 2053
▁planned 2052
▁salary 2052
▁यूनिट 2052
▁fraud 2052
▁Professor 2051
▁നിര 2051
▁உள்ளன 2051
సె 2051
▁Explain 2051
▁particular 2049
లేదు 2049
▁एटीएम 2049
▁Vadra 2049
▁respective 2048
▁behavior 2047
▁लिखित 2047
▁நீண்ட 2047
▁ছেড়ে 2046
▁एनडीए 2046
▁खुर्शीद 2046
▁establishment 2045
▁ऐलान 2045
▁ఎక్కడ 2045
ക്ഷേത്ര 2044
▁insurance 2043
కాల 2043
▁লম্বা 2042
▁বিশ্ব 2042
▁ദു 2042
▁दावे 2041
▁Science 2040
▁बर्बाद 2040
▁మళ్ళీ 2040
کے 2040
▁equipment 2039
▁Mission 2039
▁অনুযায়ী 2038
িন 2038
▁आकलन 2038
▁ദാ 2038
▁task 2037
▁अनुसंधान 2037
లూ 2037
▁பகுதியில் 2036
ুক 2035
▁रोजाना 2035
▁വട 2035
▁সাধারণত 2034
▁tiger 2034
▁జై 2034
▁سامنے 2033
▁bike 2032
▁रिसर्च 2032
▁मुद्रा 2032
▁अलर्ट 2032
തോ 2032
▁జీవిత 2032
▁கல 2031
ட்டில் 2031
യിലുള്ള 2030
మం 2030
▁دیتے 2030
চ্ছিল 2029
ിങ് 2029
▁ഉണ്ടാവ 2029
தான 2029
▁छेड़ 2028
▁പറ 2028
ഞ 2028
▁Rural 2027
▁महानगर 2027
ങ്ങളാണ് 2027
ഗ്രഹ 2027
▁பார்வை 2027
▁राकांपा 2027
▁দুর্বল 2026
▁بخار 2026
▁बुलाई 2026
▁mutual 2025
▁బు 2025
▁কার্ 2024
فی 2024
▁स्पेक्ट्रम 2024
▁দ্বিতীয় 2023
▁సై 2023
▁കുടുംബ 2022
▁సంఖ్య 2022
▁تن 2022
▁assassin 2021
▁उत्पीड़न 2021
▁মতে 2020
▁scale 2020
▁upset 2020
▁കിട്ടുന്ന 2020
லர் 2020
▁அழுத்த 2020
▁সপ্তাহ 2019
▁অসাধারণ 2019
ின்றன 2019
▁মাংস 2018
▁പീ 2018
▁నె 2017
▁ہندوستان 2017
▁نس 2017
▁Jyoti 2016
ற்க 2016
▁தேச 2016
▁వ్యాధుల 2016
▁این 2016
▁ओबामा 2016
▁fog 2015
▁वीके 2015
▁bilateral 2014
▁शताब्दी 2014
▁मध्यप्रदेश 2014
கின்றனர் 2014
▁meantime 2014
▁स्वच्छता 2013
▁സൈ 2013
▁رہتے 2013
▁پہنچا 2013
جو 2013
▁পাঁচ 2012
▁व्यक्तिगत 2012
▁ஏற்படுத்த 2012
▁ইন 2011
പ്പെടുത്ത 2011
▁വെച്ച 2011
▁ఉండాలి 2011
▁తెల్ల 2011
▁तरीका 2010
▁मुहम्मद 2010
താര 2010
మాన 2010
▁मजिस्ट्रेट 2010
▁प्रसारण 2009
▁तिब्बत 2009
▁அடை 2009
کہ 2009
▁নগর 2008
▁roof 2008
▁ढेर 2008
▁वाड्रा 2008
▁द्विपक्षीय 2007
▁सेवानिवृत्त 2007
▁৩০ 2006
▁twenty 2005
▁পাশে 2004
्हीं 2004
भूमि 2004
▁എന്നും 2004
▁விழு 2003
▁پھول 2003
▁submit 2003
▁স্ক 2002
▁exposed 2002
▁उदय 2002
▁लांच 2002
▁bought 2001
▁deceased 2001
▁தனி 2000
▁పాల 2000
▁welfare 1999
▁spite 1999
▁स्कीम 1999
దైన 1999
▁مکمل 1999
▁beaten 1999
▁Sunil 1999
▁सिब्बल 1999
▁യു 1998
▁मांझी 1998
▁understood 1997
▁பெயர் 1997
▁ইউ 1995
▁Tibet 1995
▁बर्फबारी 1995
சே 1995
▁کنارے 1995
▁پورا 1995
▁profession 1994
▁existing 1994
▁समाचार 1993
▁எண்ணெய் 1993
▁Arabia 1992
▁एंटी 1991
ൌ 1991
▁अभ्यास 1990
▁ഇതിനു 1990
▁হাই 1989
▁congratulate 1989
▁अटक 1989
▁लंदन 1989
▁counsel 1988
▁राजेंद्र 1988
▁ഉത്തര 1988
ങ്ങോട്ട 1988
పె 1988
లోనే 1988
▁سنگ 1987
▁Second 1986
▁saint 1986
alit 1986
▁दरवाजा 1986
▁சிறப்பான 1986
▁ঝা 1985
▁airline 1985
വെ 1985
▁acquisition 1984
▁گھنٹے 1984
▁शुक्ला 1984
ശന 1983
க்கள் 1983
▁অল্প 1982
▁ആയ 1982
90 1982
▁వాతావరణం 1982
▁பிடித்த 1981
▁మహిళ 1981
▁যদিও 1980
▁নামক 1980
▁मंजिल 1980
கின்ற 1980
▁قوت 1980
சூ 1979
▁گن 1978
ష్ట 1977
▁بارے 1977
▁مرکز 1977
▁पिटाई 1977
▁weapon 1976
▁Western 1976
▁Ghulam 1976
▁ஆர் 1976
▁பிரி 1976
▁आवंटित 1976
▁सुनील 1976
▁assets 1975
▁Kapil 1975
▁மத 1975
▁subsidy 1974
ministerial 1974
▁കുറയ്ക്ക 1974
▁நட 1974
▁நெ 1974
▁کیوں 1974
▁Sibal 1974
▁technique 1973
▁അഭിപ്രായ 1973
▁అతని 1973
▁തിരിച്ചു 1972
াব 1971
▁burden 1971
▁booth 1971
▁بنی 1971
mortem 1971
▁RBI 1971
▁বানানো 1970
رب 1970
▁movie 1969
▁विफल 1969
▁पूर्वोत्तर 1969
േഷന് 1969
▁absconding 1969
▁spectrum 1968
▁France 1968
▁बाइक 1968
పూ 1968
▁ఢిల్లీ 1968
▁పర్యటన 1968
▁सालाना 1967
▁डाक्टर 1966
▁बहाल 1965
▁ബല 1965
▁मुहर 1965
▁repeatedly 1964
పర్ 1964
▁donation 1963
▁package 1963
▁प्रत्यक्ष 1963
▁निकाय 1963
▁Student 1962
▁succeed 1962
പാട 1962
തന്നെ 1962
త్వం 1962
کھا 1962
িয়াম 1961
▁हिंसक 1961
ജാ 1961
▁হার 1960
▁இந்திய 1960
▁تمام 1960
▁संकल्प 1959
▁violate 1959
▁স্টেশন 1957
▁Agarwal 1957
▁Municipal 1957
▁प्रभु 1957
▁പെണ് 1957
▁ജയ 1956
▁മാറി 1955
▁smart 1954
▁नीतियों 1954
ஸ 1953
▁பயன 1952
▁গ্ 1951
▁university 1951
മാന് 1951
▁जयंती 1950
▁പുറത്തു 1950
شار 1950
▁उपचुनाव 1950
▁सावधान 1949
▁Bhu 1949
▁দশ 1948
স্ক 1948
క్షణ 1948
▁महबूबा 1948
রাই 1947
▁Principal 1947
▁খুঁজে 1946
▁लापरवाही 1946
▁বৈ 1945
▁soldier 1945
▁delegation 1945
▁supremo 1945
▁Netaji 1944
▁संजीव 1944
க்ஸ் 1944
యే 1944
گل 1944
▁therefore 1943
▁कंट्रोल 1943
▁ஆராய்ச்சி 1943
سم 1943
▁मुकदमे 1943
▁pregnant 1942
shankar 1942
ఘ 1942
▁ఇష్ట 1942
▁कपिल 1941
ంప 1941
▁ملتی 1941
▁കൊള്ള 1940
▁صدی 1940
भूषण 1939
▁യുദ്ധ 1939
க்கூட 1939
▁عورت 1939
▁Saeed 1939
▁Saudi 1938
▁വ്യ 1938
വഴി 1938
ுள்ள 1938
▁மாலை 1938
▁مجھے 1938
▁ساحل 1938
▁স্প 1937
▁saving 1937
▁extended 1937
▁Niranjan 1937
கார் 1937
ইন 1936
ടുത്ത 1936
▁assistance 1935
േറ്റ് 1935
▁பாதிக்க 1935
▁బ్ర 1935
▁celebration 1934
▁Limited 1934
▁हमलावर 1934
▁फ्लाइट 1934
▁സംഭവ 1934
▁വരും 1934
▁CAG 1934
▁completion 1933
▁wedding 1933
▁വിശ്വസിക്ക 1933
▁campus 1932
▁भट्ट 1932
യിലേക്ക് 1932
▁मुहिम 1932
▁২০ 1931
▁सिलसिला 1931
▁ഫോ 1931
సర 1931
▁source 1930
▁Yogi 1930
स्वामी 1930
▁फौज 1930
▁సాధారణంగా 1930
▁मंजूर 1930
▁recognize 1929
▁മുടി 1929
யைக் 1929
▁इंसान 1928
▁ஹி 1928
▁వేరు 1928
▁সাই 1927
▁नदियों 1927
▁सुप्रीमकोर्ट 1927
▁प्राइवेट 1926
ോട 1926
চু 1924
▁দেবী 1924
ஞ்சி 1924
60 1924
▁harassment 1924
▁आइएस 1924
▁থ 1923
ডা 1923
▁కష్ట 1923
▁हुसैन 1922
த்தைப் 1922
▁विरुद्ध 1921
▁ماحول 1921
▁सचिन 1921
▁Lakh 1920
▁honest 1920
▁बृहस्पतिवार 1920
▁మార్పు 1920
▁manager 1919
യ്ക്കും 1919
▁Manjhi 1919
▁studies 1918
▁नतीजा 1918
▁प्रौद्योगिकी 1918
ിനുവേണ്ടി 1918
▁അതിനു 1918
గ్గు 1918
▁abuse 1918
വു 1917
▁കാര്യങ്ങള് 1917
▁नारेबाजी 1916
ങ്ങളിലും 1916
▁رکھنے 1916
▁رس 1916
ھر 1916
▁পূর্ব 1915
राष्ट्रीय 1915
ائے 1915
▁ড্র 1914
▁কাল 1914
▁সহ 1914
ബു 1914
ஆ 1914
▁గుండె 1914
হে 1913
▁wheat 1913
▁assess 1913
▁सच्चाई 1913
▁मोर्चे 1913
▁Jadhav 1912
▁सियासत 1912
কৃতি 1911
तांत्रिक 1911
▁सकारात्मक 1911
മാക്ക 1911
▁വസ്ത്ര 1911
▁ചരിത്ര 1911
▁అంటే 1911
▁Khurshid 1911
▁अमेठी 1911
▁Nirmal 1910
▁क्लीन 1910
ঙ্কা 1909
▁দিক 1909
▁shortage 1909
▁Bollywood 1909
▁तलब 1909
▁जाधव 1909
▁ప్రముఖ 1909
ప్రదేశ 1909
▁ٹھہر 1909
ধ্য 1908
▁രാ 1908
▁ప్రసిద్ధి 1908
▁آتا 1908
▁عہد 1908
പ്പോൾ 1908
▁complex 1906
▁कवायद 1906
প্ত 1905
▁प्लान 1905
▁മാംസ 1905
▁Venkaiah 1905
த்தா 1904
ڈو 1904
دے 1904
ء 1904
▁അവർ 1904
▁competition 1903
த்தினால் 1903
▁छापेमारी 1903
▁digital 1902
▁அருகே 1902
▁hunger 1901
▁fix 1901
▁പിന്നീട് 1901
பூர் 1901
▁చల్ల 1901
▁ওঠে 1900
▁अंतर्गत 1900
കൂടി 1900
▁উদ 1898
▁clash 1898
▁Amethi 1897
▁পাতা 1896
ുകയോ 1896
▁സൗകര്യ 1896
ഞ്ച് 1896
രെ 1896
కల్ 1896
▁দৃষ্টি 1893
▁slip 1893
▁দ্রুত 1893
▁Gorakhpur 1893
േറിയ 1893
ിക്കപ്പെട്ട 1893
మార్ 1893
▁تکلیف 1892
▁रविशंकर 1892
▁আল 1891
▁দো 1891
▁tremendous 1891
▁سفید 1891
▁గ్రామ 1890
▁بڑھا 1890
▁साइबर 1889
▁నియమ 1889
▁अभियुक्त 1889
▁Trust 1888
▁अध्यादेश 1888
▁نیند 1888
▁उजागर 1887
▁सर्वेक्षण 1886
▁கூட்ட 1886
టే 1886
▁गोरखपुर 1884
ങ്ങനെ 1884
▁uncle 1883
▁cloud 1883
दूसरे 1883
స్తే 1883
▁മൂന്നു 1882
▁சென்று 1882
▁बेंगलूर 1881
▁തുടങ്ങി 1881
▁గాయ 1881
▁కాల 1881
▁relation 1880
ড়ানো 1880
▁మానసిక 1880
▁ٹھنڈ 1880
▁sensation 1879
▁Shivraj 1878
आउट 1878
യാള 1878
▁ار 1878
▁संचालित 1877
▁riot 1877
▁বাড়ি 1876
▁Recently 1876
▁സാധ്യത 1876
▁ഉറപ്പ 1876
త్రి 1876
وڈ 1876
▁revenue 1875
கின்றன 1875
னியா 1875
ன்ஸ் 1875
హి 1875
▁اچھا 1875
▁తీవ్ర 1874
▁spokesperson 1874
▁सुविधाएं 1874
ন্ 1873
▁municipal 1873
▁टॉप 1873
▁മാനസിക 1873
▁അല് 1873
▁روزانہ 1873
▁Ambedkar 1873
▁empty 1872
▁province 1872
▁தங்கள் 1872
▁ஆனந்த 1872
▁ஸ்ரீ 1872
पोषण 1871
▁summoned 1871
▁Amitabh 1870
▁प्रदीप 1870
പ്രദേശ 1870
رس 1870
▁ق 1869
▁strategic 1868
▁ലൈ 1868
ശാസ്ത്ര 1868
ంధ 1868
▁आह्वान 1868
▁যারা 1867
▁unknown 1867
▁Bhagwat 1867
▁गुणवत्ता 1867
த்துடன் 1867
లుగు 1867
▁شامل 1867
▁scope 1866
▁confident 1866
▁ചെയ്യും 1865
▁विनोद 1864
▁शिवराज 1864
▁పురాతన 1864
▁یاد 1864
▁حم 1864
▁arrive 1863
▁நரம்பு 1863
▁draw 1862
களிலிருந்து 1862
▁పదార్థాల 1862
గడ్డ 1862
▁سل 1862
▁प्रस्तुत 1861
▁सपना 1861
নু 1860
▁বুঝতে 1860
▁elect 1860
▁Tourism 1860
▁கட்ட 1860
▁properties 1859
▁শ্রী 1859
টিকে 1858
▁पैकेज 1858
▁criticized 1858
▁খেলে 1857
▁सिपाही 1857
▁ٹو 1857
▁Agriculture 1857
▁PDP 1857
▁आइएसआइ 1857
ম্ভ 1856
▁episode 1856
▁copy 1856
▁इंस्पेक्टर 1856
▁transferred 1855
▁दिलाया 1855
ావ 1855
వాస 1854
▁రోడ్డు 1854
▁grain 1853
▁medium 1853
▁സന്ദര് 1853
▁Technology 1851
േശ്വര 1851
▁సమ 1851
▁संयोजक 1851
▁Nawaz 1851
▁panic 1850
▁अड्डे 1850
▁സ്റ്റേഷന 1850
▁पांडेय 1850
নিক 1848
▁Goyal 1848
▁অর্ 1847
ফা 1847
▁कटौती 1847
▁மேலே 1847
▁దారి 1847
▁Mahesh 1846
▁पैमाने 1846
లేని 1846
▁Executive 1845
▁பழமையான 1845
▁എന്തു 1844
▁چا 1844
व्रत 1843
▁primary 1842
▁आंतरिक 1842
▁विवेक 1842
▁சர்க்கரை 1842
کڑ 1842
യല്ല 1841
▁భూ 1841
▁location 1840
▁എപ്പോഴും 1840
▁খোলা 1839
▁Australia 1839
▁நாள் 1839
▁गोलाबारी 1839
▁Amarnath 1838
▁consent 1838
ங்கை 1838
▁پورے 1838
▁मतभेद 1837
▁جز 1837
পথ 1836
▁fought 1836
▁सर्जिकल 1836
ுவதில்லை 1836
వుల 1836
▁Doctor 1835
▁ছু 1835
▁massacre 1835
▁ഒരിക്കലും 1834
▁మొదల 1834
▁reject 1833
▁तलवार 1833
▁இரவு 1833
▁पीडीपी 1833
▁चार्जशीट 1832
▁Pathankot 1831
▁गतिविधि 1831
மெ 1831
▁പട 1830
ുന്നുണ്ട് 1829
▁ജി 1829
தற்காக 1829
▁வெளியேற 1829
லும் 1829
فر 1829
▁Mohit 1829
▁क्राइम 1829
▁factory 1828
▁அமைப்பு 1828
یے 1828
▁issuing 1828
▁১২ 1827
▁agriculture 1827
▁भंडार 1827
▁पठानकोट 1826
▁పెరిగి 1826
▁اے 1826
▁Vinod 1826
▁Republic 1825
గో 1825
▁খাদ্য 1824
▁agitation 1824
▁রাম 1824
നിര 1824
பதி 1824
▁खातों 1824
▁contribution 1823
▁sacrifice 1823
க்கான 1823
▁বিস্তৃত 1822
গার 1821
▁Scheme 1821
▁agricultural 1821
▁दुर्गा 1821
▁प्लांट 1821
▁வயத 1820
▁క్షేత్ర 1820
▁క్రీ 1820
▁প্রা 1819
▁করেছিল 1819
▁फायदे 1819
ചി 1819
▁Vikas 1818
▁बरेली 1818
ായിരിക്ക 1818
ళ్ 1818
▁ক্ষমতা 1817
▁fifth 1817
रीबन 1817
▁பொருட்களை 1817
▁नियंत्रित 1816
▁बुनियाद 1816
▁சூழ 1816
▁அனுபவ 1816
▁دوسری 1816
▁आदिवासी 1815
▁കെട്ടിട 1815
▁शीघ्र 1814
পদ 1813
শিয়া 1813
▁আরো 1813
▁Mathura 1813
▁दिलचस्प 1813
▁മുഖ്യ 1812
▁தொடங்க 1812
ন্য 1811
▁কাটা 1810
▁अमिताभ 1810
ست 1810
▁മരിച്ച 1809
▁பால 1809
▁आइएएस 1809
▁शीला 1808
സു 1808
▁கொடு 1808
▁பரு 1808
డూ 1808
پٹ 1808
▁سیر 1808
▁রঙের 1807
▁Major 1807
▁garbage 1807
▁दखल 1807
▁मृत 1807
▁खंडपीठ 1807
▁संपादक 1807
ീകര 1807
▁செய்யப்பட்ட 1807
చో 1807
▁کش 1807
▁রেল 1806
▁பெரும்பாலும் 1806
▁دے 1806
▁मथुरा 1805
▁भूटान 1805
ശ്ച 1805
றும் 1805
▁acres 1804
▁संदर्भ 1804
▁अमरनाथ 1804
▁அழி 1804
దులు 1804
▁در 1804
▁raj 1804
etween 1803
▁ടോ 1803
▁آتی 1803
▁CCTV 1803
ndra 1803
ுகின்ற 1802
ினார் 1802
▁کہیں 1802
▁روپ 1802
▁طرز 1802
▁cultural 1801
▁மட்டும் 1801
▁ال 1801
▁Intelligence 1800
▁ashram 1800
ഗന്ധ 1800
▁চাপ 1799
▁Internet 1799
▁कैप्टन 1799
▁നേട 1799
▁కీ 1799
▁दिग्गज 1799
▁چھوٹی 1798
script 1797
▁stood 1797
▁वेंकैया 1797
▁প্রয়োগ 1796
▁Bhutan 1796
▁തവണ 1796
▁ആനന്ദ 1796
▁தாய் 1796
▁spoil 1795
▁currency 1795
▁கல்ல 1795
▁సూ 1795
▁आंकड़ा 1795
▁দক্ষিণ 1794
▁شاہ 1793
▁Yeddyurappa 1793
ഭവ 1792
▁ఎంత 1792
▁నడు 1791
▁اج 1791
▁detained 1790
▁preparation 1789
▁சங்க 1789
▁సర్ 1788
निर्देश 1787
شا 1787
▁عمارت 1787
▁നടത്തുന്ന 1786
பை 1786
ণের 1785
ப்பட்டது 1785
কৃত 1784
▁enthusiasm 1784
▁सांस्कृतिक 1784
▁जन्मदिन 1784
▁দরজা 1783
ট্ট 1783
▁hanged 1783
▁Afzal 1783
▁നാല് 1783
▁പിടിച്ച 1783
▁നമ്മൾ 1783
ফু 1782
েন্ট 1782
▁ജൂ 1782
പരമായ 1782
ندر 1782
▁ലേ 1781
ദാന 1781
▁स्मार्ट 1781
লাই 1780
മുണ്ടാക 1780
▁వచ్చిన 1780
▁ملی 1780
▁ভারতের 1779
▁survive 1779
രീ 1779
த்தைக் 1779
▁Follow 1778
▁editor 1778
▁डाटा 1778
▁মানুষের 1777
▁organize 1777
▁বিকাশ 1776
স্টার 1776
▁registration 1776
▁छिपा 1776
▁पोस्टमार्टम 1776
▁auction 1775
▁मछुआरों 1775
▁క్రింద 1775
▁ఉండే 1775
رت 1775
▁Shashi 1775
▁সাদা 1774
▁क्लास 1774
▁जूझ 1774
യിലാണ് 1774
▁உடன 1774
▁வரும் 1774
▁प्रेरित 1773
▁மூலம் 1773
ையில் 1773
▁reaction 1772
▁bungalow 1772
ധ്യ 1772
▁സ്ഥാന 1772
▁ഞങ്ങൾ 1772
▁বিষয় 1771
▁বয়সে 1771
▁किराया 1771
തെന്ന് 1771
ற்றி 1771
▁ملتا 1771
▁রক্ষা 1770
▁ব্য 1770
▁দ্বীপ 1770
▁भीषण 1770
▁हादसा 1770
▁శ్రీ 1770
▁راستہ 1770
▁opposing 1770
▁दंगा 1770
▁பெற்ற 1769
▁వెంటనే 1769
▁കിടക്കുന്ന 1768
రియ 1768
▁अकाउंट 1768
▁noise 1767
▁Pratibha 1767
ঁড় 1766
▁పెంచ 1766
▁পাই 1765
▁দিল্লী 1765
▁गहरी 1765
▁जवाहर 1765
▁सचिवालय 1764
▁दंगे 1764
▁தில்லி 1764
പതി 1763
▁శి 1763
▁Sing 1763
▁उन्हीं 1762
▁பெண்கள் 1762
▁స్నాన 1762
াইট 1761
▁ISRO 1761
▁ఇన్ 1760
▁herself 1759
▁Chowk 1759
▁इंस्टीट्यूट 1759
▁எண்ணிக்கை 1759
▁access 1758
▁vacant 1758
ష్ఠ 1758
▁எலும்பு 1757
ங்கள 1757
▁సరైన 1757
▁मंशा 1757
▁LK 1757
▁പ്രോ 1756
▁லே 1755
70 1755
▁శిఖర 1755
জো 1754
ലെ 1754
പേ 1754
తూ 1754
گن 1754
▁guidelines 1754
ద్దు 1753
ম্বা 1752
▁எல்லை 1752
স্তা 1751
▁Lieutenant 1751
▁نیل 1751
▁surgical 1750
▁insult 1749
▁टक्कर 1749
ിനുള്ള 1749
ఫి 1749
▁సహాయం 1749
▁নিয়মিত 1748
ষা 1748
▁سین 1748
▁स्ट्राइक 1748
▁വലുത 1747
ஷி 1747
వచ్చును 1747
ాలయం 1747
▁सीसीटीवी 1747
വ്യ 1746
▁ఉండటం 1746
▁شام 1746
▁ജീവന 1745
▁നന്ദി 1745
▁புகழ் 1745
ితే 1745
জু 1744
▁indicated 1744
▁अगुवाई 1744
വാഹ 1744
ിനി 1744
▁threatening 1743
▁जोरदार 1743
प्रकाश 1743
▁आर्मी 1743
கொள்ள 1743
ப்பில் 1743
▁காடு 1743
▁లక్షణాలు 1743
▁అయిన 1743
▁Article 1743
▁demonstration 1742
▁అన్న 1742
▁दूरसंचार 1742
▁involvement 1741
രിച്ച 1741
▁அல் 1741
▁संज्ञान 1741
ப்படுத்த 1740
▁कूटनीति 1739
ക്രമ 1739
▁द्रमुक 1739
▁Guwahati 1738
▁बॉलीवुड 1738
▁Environment 1737
▁जनसभा 1737
▁आइआइटी 1737
▁Jodhpur 1736
▁கடின 1736
▁காட்ட 1736
▁ఒత్తిడి 1736
న్స్ 1735
కాలంలో 1735
▁संपन्न 1734
▁ఆలయ 1734
▁রাখতে 1733
▁সংক্রমণ 1733
▁tunnel 1733
▁পরিবেশ 1733
▁मेहनत 1733
ോടു 1733
സാഹ 1733
▁প্রবেশ 1732
ட்டர் 1732
▁प्रवर्तन 1730
▁ஜா 1730
ாலய 1730
▁friendship 1729
▁warrant 1729
▁authorities 1728
▁तिथि 1728
ப்பாக 1728
▁மாற்ற 1728
చిన 1728
tul 1728
▁রাজ্য 1727
▁एजेंट 1726
▁కనిపిస్తుంది 1726
▁قائم 1726
▁श्रद्धांजलि 1725
▁ഇല 1725
జు 1725
▁Mehbooba 1724
▁হন 1723
▁রূপ 1723
▁Sheikh 1723
▁dropped 1723
▁నో 1723
▁recruitment 1723
▁दावेदार 1723
▁डेस्क 1722
▁टैंक 1722
▁ഭരണ 1722
▁அவ்வ 1722
رے 1722
▁আব 1721
▁വ്യായാമ 1721
▁பாதிக்கப்பட்ட 1721
ധാരണ 1720
▁തന്നെയാണ് 1720
▁பிற 1720
▁ദി 1719
▁Schedule 1719
▁रैंक 1719
▁infrastructure 1718
▁മൂന്ന 1718
పోయిన 1718
▁Crime 1718
▁নিউ 1717
▁விட்டு 1715
বর 1714
▁சே 1713
▁सर्वोच्च 1712
ద్ది 1712
▁റോഡ 1711
▁മറ്റ് 1711
▁వ్యక్తుల 1711
▁Antony 1711
▁FDI 1711
স্টি 1710
▁Sultan 1710
ിട്ടും 1710
▁ট্রে 1709
▁അച്ഛന 1709
▁சை 1709
▁நடந்த 1709
▁సీ 1709
▁শিকার 1708
গি 1708
▁Radha 1708
▁गुजार 1708
▁ड्यूटी 1708
പ്പെടുന്നത് 1708
▁ആയിരുന്നു 1708
▁తె 1708
▁چلا 1708
بل 1707
▁Describ 1707
▁sample 1706
▁अफजल 1706
▁restaurant 1705
▁அதற்கு 1705
▁సంబంధించిన 1705
▁ऊंचाई 1705
▁अनुसूचित 1705
▁दुरुपयोग 1704
▁వీటి 1704
▁ఆర్ 1704
▁خ 1704
▁disclosure 1704
▁इजरायल 1704
▁কোষ 1703
▁character 1703
▁जोधपुर 1703
മര 1702
▁టె 1702
چر 1702
▁मौलाना 1701
రూప 1701
▁कार्यकारिणी 1700
▁മിക്ക 1700
▁ആയി 1700
▁கட்டப்பட்ட 1700
▁తెలియ 1700
▁profit 1699
▁അപ്പ 1699
▁ഒരാള 1699
ளா 1699
াস 1698
▁ബസ് 1698
▁ஆக் 1698
▁తెలి 1697
▁جانور 1697
Congress 1697
▁शून्य 1696
ഷന് 1696
▁பொருட்கள் 1696
▁কল 1695
▁heritage 1695
चंद्र 1695
ின்றனர் 1695
కల 1695
▁एंटनी 1695
▁ভারতীয় 1694
▁Britain 1694
▁परिस्थितियों 1694
త్య 1694
▁دست 1694
▁Google 1694
▁सहारे 1693
▁ഞങ്ങളുടെ 1693
வர்களுக்கு 1693
▁منٹ 1693
ാനായി 1692
▁സ്വാധീന 1692
▁அதிகரித்த 1692
▁காணப்படுகின்றன 1692
త్తి 1691
▁محل 1691
▁വിവിധ 1690
న్ని 1690
కాలు 1689
▁ఎర్ర 1689
న్నా 1689
▁دھیان 1689
از 1689
স্তর 1688
্ম 1688
▁Sahib 1688
▁पुख्ता 1688
▁తొ 1688
▁دم 1688
▁assurance 1687
▁tonnes 1687
▁Hotel 1686
ുമുള്ള 1686
▁ശബ്ദ 1686
▁ഷ 1686
ப்பாட்ட 1686
▁সম্ 1685
▁mosque 1685
▁دیکھا 1685
▁मुकाबला 1684
▁തുടങ്ങിയവ 1684
య్ 1684
▁Upadhyay 1684
▁शशिकला 1684
▁বহু 1683
▁Society 1683
▁रिटायर 1683
▁மைய 1683
ந்தா 1683
▁వేగ 1683
లోకి 1683
▁পাঠ 1682
▁కనిపించ 1682
یڈ 1682
▁पेपर 1681
▁چھوڑ 1681
▁دینا 1681
▁selection 1680
▁उपग्रह 1680
జర్ 1680
▁آسانی 1680
▁सिंचाई 1679
▁ब्याज 1679
▁Farooq 1679
▁மூல 1678
ட்ஸ் 1678
▁राइफल 1677
▁কলা 1676
▁क्रांति 1676
▁చీ 1676
▁प्रतिष्ठा 1675
▁communication 1673
▁निर्यात 1673
▁मुरादाबाद 1673
▁பூமி 1673
▁उपाध्याय 1673
▁applied 1672
▁డె 1672
వలసి 1672
▁disclose 1672
▁হিসেবে 1671
▁absolute 1671
തുകൊണ്ട 1671
▁மட்டுமே 1671
▁घटनास्थल 1671
েস 1670
ക്കല് 1670
▁உயரத்தில் 1670
▁ప్రదేశాల 1670
▁continuing 1669
▁കിഴക്ക 1669
▁بغیر 1669
ऩ 1669
নাল 1668
▁దీనిలో 1668
▁Mukesh 1668
▁oppose 1667
▁वितरण 1667
▁देवेंद्र 1667
▁നിയമ 1667
▁വാങ്ങ 1667
▁significant 1666
▁कैमरे 1666
▁Malik 1665
గడ 1665
▁सऊदी 1664
▁நிமிட 1664
▁வார 1664
▁ఫి 1664
▁నై 1664
▁Kalyan 1663
െന്ന് 1663
▁వాటిని 1663
▁పిల్లలు 1663
▁குடும்ப 1662
▁Devendra 1662
▁choose 1661
▁নির্মিত 1661
▁कमिश्नर 1661
▁নীল 1660
▁employee 1660
▁हकीकत 1660
▁لطف 1660
▁সাহায্যে 1659
पीटीआई 1659
▁distribution 1658
▁Brahma 1658
▁आमंत्रित 1658
ിക്കേണ്ട 1658
▁నమ్మ 1658
ణా 1658
▁ডান 1657
▁ইচ্ছা 1656
▁தேவி 1656
▁मुकेश 1656
▁निर्माता 1655
▁पटरी 1655
ങ്ങിയ 1655
▁വിദേശ 1655
▁عظیم 1655
▁दिये 1654
ആ 1654
▁پریشانی 1654
▁अज्ञात 1653
▁exchange 1652
▁रक्त 1652
▁കുരു 1652
യിട 1652
▁رہ 1652
▁associate 1651
▁Vidya 1651
▁సులభ 1651
▁اینٹ 1651
▁concrete 1650
दर्शक 1650
யாகும் 1650
▁دیتی 1650
▁document 1648
▁നാലു 1648
▁تعداد 1648
নগর 1647
▁penalty 1647
▁लालकृष्ण 1647
▁চো 1646
▁इंटरनेशनल 1646
▁ചിന്ത 1646
▁പേ 1646
ணா 1646
▁گرام 1646
▁गेहूं 1646
▁fundamental 1645
▁అతను 1645
▁taught 1644
▁భారతీయ 1644
▁chose 1643
▁शोषण 1643
ുകളെ 1643
▁அறை 1643
▁موت 1643
▁شہ 1643
▁Pradeep 1642
▁കൂടിയ 1642
▁பாதுகாப்ப 1642
▁emphasiz 1641
▁सहमत 1641
▁உடற் 1641
▁நுழை 1641
▁వస్తువు 1641
▁কাঁ 1640
▁Muhammad 1640
▁ஏற்ற 1640
ণ্ 1639
▁surface 1639
▁Welfare 1639
▁advertisement 1639
▁rumor 1639
দেব 1639
▁گھٹ 1639
ক্ষিত 1638
▁northern 1638
▁കാന് 1638
▁दूतावास 1638
अंतरिम 1638
▁സഹായിക്ക 1637
▁گرمی 1637
▁गूगल 1637
▁governance 1636
▁Smriti 1636
జె 1636
▁دس 1636
▁judgment 1636
▁प्रतिनिधिमंडल 1636
▁পিছনে 1635
▁शानदार 1635
▁പോര 1635
శో 1635
▁హోటల్ 1635
যো 1634
▁இருப்ப 1634
▁उपराज्यपाल 1634
▁extent 1633
▁ست 1633
পো 1632
▁ബെ 1632
▁managed 1631
▁ईमानदार 1631
▁अनुच्छेद 1631
▁விழா 1630
▁గాలి 1630
▁অপেক্ষা 1629
▁collapse 1629
തല്ല 1629
கிறான் 1629
పుడు 1629
▁বুদ্ধ 1628
ھے 1628
▁Engineer 1627
▁दर्शा 1627
▁அரை 1627
மலை 1626
▁ছিলো 1626
▁allegation 1626
র্থ 1625
▁দূরত্ব 1625
▁trend 1625
▁Maulana 1625
▁யோ 1625
▁கீழ் 1625
ப்படுகின்றன 1624
▁ఫ 1624
র্ত 1623
ப்பின் 1623
▁కలిగిన 1623
▁బో 1623
▁প্রত্যেক 1622
▁स्टाफ 1622
థి 1622
ஞ 1621
▁علاقہ 1621
▁Rakesh 1620
▁തുടങ്ങ 1620
ഴ് 1620
▁ജെ 1620
▁రెండో 1620
▁Award 1620
▁Political 1619
▁तेवर 1619
ൊന്നു 1618
ത്തോടെ 1618
ായിരുന്ന 1618
▁தென் 1618
భావ 1618
జన 1618
▁رام 1618
▁हार्दिक 1618
▁proof 1617
▁കൂ 1617
▁mandatory 1616
▁നോക്കി 1616
▁உடை 1616
জ্ঞা 1615
േശ 1615
▁آل 1615
▁Bhardwaj 1615
▁പോഷക 1614
▁കൊട 1614
▁آئے 1614
▁हरिद्वार 1613
சம் 1613
▁تیر 1613
▁Branch 1613
▁मुख्यमंत्रियों 1613
▁Paswan 1613
▁internet 1612
▁parliament 1612
▁Policy 1612
তী 1611
▁Bengaluru 1611
▁ഗുണ 1611
▁ஜீ 1610
▁نار 1610
اء 1610
▁telecom 1610
▁নিজেকে 1609
▁শারীরিক 1609
▁অন্যান্য 1609
லுக்கு 1609
▁ప్రభావ 1609
▁ہمیں 1609
▁Dinesh 1609
▁তথ্য 1608
▁धमक 1608
▁தன் 1608
▁rifle 1607
கார 1607
▁آئ 1607
▁এসব 1606
inspector 1606
▁विपरीत 1606
▁ब्रांच 1606
▁காலத்தில் 1606
▁தடை 1606
రస 1606
క్స్ 1605
▁Gurgaon 1603
▁Moradabad 1603
▁फायर 1603
രിക 1603
▁ആഗ്രഹ 1603
ిని 1603
▁operate 1602
▁पाटिल 1602
IANS 1602
▁आरटीआइ 1602
ூர் 1601
▁شر 1601
▁Economic 1600
▁അത്യാവശ്യ 1600
▁குட 1600
▁దేవ 1600
▁determin 1599
▁गोपनीय 1599
▁குறிப்பிட்ட 1599
సిన 1599
ింప 1599
ൺ 1599
▁Syed 1598
▁ढांचा 1598
ീഷ് 1598
பார் 1598
▁తగ్గించ 1598
▁انسان 1598
▁சுற்றி 1597
▁মাধ্যমে 1596
செ 1596
▁بھرپور 1596
▁Eastern 1595
▁explosion 1595
▁இருப்பது 1595
ణం 1595
▁اٹھا 1595
▁rapidly 1594
ല്ലാതെ 1594
ிருக்கின்றன 1594
▁لینا 1594
▁Shyam 1593
ండా 1593
▁वार्ड 1592
ത്തിനുള്ള 1592
▁നല്ലതാണ് 1592
▁ഒരുപാട് 1592
▁அங்க 1592
ును 1592
▁गोलियां 1592
▁अलगाववादी 1592
▁NSG 1592
▁জানতে 1591
▁knock 1591
▁restriction 1591
டெ 1591
టిక్ 1591
বল 1590
▁operator 1590
▁കര് 1590
▁ফ্ল 1589
▁ഒറ്റ 1589
ാക്കിയ 1589
▁பக 1589
▁बर्खास्त 1589
▁चुप्पी 1589
▁Bahadur 1588
ലിയ 1588
▁దుర్ 1588
▁పే 1588
▁అభివృద్ధి 1588
▁declare 1587
▁राकेश 1587
▁مین 1587
▁Advisor 1586
▁దక్షిణ 1586
▁removing 1585
തല 1585
▁வகை 1585
ান 1584
▁धन्यवाद 1584
▁య 1584
▁భగవ 1584
▁Tanwar 1584
▁bride 1583
▁लेफ्टिनेंट 1583
▁బల 1583
president 1583
▁funeral 1582
▁സഹായിക്കുന്ന 1582
▁ക്രമ 1581
▁రే 1581
▁এখনও 1580
hit 1580
▁ఉంటారు 1580
దేవ 1580
দান 1579
▁possession 1579
ടുക്ക 1579
▁అన 1579
ുണ്ടായിരുന്നു 1578
▁দিলে 1577
▁মধ্য 1577
▁इजाफा 1577
ത്തോളം 1577
▁পরামর্শ 1576
▁விலங்கு 1576
▁भेदभाव 1575
▁कौशल 1575
▁अन्नाद्रमुक 1575
▁repair 1574
লস 1574
▁വിര 1574
▁ഡല് 1574
▁خل 1574
▁screen 1573
▁കുടി 1573
ലീ 1573
దర్ 1573
▁পরিচিত 1572
▁Management 1572
▁चक्कर 1572
▁അനുസരിച്ച 1572
▁വച്ച് 1572
யுள்ள 1572
దేశ 1572
▁മറ്റൊരു 1571
யல் 1571
▁లై 1571
▁نی 1571
▁decline 1570
▁expansion 1570
▁এসেছে 1570
പ്പാ 1570
▁Haridwar 1569
▁panchayat 1569
▁एकमात्र 1569
▁నిజ 1569
▁Vivek 1568
ുവാന് 1568
▁कालेधन 1568
▁भागवत 1567
▁Tyagi 1567
جہ 1566
▁वारंट 1566
হ্ 1565
▁Dutt 1565
▁ഡയ 1565
▁reward 1565
যা 1564
▁drought 1564
▁एनजीओ 1564
▁വിശേഷ 1564
ம்பி 1564
ராக 1564
র্ম 1563
▁انتظام 1563
রোধ 1562
য়েল 1562
▁பரிசோதனை 1562
രാഷ്ട്ര 1561
లపై 1561
ిస్తున్న 1561
క్షన్ 1561
▁തടയ 1560
▁Gautam 1559
▁गौतम 1559
രാജ 1559
▁కె 1559
▁বর্গ 1558
▁Iraq 1558
▁जनसंख्या 1558
▁നീള 1558
▁हुर्रियत 1558
▁গুরু 1557
▁বাজার 1557
▁Advocate 1557
▁युग 1557
▁माओवादियों 1557
▁actress 1556
▁Ashram 1556
▁बाधित 1556
▁ফ 1555
▁retail 1555
▁निरस्त 1555
▁गिलानी 1555
রত 1554
▁गुवाहाटी 1554
▁கூறப்படுகிறது 1554
▁അവൾ 1554
▁Myanmar 1553
ரம் 1553
▁Hurriyat 1553
▁Nir 1553
▁Singapore 1552
▁ചീ 1552
▁چٹ 1552
▁हंगामे 1552
▁निर्दलीय 1552
anjan 1552
▁সুবিধা 1551
স্টে 1551
▁commercial 1551
▁वायरल 1551
▁बेरोजगार 1551
▁साहब 1551
▁கூ 1551
▁புத்த 1551
▁Bareilly 1551
” 1550
▁আসেন 1550
▁మందుల 1550
▁হু 1549
▁secure 1549
ும 1549
▁డాక్టర్ 1549
▁श्याम 1548
ல்லி 1548
▁gangrape 1548
భాగం 1547
▁உருவ 1546
▁ప్రసిద్ధ 1546
▁లి 1545
اط 1545
▁मानवाधिकार 1545
▁येद्दयुरप्पा 1545
▁अंबेडकर 1545
ল্ট 1544
▁பரவ 1544
▁అతి 1544
▁resolution 1543
க்கப்பட்ட 1543
▁గ్రామం 1543
▁execution 1542
▁challenging 1542
ையும் 1542
▁ഫി 1541
▁தொடர்ந்து 1541
னில் 1541
▁దేశ 1541
▁కొంత 1541
▁সংখ্যা 1540
▁भागीदारी 1540
▁आकाश 1540
▁বয়স 1539
শ্ব 1539
▁श्रीवास्तव 1539
▁കഴുക 1539
வாச 1539
ன்ன 1539
▁లాంటి 1539
▁দেশ 1538
▁ചോ 1538
▁மக்களுக்கு 1538
▁brand 1537
▁ആദ്യ 1537
പൂ 1537
▁வாய்ப்பு 1537
▁Tharoor 1537
▁थरूर 1537
▁এখনো 1536
▁emphasis 1536
▁رکھ 1536
▁एजेंसियां 1536
পাল 1535
▁उद्यम 1535
▁നേരെ 1535
భవ 1535
গ্ 1534
▁സ്നേഹ 1534
▁சிவ 1534
वर्ष 1533
▁अफ्रीका 1533
▁प्रार्थना 1533
സൂ 1533
▁பேருந்து 1533
▁మూల 1533
▁بلکہ 1533
▁সুযোগ 1532
▁குரு 1532
▁கொள் 1531
பின் 1531
▁முன்பு 1531
▁एसआइटी 1531
▁কান 1530
▁ஆண் 1530
▁साक्ष्य 1529
▁காட்டு 1529
గ్రహ 1529
▁conflict 1528
▁corrupt 1528
▁പേരില് 1528
అ 1528
ిస్తూ 1528
వులు 1528
▁అద్భుత 1528
▁سہ 1528
कांग्रेस 1528
▁കരുത 1527
▁مسافر 1527
▁स्पीकर 1527
▁নির্ 1526
▁Ahmad 1526
▁ഉട 1526
کم 1526
▁वाणिज्य 1525
പ്പറ 1525
spiration 1524
▁கடற்கரை 1524
ుకోవచ్చు 1524
▁ఐదు 1524
▁ढांचे 1524
▁हाफिज 1524
ுக் 1523
▁యొక్క 1523
പ്പെട്ടു 1522
▁قبض 1522
▁Desk 1522
▁infiltration 1521
एनसीआर 1521
▁എല്ലാവരും 1521
▁സഹ 1521
▁آنا 1521
▁کیونکہ 1521
▁DGP 1521
▁resort 1520
ിച്ചിരുന്ന 1520
▁دنوں 1520
▁ट्रायल 1519
ணர் 1519
▁quota 1519
▁വളര് 1518
▁ద్వీప 1518
നുസരിച്ച് 1517
திலும் 1517
▁குழந்தைகள் 1517
▁తు 1517
াইড 1516
▁Dubai 1516
▁अमीर 1516
ായാലും 1516
▁స్త్రీ 1516
▁प्रदर्शनकारियों 1516
▁बनारस 1515
▁తక్కువగా 1515
▁پایا 1515
▁نظام 1515
স্ট্র 1514
▁Rohit 1514
▁बंधक 1514
▁shift 1513
▁अहसास 1513
▁പെട്ട 1513
▁அணி 1513
ஷா 1513
▁সম্পর্কে 1512
▁ট্যা 1511
▁साइकिल 1511
▁संस्थापक 1511
ലു 1511
రోజు 1511
▁receive 1510
▁सिंगापुर 1510
വൃത്തി 1510
▁پٹ 1510
▁தேவ 1509
ందా 1509
▁హై 1509
ఫల 1509
నూ 1508
▁গভীর 1506
▁കയ്യ 1505
முறை 1505
▁یہی 1505
▁CEO 1504
▁नीलामी 1504
வோ 1503
▁வடிவ 1501
▁అవకాశం 1501
మైంది 1501
▁అధికంగా 1501
▁دیر 1501
▁Speaking 1500
▁സൂ 1500
ொ 1500
▁பழங்கால 1500
▁nominated 1500
▁সম্ভাবনা 1499
▁रोहित 1499
▁cyber 1498
സ്ട്ര 1498
వారం 1498
▁broadcast 1497
പ്പാട 1497
வற்ற 1497
▁பிரதேச 1497
▁کوشش 1497
▁context 1496
▁Foundation 1496
▁series 1495
▁Robert 1495
▁ఇవి 1495
▁Uddhav 1495
রাজ 1494
▁ഭാര്യ 1494
▁முதலில் 1494
ாத 1494
▁باغ 1494
লেট 1493
▁Urban 1493
▁ప్రాణ 1493
টিতে 1492
▁उद्धव 1492
களையும் 1492
ிக் 1492
▁பல்வேறு 1492
▁నష్ట 1492
▁مستقل 1492
ہی 1492
▁ধরা 1491
▁Meena 1491
▁threw 1490
বতী 1489
▁Italian 1489
▁வெப்ப 1489
▁بدل 1489
▁Sikkim 1488
▁நினைவு 1488
രും 1487
▁ఔ 1487
▁ఫా 1487
▁sudden 1486
▁article 1486
اش 1486
̈ 1486
▁adequate 1485
▁സ്വന്തം 1485
സവ 1485
ాల్సి 1485
▁দুর্গ 1484
▁গোল 1484
ത്തിയ 1484
బీ 1484
▁పట్ట 1484
▁संभावित 1483
▁पेट्रोलियम 1483
ിയും 1483
▁தலைநகர 1483
▁పట్టణం 1483
▁بہ 1483
جھ 1483
▁नतीजों 1482
▁শান্তি 1481
▁Bachchan 1481
▁बूथ 1481
▁யு 1481
▁అదే 1481
ास्पद 1480
▁डिजाइन 1480
▁जिलाधिकारी 1480
▁ഗ്യാ 1480
▁لیا 1480
تع 1480
▁কয়েক 1479
▁গুণ 1479
▁ശുദ്ധ 1479
▁പറയാന 1478
▁തങ്ങളുടെ 1478
▁நு 1478
▁Hussain 1477
▁Bhim 1477
▁മണിക്കൂറ 1477
▁பர 1477
▁prosecution 1477
▁refuge 1476
ബര് 1476
▁ഒന്നു 1476
▁remand 1476
পূর্ণ 1475
▁indication 1475
▁ఇంటి 1475
پل 1475
▁सतीश 1475
▁അസുഖ 1474
▁دیوار 1474
▁এদের 1473
▁प्रतिनिधित्व 1473
▁കൊടുത്ത 1473
മന 1473
▁مرتبہ 1473
▁അമേരിക്ക 1472
▁സംസ് 1472
ാണി 1472
سے 1472
▁curb 1471
ப்படும் 1471
▁வைக்கப்பட்ட 1471
తర 1471
▁కేంద్రం 1471
▁बीजेपी 1471
▁प्रतिनिधियों 1470
▁ہوجاتا 1470
بع 1470
▁Jitendra 1470
▁professor 1469
▁بد 1469
▁Pradhan 1468
▁നട 1468
കൊ 1468
▁لگے 1468
▁Sheila 1468
▁DIG 1468
▁பிறப்பு 1467
▁अगवा 1466
▁நாட்கள் 1466
ాన 1466
▁چائے 1466
▁अखिल 1465
▁അവളുടെ 1465
னும் 1465
ேஷ் 1465
▁క్రి 1465
ాలయ 1465
సింహ 1465
▁روک 1465
▁மட்ட 1464
▁அடையாள 1464
▁కుటుంబ 1464
▁ధర్మ 1464
মেন্ট 1463
షియ 1463
▁নিশ্চিত 1462
▁বিমানবন্দর 1462
▁पंजीकरण 1462
▁முயற்சி 1462
ট্রি 1461
▁Especially 1461
▁fifty 1461
▁confirm 1461
▁shelter 1461
▁कुर्सी 1461
कार्यकारी 1461
▁കാട്ട 1461
▁tobacco 1460
▁வகையான 1460
▁طریقہ 1460
▁چڑھ 1459
▁Hafiz 1459
▁ब्लैक 1458
▁எளிதாக 1458
▁কাজে 1457
▁سم 1457
▁accusing 1457
সূ 1456
▁খেলা 1456
▁റോഡ് 1456
▁मार्केट 1455
▁జరిగింది 1455
োয়া 1454
▁quarter 1454
▁साहिब 1454
▁రక్షణ 1454
షి 1454
▁টু 1453
▁s 1453
▁ആഗ്രഹിക്കുന്ന 1453
கில் 1453
వల్ల 1453
రిగి 1453
బడ 1453
▁फैसलों 1453
কর্ষ 1452
▁दुबई 1452
▁ക്ല 1452
నాథ్ 1452
য়াল 1451
ডে 1451
▁चिंतित 1451
▁പറയുന്ന 1451
▁ചോദിക്ക 1451
▁வெள்ளை 1451
▁విధ 1451
Special 1451
▁জীবনের 1450
▁നിയന്ത്രിക്ക 1450
হু 1449
▁Instead 1449
▁গিয়েছিল 1449
▁फाउंडेशन 1449
▁सुल्तान 1449
▁ढूंढ 1449
▁അടങ്ങിയ 1449
▁അടിസ്ഥാന 1449
োপ 1448
▁প্রস্তুত 1447
লক 1447
▁सैयद 1447
▁ఉత్పత్తి 1447
▁घटनाक्रम 1447
▁বলেন 1446
▁identify 1446
▁लड़ाकू 1446
బద్ధ 1446
▁ప్రాంతాల 1446
▁കണ്ടെത്ത 1445
ക്കായി 1445
▁মিল 1444
▁तहसील 1444
▁వేల 1444
▁resentment 1444
▁Fadnavis 1444
▁धरना 1443
▁പരിശോധന 1443
പ്രകാരം 1443
▁ശതമാനം 1443
▁தட 1443
▁பாறை 1443
راج 1443
operative 1442
சின் 1442
▁پیدائش 1442
▁हसन 1441
▁నిర్ 1441
▁కం 1441
ങ്ങൾക്ക് 1441
▁त्रिपाठी 1441
▁করেছেন 1440
▁unfortunate 1440
▁बिंदु 1440
▁நில 1440
▁ఒక్క 1440
▁درمیان 1440
▁JNU 1440
▁பச்சை 1439
▁वादे 1439
ിലേയ്ക്ക് 1438
▁நிலையில் 1438
▁অঞ্চল 1437
▁अभिनेत्री 1437
▁rainfall 1436
▁श्रेय 1436
▁மற்றொரு 1436
▁वकालत 1436
▁ब्रांड 1435
▁అర 1435
ڑھی 1435
പ്പോഴും 1434
▁பல் 1434
రుగు 1434
▁దేవాలయ 1434
▁کھیل 1434
▁অংশে 1433
▁താമസിക്കുന്ന 1433
▁لیتے 1433
▁गिरोह 1433
▁अश्लील 1432
▁secular 1431
بھی 1431
▁मसूद 1431
▁Sud 1431
লিন 1430
▁रहस्य 1430
▁کھل 1430
▁چن 1430
▁inspect 1429
ந்தோ 1429
▁மட 1429
ுகிறார்கள் 1428
కాయ 1428
▁చెంద 1428
ন্ডি 1427
ভু 1427
▁driving 1426
▁बायो 1426
▁इशारा 1426
▁ശാരീരിക 1426
▁തന്ന 1425
▁കഥ 1425
తులు 1425
▁NGT 1425
ধান 1424
▁ബന്ധപ്പെട്ട 1424
വുമായി 1424
▁சம்பந்த 1424
▁dismiss 1424
▁pump 1423
▁refuse 1423
▁बच्चन 1423
▁कलेक्टर 1423
▁सिक्किम 1423
وڑ 1423
▁مح 1423
anwar 1423
▁circle 1422
▁तब्दील 1422
▁யூ 1422
ణు 1422
▁हिस्सेदारी 1421
യേ 1421
రొ 1421
▁मासूम 1421
▁Tripathi 1421
▁रघु 1420
ண்டா 1420
▁பேச 1420
▁తల్లి 1420
▁پروگرام 1420
Against 1420
লেন 1419
▁negligence 1419
▁झंडी 1419
▁மேற் 1419
▁فر 1419
ٹری 1418
आइएएनएस 1418
▁কঠিন 1417
▁পশ্চিম 1417
▁মাই 1417
കിയ 1417
ലൈ 1417
அழைக்கப்படுகிறது 1417
వారు 1417
▁రాజధాని 1417
ധാന 1415
యిన 1415
▁قومی 1415
▁revolution 1414
▁പദ്ധതി 1414
ాం 1414
▁judiciary 1414
▁fuel 1413
▁গঙ্গা 1413
▁ब्लाक 1413
▁kishor 1413
▁नकवी 1412
▁পরিবর্তন 1411
▁बहरहाल 1411
శ్చ 1411
▁వృక్ష 1411
ப்பான 1410
▁অপর 1409
▁ছড়িয়ে 1409
▁बिजनेस 1409
▁അന്ത 1409
▁قابو 1409
▁Arjun 1408
▁ഒരേ 1408
▁இலை 1408
▁నిరంతర 1408
وش 1408
▁సమాన 1407
▁رک 1407
joshi 1407
▁যোগ 1406
▁പ്രമുഖ 1406
▁నివాస 1406
▁joshi 1406
▁நிலையம் 1405
▁ప్రా 1405
یٹر 1405
ishor 1405
▁expand 1404
▁তি 1404
বেদ 1403
▁विक्रम 1403
▁പ്രയാസ 1403
த்திலும் 1403
▁کس 1403
نج 1403
▁zone 1402
▁മുട്ട 1402
யிர 1402
িম 1401
▁recruit 1401
▁न्यायपालिका 1401
নির 1400
াণু 1400
బో 1400
▁کرکے 1400
▁पब्लिक 1399
▁राजदूत 1399
▁Project 1398
▁साक्षात्कार 1398
▁इराक 1398
▁భారత 1398
▁Shashikala 1398
▁exploit 1397
▁روز 1397
▁ലെ 1396
▁ప్రపంచంలో 1396
Corruption 1396
▁മഴ 1395
▁கொடுத்த 1395
కపోతే 1395
▁ممکن 1395
▁aggressive 1394
ുണ്ടാവ 1394
▁tribute 1393
▁आक्रामक 1393
▁स्वयंसेवक 1393
▁எதிர் 1393
▁நீல 1393
হীন 1392
▁সর্ব 1392
▁Vikram 1392
▁troops 1392
களாக 1392
▁অফ 1391
▁relative 1391
▁indirect 1391
▁म्यांमार 1391
▁فورا 1391
▁acquir 1390
▁सशक्त 1390
വരുടെ 1390
▁வாய்ந்த 1390
హీ 1390
▁convert 1389
▁Count 1389
▁ദിവസങ്ങള 1388
▁خاندان 1388
▁കാണാം 1387
കൾ 1387
▁एनएसजी 1387
▁राजनेता 1386
▁പകര 1386
▁Masood 1386
▁প্রমাণ 1385
ক্রম 1385
▁শীত 1385
వంతమైన 1385
▁কালো 1384
▁referred 1384
▁invitation 1384
▁ഇറങ്ങ 1384
▁இல் 1384
▁నగర 1384
▁exemption 1384
▁Naqvi 1384
▁قبل 1383
য়ান 1382
▁পুলিশ 1382
▁Masjid 1382
▁ज्ञात 1382
ക്കുറവ 1382
▁ഗോവ 1382
ம்பா 1382
▁সবচেয়ে 1381
▁പിടി 1381
▁EVM 1381
▁irrigation 1380
▁पदाधिकारियों 1380
கீ 1380
▁উপায় 1379
▁विचारधारा 1379
▁Operation 1379
കേന്ദ്ര 1378
▁بازار 1378
▁miscreants 1378
▁remote 1377
▁யானை 1377
▁خوب 1377
▁آدھ 1377
▁اٹھ 1377
اع 1377
▁विरासत 1376
లెస్ 1376
తల 1376
▁displeasure 1376
▁സുരക്ഷിത 1375
▁ஆலோசனை 1375
▁আরেক 1374
maker 1374
ంటుంది 1374
శు 1374
▁আসছে 1373
▁सिद्धांत 1373
مان 1373
▁درخت 1373
▁कनेक्शन 1373
▁रिमांड 1373
▁कर्नल 1372
▁വീട്ടില് 1372
களுக்காக 1372
▁ఎడమ 1372
▁పురుషుల 1372
▁रत्न 1371
ுவதில் 1371
வால் 1371
▁பின் 1371
New 1371
▁యూ 1370
▁Hardik 1370
ാകും 1369
రూ 1369
▁ہاتھوں 1369
▁বৃদ্ধি 1368
▁कोविंद 1368
▁mercy 1367
▁गैंग 1367
▁एनजीटी 1367
ডো 1366
▁টাই 1366
▁अभिभावक 1366
തൃ 1366
യുടെയും 1366
▁கல் 1366
▁ఉండి 1366
▁patrol 1365
▁ആദ്യത്തെ 1365
▁విభిన్న 1365
ఘా 1365
▁বাদ 1364
কশন 1364
ത്താ 1364
▁ஜி 1364
▁محفوظ 1364
▁لگانے 1364
▁ثقافت 1364
▁reveal 1363
ങ്ങളില 1363
▁তীর্থ 1362
دل 1362
▁বিষয়ে 1361
▁पेशकश 1361
▁ഇന്നു 1361
▁সোনা 1360
▁धनराशि 1360
▁పర్ 1360
▁کپ 1360
▁principle 1359
▁निगाह 1359
▁एयरलाइंस 1359
ുകൾ 1359
▁அவருடைய 1358
ாகும் 1358
▁చూప 1358
▁झड़प 1357
▁लैस 1357
▁പരിപാടി 1357
▁தெரிந்த 1357
▁uniform 1357
বাসী 1356
തിരി 1356
ശീല 1356
▁സ്ഥാപിച്ച 1356
▁यूनियन 1355
▁obstruct 1354
▁Geeta 1354
▁गर्व 1354
▁செய்யும் 1354
ంలోని 1354
ంతి 1354
▁Mehta 1352
▁constable 1352
▁शुरूआत 1352
▁ठिकानों 1352
▁സംസ്ഥാന 1352
▁சின்ன 1352
مین 1352
হর 1351
ചിത 1351
ெய் 1351
▁ہار 1351
▁सीईओ 1351
ിക്കാന 1350
▁വിമാന 1350
▁వస్తువులు 1350
ల్స్ 1350
ండే 1350
▁সময়ের 1349
▁Patiala 1349
▁चौथे 1349
െക്കുറിച്ച 1349
▁కళ 1349
▁वर्ल्ड 1348
முடியாத 1348
▁मुजाहिदीन 1347
▁बंटवारे 1347
টিং 1346
▁திறந்த 1346
▁ہمیشہ 1346
▁പഞ്ചസാര 1345
പെട 1345
▁PIL 1345
▁প্রদান 1344
▁Akbar 1344
▁ideology 1344
సూ 1344
▁వాటిలో 1344
▁nurse 1343
▁पुनर्विचार 1343
دگی 1343
▁Class 1342
▁Labor 1342
▁अकबर 1342
▁त्रिपुरा 1342
വരുന്ന 1342
గ్రా 1342
▁সার 1341
▁जनजाति 1341
▁அவை 1341
▁جذب 1341
കരണ 1340
టింగ్ 1340
▁ریاست 1340
▁উত্ত 1339
কী 1339
▁ब्लास्ट 1339
▁కాపాడ 1339
ullah 1338
▁യോഗ 1338
நி 1338
▁Bhar 1338
▁viral 1337
▁Kushwaha 1337
▁ரே 1337
▁राजनयिक 1336
ിട്ടു 1336
▁Santosh 1336
▁कांस्टेबल 1336
▁promoting 1335
▁Madan 1335
▁കുറ്റ 1335
▁Address 1334
▁Govind 1333
▁सत्तारूढ़ 1333
▁injuries 1332
দী 1332
ില്ലാത്ത 1332
▁വിശ്വാസ 1332
▁வேண்டிய 1332
▁జన 1332
▁Kasab 1332
▁rallies 1331
▁گری 1331
▁install 1330
രായ 1330
బూ 1330
కర్ 1329
ఫె 1329
▁بنانے 1329
▁হরি 1328
▁করেছিলেন 1328
▁വിശ്വ 1328
ത്തര 1328
▁எனக் 1328
▁تھک 1328
▁میدان 1328
▁১৬ 1327
▁യാതൊരു 1327
ൈസ 1327
▁ஒளி 1327
▁సంవత్సరంలో 1327
▁సంబంధ 1327
▁زبان 1327
▁سنہ 1327
▁interrogate 1327
▁അത്ഭുത 1326
▁حکومت 1326
نہ 1326
▁চিত্র 1325
▁ജീവിതം 1325
▁பொருள் 1325
▁گولی 1325
▁दहशत 1324
▁എഴു 1324
▁/ 1324
▁چیزیں 1324
▁sanction 1323
▁হলো 1323
▁शिरकत 1323
▁അറിവ 1323
▁పది 1323
▁చేస 1323
মী 1322
▁নৌ 1322
▁speculation 1322
▁Maidan 1322
▁हिंदुओं 1322
▁स्टेडियम 1322
▁आक्रोश 1322
▁ঘন 1321
ുന്നതും 1321
▁ప్రో 1321
व्यवस्था 1320
▁ప్రయాణ 1320
▁chargesheet 1320
▁Independence 1319
▁title 1319
▁തിര 1319
▁ڈائ 1319
▁ভূ 1318
▁വിമാനത്താവള 1318
లింగ్ 1318
▁पढें 1318
▁जेएनयू 1318
▁৭ 1317
▁विद्युत 1317
▁कसाब 1317
▁electronic 1316
▁निष्पक्ष 1316
▁மீண்டும் 1316
▁అనుభవ 1316
▁মাছ 1315
▁আশা 1315
▁मेहता 1315
▁गुड़गांव 1315
▁തുറന്ന 1315
ழை 1315
▁ஹை 1315
▁ஆட்சி 1315
▁پس 1315
▁corridor 1314
▁माइक्रो 1314
▁हिंदुस्तान 1314
▁വിഷമ 1314
▁ന്യൂ 1314
லிங்க 1314
జన్ 1314
▁servant 1313
▁deputy 1313
▁मुल्क 1313
మృత 1313
▁ministries 1313
प्रेट्र 1313
▁আনা 1312
যোগ 1312
▁পথে 1312
దానం 1312
▁ڈر 1312
▁এক্স 1311
▁নর 1311
▁ഇര 1311
▁ഡോക്ടര് 1311
ంటారు 1311
▁نسل 1311
▁বোঝা 1310
▁Member 1310
▁പതി 1310
dwaj 1310
▁پھیلا 1309
▁നേ 1308
▁کرو 1308
▁పూజ 1307
▁Enforcement 1307
▁alternative 1306
শন 1306
▁বৌদ্ধ 1306
▁Fateh 1306
க்கோ 1306
▁கட 1306
▁আবহাওয়া 1305
னுக்கு 1305
▁தொடர்பான 1305
▁స్వయం 1305
ھا 1305
▁adjacent 1304
▁കഴിഞ്ഞു 1304
ദോഷ 1304
▁ஓட்ட 1304
▁ملے 1304
▁ग्लोबल 1303
▁സംബന്ധിച്ച 1303
ோடு 1303
▁اک 1303
▁ശിശു 1302
తనం 1302
▁جگر 1302
▁ترقی 1302
টিক 1301
ক্র 1301
▁ग्रीन 1301
வான் 1301
▁مشکل 1301
▁संबोधन 1301
▁நிகழ்ச்சி 1300
ఛ 1300
▁شخص 1300
▁بالکل 1300
▁अभिषेक 1299
▁అవసర 1299
▁পরিবার 1298
▁സാമ 1298
▁خطرہ 1298
▁cylinder 1297
▁universities 1297
▁வாய் 1297
65 1296
▁remarks 1296
▁প্রো 1295
▁சூழ்நிலை 1295
▁अलगाववादियों 1295
▁अवकाश 1294
వేయ 1294
▁പണം 1293
രുവ 1293
▁১৪ 1292
▁studied 1292
▁disappeared 1292
▁കൊഴുപ്പ 1292
കളായ 1292
▁மறு 1292
வன 1292
▁క్ర 1292
రై 1292
▁تھوڑا 1292
▁Colonel 1291
▁हरीश 1291
ங்களும் 1291
ல்லா 1291
Chancellor 1291
▁মায়ের 1290
▁आश्चर्य 1290
▁വിജയ 1290
▁చిత్ర 1290
▁কাম 1289
▁زخم 1289
▁पटियाला 1288
▁மெல்ல 1288
ிப்பு 1288
০০০ 1287
▁పరిశోధన 1287
▁احساس 1287
▁संतुष्ट 1286
कुशल 1286
▁उत्तार 1286
▁മാറ്റി 1286
▁കഴുത്ത 1286
▁வீட்ட 1286
▁ఎల్ల 1286
▁నియంత్రణ 1286
▁explosive 1285
ിക്കാം 1285
தர் 1285
▁بنایا 1285
കൊണ്ട 1284
▁చూస్త 1284
▁مج 1284
▁पाठ्यक्रम 1284
টন 1283
ভাগ 1283
ঔ 1283
▁হিমালয় 1283
▁ആശ്വാസ 1283
▁సమీప 1283
▁స్థానం 1283
▁मुसलमान 1282
▁കയറ 1282
▁വെടി 1282
▁prominent 1281
▁अग्रिम 1281
▁சோதனை 1280
யைத் 1280
దగిన 1280
ٹنگ 1280
▁ভু 1279
▁तड़के 1279
▁डोकलाम 1279
▁প্রতিটি 1278
▁equation 1278
▁सूचित 1278
▁ഡോക്ടറ 1278
▁அடைந்த 1278
▁சிவப்பு 1278
▁తయారుచేస 1278
জ্ঞ 1277
▁अर्जुन 1277
▁ശ്വാസം 1277
▁پک 1277
▁Kargil 1276
നിന്ന് 1276
▁పాటు 1276
▁consecutive 1276
▁कुशवाहा 1276
▁हिम्मत 1275
ദേഹ 1275
▁டை 1275
னு 1275
వారి 1275
▁suspension 1274
▁frame 1274
पाकिस्तान 1274
వ్యా 1274
▁బొ 1274
మర్ 1274
▁సుందర 1274
▁manifesto 1274
▁കണക്കാക്ക 1273
▁நினைவ 1273
▁சதவீத 1273
▁சதுர 1273
▁జంతువుల 1273
▁valid 1272
ஸ்தான 1272
स्पेशल 1272
യായിരുന്നു 1271
▁போன்று 1271
▁வாயு 1271
▁ఏనుగు 1271
▁معلوم 1271
▁ठुकरा 1271
▁Kailash 1270
പിടി 1270
ടുപ്പ 1270
▁روشنی 1270
▁ফ্যা 1269
▁allocated 1269
▁സംഭവിച്ച 1269
▁ஜோ 1269
▁Kovind 1269
యర్ 1268
لم 1268
▁দেন 1267
▁நன்மை 1267
▁बेटियों 1267
▁Budget 1267
▁ট্রেন 1266
▁conclusion 1266
▁ഏതു 1266
పే 1266
▁లేకుండా 1266
▁రైల్వే 1266
▁ہوجاتی 1266
▁cognizance 1266
▁Indrani 1265
▁इंद्राणी 1265
സമയ 1265
▁கடந்த 1265
ہر 1265
▁خطرناک 1265
▁रिटर्न 1265
▁magazine 1264
▁Parishad 1264
▁सहारनपुर 1264
▁गंवा 1264
ஆம் 1264
▁புனித 1264
▁دلی 1264
▁nephew 1264
▁সাম 1263
▁opportunities 1263
▁ആരംഭിക്ക 1263
▁آنکھ 1263
▁نش 1263
▁आपत्तिजनक 1263
▁laptop 1262
▁धोखाधड़ी 1262
െയും 1262
யிலும் 1262
చేసి 1262
▁అంగ 1262
▁یک 1262
▁پائے 1262
▁Yogendra 1262
▁মূল 1261
▁convoy 1261
▁submarine 1261
▁வேண்ட 1261
▁Abbas 1261
വുമാണ് 1260
▁பயன் 1260
▁விரி 1260
▁तंबाकू 1259
▁സീ 1259
▁বায়ু 1258
▁participation 1258
ട്രോ 1258
▁മോശ 1258
வான 1258
▁జో 1258
▁Bareli 1258
Raj 1257
▁تیزی 1257
▁باقی 1257
▁चिट्ठी 1257
শীল 1256
ഭാഗത്ത 1256
களைப் 1256
▁অভি 1255
▁অতি 1255
▁ইতিহাস 1255
ക്രീ 1255
രീതി 1255
വരും 1255
▁செயல் 1255
▁অঞ্চলে 1254
▁landslide 1254
ரிடம் 1254
ُ 1254
▁چڑ 1254
ھو 1254
▁potential 1253
▁गोविंद 1253
▁പോലുള്ള 1253
▁அடைய 1253
കിട 1252
▁కాకుండా 1252
بہ 1252
▁ایل 1252
باد 1252
▁जासूसी 1252
ிருப்ப 1251
▁जश्न 1251
শৈলী 1250
▁scholar 1250
▁مک 1250
ائل 1250
▁مد 1250
▁সাব 1249
▁सराहना 1249
▁നടത്തിയ 1249
நாட்டு 1249
ிலேயே 1249
▁মাইল 1248
▁Jawaharlal 1248
▁उलझ 1248
തന്ത്ര 1248
ரம்ப 1248
▁ముఖ్యమైన 1248
़़ड 1248
news 1248
▁Saharanpur 1247
▁അവയവ 1247
▁mechanism 1246
മുട്ട 1246
▁ரூ 1246
▁அக 1246
▁వెనుక 1246
▁فل 1246
▁পাল 1245
▁দেয়া 1245
▁गणतंत्र 1245
▁डायरेक्टर 1245
സെ 1245
പെട്ട 1245
▁چھوٹا 1245
▁ہزار 1245
▁সবসময় 1244
ടു 1244
வுடன் 1244
▁యు 1244
▁नौकरशाह 1244
▁থাকলে 1243
▁সংক্রান্ত 1243
▁মৃত্যু 1243
▁zero 1243
▁आपातकाल 1243
ത്തിലേക്ക് 1243
▁పెరగ 1243
▁ఎదుర 1243
▁స్టేషన్ 1243
▁جے 1243
▁কাঠ 1242
▁ഇന്ന 1242
ത്തേക്ക് 1242
▁மாநில 1242
ంగి 1242
ూర్ 1242
కర్ష 1242
▁referring 1241
▁Manager 1241
▁जुलूस 1241
▁والوں 1241
▁boycott 1241
▁৮ 1240
▁वंचित 1240
▁ایڈ 1240
▁समन्वय 1239
▁ट्रैफिक 1239
▁അതേ 1239
▁సహజ 1239
▁पर्रिकर 1239
▁एजेंडा 1239
▁प्लास्टिक 1238
முள்ள 1238
ப்பாடு 1238
▁லி 1238
▁எடுக்க 1238
ట్స్ 1238
▁سری 1238
▁existence 1237
▁अनियमितता 1237
▁ശസ്ത്രക്രിയ 1237
▁விருப்ப 1237
▁கடல் 1237
▁Aadhaar 1237
▁सोसाइटी 1236
▁ویسے 1236
▁വീട്ടില 1235
▁செலுத்த 1235
ాత్మక 1235
▁ناک 1235
യോഗ 1234
▁విష 1234
▁जितेंद्र 1234
ിനൊപ്പം 1233
▁కలి 1233
জ্জ 1232
▁improving 1232
▁suspicious 1232
▁Ratna 1232
▁बलात्कार 1232
▁مسلسل 1232
▁തടസ 1231
▁உரு 1231
▁ذہنی 1231
▁پہنچنے 1231
तैयबा 1231
▁തിരിച്ച 1230
▁apex 1230
▁operating 1229
▁बहिष्कार 1229
▁اتنا 1229
▁Kapoor 1228
ొక్క 1228
పతి 1228
▁हलफनामे 1228
▁जाकिर 1228
▁হয়নি 1227
▁पड़ोस 1227
జో 1227
▁بائیں 1227
▁plastic 1226
▁സഹോദര 1226
▁ঘটে 1225
▁போர் 1225
▁امکان 1225
কল 1224
▁Thane 1224
▁निरीक्षण 1224
▁భారతదేశంలో 1224
▁جیسا 1224
স্তু 1223
▁এগুলো 1223
▁सिनेमा 1223
▁बदनाम 1223
▁announce 1222
▁मुसीबत 1222
▁ടൈ 1222
▁জ্বালা 1221
▁cooperate 1221
▁இடையில் 1221
کٹ 1221
▁পূর্ণ 1220
ശൈലി 1220
▁গতি 1219
▁ஆர 1219
▁अब्बास 1219
▁পুরুষ 1218
▁acquitted 1218
▁যাদের 1217
▁Bapu 1217
▁چہرے 1217
▁ہماری 1217
▁छिड़ 1216
নীয় 1215
▁expectations 1215
اک 1215
▁उम्रकैद 1215
ിക്കാൻ 1215
▁Javadekar 1215
▁গ্যা 1214
▁constant 1214
▁serial 1214
▁satisfied 1214
▁సలహా 1214
పెట్ట 1214
rickshaw 1213
ോളം 1213
▁కాలం 1213
▁الٹ 1213
▁ceasefire 1213
র্ব 1212
▁अकादमी 1212
▁വെളുത്ത 1212
▁പൂജ 1212
▁ఆఫ్ 1211
▁সম 1210
লাস 1210
▁automatic 1210
▁device 1210
▁ஐந்து 1210
▁దో 1210
వంత 1210
▁ఆమె 1210
െപ്പോലെ 1209
త్స 1209
لوں 1209
صر 1209
▁squad 1209
▁हलफनामा 1209
▁बंसल 1209
াঙ্গ 1208
ত্য 1208
▁negotiation 1208
▁ജീ 1208
▁ஒரே 1208
▁جسے 1208
▁पाटीदार 1208
▁Prevention 1207
▁पीढ़ी 1207
▁வெற்றி 1207
▁இல்லாத 1206
▁வச 1206
▁طریقے 1206
▁فروغ 1206
ল্ল 1205
▁രാമ 1205
స్తున్న 1205
ంచి 1205
আর 1204
ப்பட்டு 1204
▁मैनेजर 1203
▁ماد 1203
▁থাকেন 1202
▁লাইন 1202
▁appreciated 1202
▁மாற 1202
ంక 1202
▁rupee 1201
▁മധുര 1201
ఫో 1201
▁उपराष्ट्रपति 1201
▁প্রেম 1200
▁என்பது 1200
▁வடிவில் 1200
▁تی 1200
▁पूंजी 1200
কল্প 1199
▁DNA 1199
▁अनुशासन 1199
▁डिप्टी 1199
▁സംരക്ഷിക്ക 1199
▁മൂലമ 1199
▁சக்கர 1199
▁వచ్చింది 1199
▁kidnapping 1199
▁INS 1199
▁ভক্ত 1198
ച്ഛ 1198
▁നെഞ്ച 1198
ബ്ര 1198
த்தையும் 1198
▁مہینے 1198
▁पार्टियां 1198
யீ 1197
லம் 1197
చర్ 1197
ল্ড 1196
▁বিহার 1196
▁कैलाश 1196
ക്കുന്നത് 1196
▁Hizbul 1196
▁Madras 1195
▁सुलझाने 1195
▁பர் 1195
▁Vasundhara 1195
▁ভ্যা 1194
গী 1194
▁चुनौतियों 1194
▁इशरत 1194
স্প 1193
াবস্থা 1193
▁লাই 1193
▁जिम्मा 1193
ராய் 1193
▁தர்ம 1193
▁आरबीआइ 1193
▁আন 1192
▁ঔষধ 1192
▁मनरेगा 1192
▁panel 1191
ൊന്നുമില്ല 1191
▁অন 1190
▁একই 1190
▁discrimination 1190
▁गवर्नर 1190
▁कोतवाली 1190
▁बापू 1190
സും 1190
▁consensus 1190
▁वसुंधरा 1190
▁prohibit 1189
▁participating 1189
▁കുത്തി 1189
தூ 1189
▁infiltrate 1189
▁retirement 1188
യുമായി 1188
▁உருவாகிறது 1188
▁இவ்வ 1188
▁جدید 1188
▁आंसू 1188
▁হতো 1187
▁കരുതുന്ന 1187
కోసం 1187
Mantar 1186
▁വൃത്തിയാക്ക 1186
மன் 1186
ండ్ల 1186
▁రాజు 1186
▁رہیں 1186
▁प्रतिपक्ष 1186
▁ബാക്കി 1185
ிகள் 1185
▁பரவிய 1185
▁ऊंची 1185
▁চৌ 1184
▁முடிய 1184
ிருந்தது 1184
▁پیچھے 1184
▁যুব 1183
▁disrupt 1183
▁கொண்டாட 1183
ٹھی 1183
▁Ishrat 1183
▁ঐতিহাসিক 1182
▁विद्यार्थियों 1182
ുകയായിരുന്നു 1182
க்கண 1182
▁Prabhu 1181
ధ్ 1181
▁आंधी 1181
▁উচ্চ 1180
▁லட்ச 1180
▁அறிய 1180
▁ரெ 1180
కరణ 1180
పోయింది 1180
▁مار 1180
▁کپڑے 1180
বর্ষ 1179
▁প্রয়োজনীয় 1179
▁নো 1179
ാറില്ല 1179
ில்லாத 1179
▁نئے 1179
▁industries 1178
▁സംഭവിക്ക 1178
▁టా 1178
▁సంత 1178
▁তে 1177
▁ক্রি 1177
▁రైలు 1177
▁نئی 1177
▁مص 1177
▁ईवीएम 1177
▁तिहाड़ 1177
▁suspicion 1176
▁Pankaj 1176
▁ആഘോഷ 1176
▁چند 1176
▁عقیدت 1176
শ্রম 1175
▁തിരു 1175
▁شکایت 1175
▁Mukhtar 1175
▁assistant 1174
▁തിരക്ക 1174
ധാര 1174
▁துணி 1174
▁దేశంలో 1174
▁ج 1174
▁ص 1174
▁ചിത്ര 1173
▁ക്രിസ് 1173
▁பார 1173
▁ప్రమాద 1173
▁ఇచ్చ 1173
కృత 1173
▁Azhar 1173
▁পালন 1172
▁शास्त्री 1172
▁ഓഫ് 1172
▁നിമിഷ 1172
க்கால 1172
டிய 1172
▁ప్రయోగ 1172
▁Syria 1171
തിയ 1171
നായി 1171
▁குறைவான 1171
▁सप्लाई 1170
▁सिलेंडर 1170
ப்பொ 1170
నగర్ 1170
ٹھا 1170
▁پہلی 1170
▁ambassador 1169
றா 1169
వ్య 1169
▁పశ్చిమ 1169
▁పర 1169
▁بری 1169
▁बुरहान 1169
ുന്നതിനായി 1168
▁செயல 1168
ల్లా 1168
▁ప్రణాళిక 1168
▁ایم 1168
دم 1168
▁reconsider 1168
▁সড়ক 1167
▁पंकज 1167
▁നവ 1167
▁paramilitary 1167
▁পক্ষে 1166
▁দেশে 1166
– 1166
▁മിനിറ്റ 1166
எ 1166
ஞ்சு 1165
▁విశేష 1164
കളിലും 1163
ஹி 1163
▁CBSE 1163
▁constituencies 1163
▁পশু 1162
தும் 1162
ుకోవటం 1162
▁Rashid 1162
▁Vigilance 1162
▁হারিয়ে 1161
▁സമൂഹ 1161
▁ബേ 1161
▁ఛా 1161
▁తగిన 1161
జం 1161
▁ATS 1161
কান 1160
▁ഇതിന 1160
▁చరిత్ర 1160
▁حفاظت 1160
▁اصل 1160
বন্ধ 1159
▁ജില്ല 1159
▁జిల్లా 1159
▁مرد 1159
▁फ्रंट 1158
▁മണ്ണ 1158
▁ഓട 1158
வரும் 1158
▁ఇంత 1158
ఆ 1158
ٹے 1158
▁प्रशंसा 1157
▁जंतर 1157
▁वीरभद्र 1157
▁Assistant 1157
▁एजेंडे 1156
▁दहेज 1156
▁மீது 1155
▁நே 1155
▁ఒకే 1155
ఫా 1155
▁अजहर 1155
▁purview 1154
▁निरोधक 1154
മില്ലാത്ത 1153
▁കാര്യങ്ങള 1153
▁ഇപ്പോഴും 1153
▁நிலைய 1153
▁Sisodia 1152
മുക്ത 1152
▁கிராமம் 1152
بن 1152
▁veteran 1151
வற்றை 1151
சீ 1151
▁Poonch 1151
സംഖ്യ 1150
ടിയ 1150
▁అర్థం 1150
▁Lakshmi 1149
ളം 1149
கிரி 1149
னாக 1149
▁৫০ 1148
র্ন 1148
▁স্বপ্ন 1148
മായിരിക്കും 1148
▁വെറും 1148
▁அதிகம் 1148
▁కావ 1148
▁گاڑی 1148
▁एटीएस 1148
▁communities 1147
▁ആഴ്ച 1147
ഒ 1147
பிரதேச 1147
▁బౌద్ధ 1147
▁Diwali 1146
േജ 1145
▁ভারতে 1144
▁margin 1144
▁सुर्खिय 1144
▁democratic 1143
▁చదరపు 1143
▁Dwivedi 1143
ঙ্গু 1142
▁Vinay 1142
▁रिलीज 1142
ത്തിനായി 1142
▁എത്തിയ 1142
▁adjourned 1142
യുണ്ടായ 1141
ர்களின் 1141
▁داخل 1141
നില 1140
▁கூடிய 1140
డె 1140
ుకున్న 1140
▁ఎత్తైన 1140
ক্রা 1139
▁নব 1139
▁रवैया 1139
▁ഉപയോഗിച്ച 1139
വസ്ഥ 1139
▁اہمیت 1139
▁بلند 1139
▁abducted 1138
▁തുറക്ക 1137
▁கட்டு 1137
கின்றது 1137
సో 1137
▁ছয় 1136
▁ভবন 1136
▁இந்தப் 1136
▁मुख्तार 1136
২ 1135
രാഗ 1135
ക്കെട്ട 1135
▁കലാ 1135
▁తోట 1135
▁బస్సు 1135
▁Talwar 1135
▁भ्रष्ट 1135
▁VHP 1134
▁Rashtrapati 1133
▁செல்லும் 1133
రేషన్ 1133
▁Aviation 1133
▁পূর্বে 1132
േഷ്യ 1132
களுடன் 1132
▁ప్రవేశ 1132
राष्ट्र 1132
▁മാസം 1131
▁ప్యా 1131
▁फूंक 1131
▁একসাথে 1130
മാക്കുന്ന 1130
▁செல்வ 1130
▁அறிந்து 1130
▁స్థాపించ 1130
▁بجے 1130
ہا 1130
ओमप्रकाश 1130
ার্স 1129
▁principal 1129
▁employ 1129
▁சுர 1129
▁అందువలన 1129
ల్లి 1129
▁পূজা 1128
▁విమానాశ్రయ 1128
▁روایت 1128
▁celebrating 1127
▁എത്തുന്ന 1127
ബല 1127
థ్ 1127
▁रवैये 1127
ণ্য 1126
▁വരുത്ത 1126
▁പഠിക്ക 1126
▁വരെയുള്ള 1126
▁திரும்ப 1126
ుకొన 1126
పోర్ట్ 1126
▁مزہ 1126
▁पुंछ 1126
▁গি 1125
▁Secretariat 1125
షణ 1125
▁عالی 1125
হো 1124
▁پائی 1124
▁স্মৃতি 1123
▁expenses 1123
▁ভ্রমণ 1123
▁Ibrahim 1123
▁द्विवेदी 1123
▁कर्फ्यू 1122
▁বেশিরভাগ 1121
▁equipped 1121
▁pistol 1121
▁सीनियर 1121
▁अनदेखी 1121
▁ഏക 1121
ுடைய 1121
பால் 1121
னல் 1120
▁நின்று 1120
ప్పటి 1120
তন্ত্র 1119
▁Space 1119
▁ആസ്വദിക്ക 1119
▁compromise 1118
வன் 1118
▁ٹا 1118
▁नसीहत 1118
▁প্রভাবিত 1117
▁১৯ 1117
গুলির 1117
▁सुब्रमण्यम 1117
▁மத்திய 1117
▁Kotwali 1116
▁कॉलोनी 1116
్య 1116
نیا 1116
তলা 1115
▁করত 1115
° 1115
▁बर्दाश्त 1115
ശാ 1115
ചിത്ര 1115
டல் 1115
మణి 1115
▁ল্যা 1114
▁Virbhadra 1114
▁இடங்களில் 1114
▁প্রাণ 1113
▁চাল 1113
▁फैक्ट्री 1113
▁വിള 1113
▁அடிக்கடி 1113
నీయ 1113
▁వచ్చి 1113
▁মাল 1112
▁Muzaffar 1112
▁छानबीन 1112
▁தை 1112
ింపబడ 1112
▁అయినప్పటికీ 1112
▁రెండవ 1112
▁শব্দ 1111
▁चंद्रशेखर 1111
▁ലഭിക്ക 1111
▁முழுமையாக 1111
▁చూసి 1111
▁Burhan 1111
ড্র 1110
▁தகுதி 1110
ుకోవడానికి 1110
▁বাঁধ 1109
▁Bhagat 1109
കുന്ന 1109
ிட 1109
▁Ambani 1109
ட்ரோ 1108
▁வட 1108
▁ఉపయోగిస్తారు 1108
▁अभियोजन 1108
▁ভারত 1107
গ্ন 1107
▁പച്ചക്കറി 1107
▁അസ 1107
మల 1107
దం 1107
▁రామ 1107
▁بین 1107
▁इकबाल 1107
▁நாள 1106
▁మాట 1106
▁پن 1106
▁dowry 1106
नईदुनिया 1106
▁സ്വപ്ന 1105
▁உருவாக்கப்பட்ட 1105
▁motive 1104
▁സ്കൂള 1104
▁விளையாட்டு 1104
ూరి 1104
دو 1104
▁Administration 1103
ச்சா 1103
యోగ 1103
▁عورتوں 1103
▁Dilip 1102
▁വിഷ 1102
▁వంటి 1102
▁خوش 1102
০ 1101
▁ശ്വാസകോശ 1101
▁ആരും 1101
▁தோற்ற 1101
▁مذہبی 1101
▁১০০ 1100
▁ignored 1100
▁tighten 1100
▁കഴിവ 1100
▁உருவாக 1100
జ్ఞ 1100
▁నల్ల 1100
ഔ 1099
▁పోలి 1099
▁পৃথিবীর 1098
▁যুদ্ধ 1098
▁വൈകുന്നേര 1098
▁లోని 1098
▁अंबानी 1098
▁entrusted 1097
▁നോ 1097
ങ്ങളിലെ 1097
പ്പിച്ചു 1097
▁நாக 1097
▁అయ్య 1097
اق 1097
▁ট্রা 1096
▁প্রসিদ্ধ 1096
▁Panaji 1096
▁স্বা 1095
ரூ 1095
ைக் 1095
▁است 1095
▁Samaj 1094
▁సర్వ 1094
▁పొడవు 1094
▁एफडीआइ 1094
▁struggling 1093
▁മത 1093
▁மண 1093
▁அவர்களுக்கு 1093
ాలని 1093
▁grenade 1093
▁৪০ 1092
യാത്ര 1092
▁ഉത്തമ 1092
ాలపై 1092
▁దొ 1092
▁LPG 1092
ংক 1091
ডার 1091
▁அழைக்க 1091
వర 1091
نڈا 1091
▁siege 1091
দ্রা 1090
▁ছিলেন 1090
▁ప్రాంతంలో 1090
▁سہولت 1090
▁laundering 1090
Taiba 1090
ഭ്യ 1089
ுபவர் 1089
▁கொண்டிருந்த 1089
▁இணை 1088
जाब्यू 1088
▁বরং 1087
গ্রা 1087
▁যাত্রী 1087
ইল 1087
ബാധ 1087
▁కూడ 1087
▁Farmers 1087
▁cadre 1087
পত্র 1086
▁തുടര് 1086
▁മധ്യ 1086
▁ചെയ്തത് 1086
▁దానిని 1086
▁. 1086
▁زیارت 1086
ചന 1085
▁പുരുഷ 1085
▁رہنا 1085
▁Saraswati 1084
▁जगदीश 1084
▁মাসে 1083
▁transparency 1083
▁ലഭിച്ച 1083
▁ഉദാഹരണ 1083
▁చివరి 1083
▁چیزوں 1083
▁intervention 1082
▁বিশ্বের 1081
സംബന്ധമായ 1081
▁நிறுத்த 1081
▁வரலாற்று 1081
▁मैसेज 1081
পোর্ট 1080
▁পবিত্র 1080
▁Colony 1080
▁विहिप 1080
▁অধিক 1079
ৃত 1079
▁completing 1079
▁তুলনায় 1078
▁পৃথিবী 1078
ശേഷ 1078
మంత 1078
چہ 1078
مار 1078
▁حیرت 1078
শু 1077
േക്ക 1077
െപ്പറ്റി 1077
▁அவர்களின் 1077
▁Sheena 1077
▁Standing 1076
▁வண்டி 1076
▁نمک 1076
▁refusing 1076
இல் 1075
▁సామాన్య 1075
తన 1075
فا 1075
▁മുന്നില 1074
ங்களால் 1074
▁கிடைக்கும் 1074
▁பிரா 1074
బడ్డాయి 1074
హే 1074
▁Embassy 1074
▁হাসপাতাল 1073
ল্যান্ড 1073
▁tragedy 1073
▁Global 1073
▁پرانے 1073
▁নজর 1072
▁ক্ষেত্র 1072
ত্রী 1072
രംഗ 1072
ٰ 1072
▁আত্ম 1071
▁অল 1071
▁Expert 1071
വേഷ 1071
ത്തോട് 1071
▁பிறந்த 1071
▁కూ 1071
▁బై 1071
▁مق 1071
▁Pokhriyal 1071
▁OBC 1071
▁പകരം 1070
ത്വം 1070
▁போன்றவை 1070
▁نشان 1070
ট্রা 1069
▁തുടങ്ങുന്ന 1069
▁കാലത്ത് 1069
ళి 1069
దల 1069
▁Sarabjit 1069
▁পরিস্থিতি 1068
কিউ 1068
▁ஆகியவை 1068
▁ஓய்வு 1068
▁மழை 1068
▁చేయడానికి 1068
థా 1068
ഖ് 1067
▁మంద 1066
▁لگتے 1066
▁magistrate 1066
▁indigenous 1065
ുമാണ് 1065
ഫോ 1065
▁ഒക്കെ 1065
லாக 1065
▁உடைய 1065
த்திய 1065
▁అలాగే 1065
▁జన్మ 1065
▁নেয় 1064
മുഖ 1064
▁നാളെ 1064
▁வேறு 1064
▁ordinance 1064
▁৯ 1063
▁மிகப் 1063
▁లె 1062
లాండ్ 1062
▁روم 1062
আই 1061
▁System 1061
ব্য 1061
▁দল 1061
▁வாங்க 1061
ময় 1060
ండె 1060
▁കുട്ടികളുടെ 1059
▁ప్రయత్న 1059
▁رفت 1059
▁چاہتے 1058
▁അയാൾ 1058
▁যৌন 1057
▁ধ্বংস 1057
ాయ 1057
▁Protection 1056
▁demise 1056
ஸி 1056
யார் 1056
ాన్ 1056
▁گلی 1056
▁আলো 1055
েশ 1055
▁forcibly 1055
▁applicable 1055
ഫല 1055
ുണ്ടാക 1054
సై 1053
▁কেবল 1052
മാക്കി 1052
യൊക്കെ 1052
▁தடுப்ப 1052
▁دیکھتے 1052
▁racket 1052
▁কার্য 1051
ഫൈ 1051
▁அதி 1051
▁மெய் 1051
▁مغربی 1051
▁ঘট 1050
▁தீவு 1050
టై 1050
▁Respond 1050
▁Tribunal 1050
বোধ 1049
▁সাত 1049
▁বিমান 1049
▁இவ்வாறு 1049
▁شدہ 1049
▁সেন্ট 1048
▁హార్ 1048
▁సే 1048
government 1047
▁Vaghela 1047
▁حال 1047
▁encroach 1046
▁നോക്കിയ 1046
▁సమూహ 1046
▁رکھا 1046
ফল 1045
రవ 1045
భ్ర 1045
▁Examination 1045
ডেন 1044
▁corporate 1044
▁ആണെന്ന 1044
▁మొదట 1044
▁ముఖ్యంగా 1044
▁موقع 1044
▁বেল 1043
யன் 1043
▁ٹک 1043
▁প্রশ্ন 1042
മാണെന്ന് 1042
▁ఖా 1042
వేద 1042
ట్రో 1042
▁ام 1042
▁Session 1041
വായ 1041
ിലേക്കുള്ള 1041
சல் 1041
▁వాస్తవ 1041
▁গার্ 1040
▁রেলওয়ে 1040
▁മിനി 1040
▁യാത്രക്കാര 1040
بار 1040
▁Madhav 1039
▁കഠിന 1039
▁খবর 1038
চী 1038
கல் 1038
▁சொல் 1038
మని 1038
লিং 1037
▁রাজ্যের 1036
▁declaration 1036
▁യഥാര് 1036
▁صلاحیت 1036
▁ত্রি 1035
করণ 1035
▁మాట్లాడ 1035
قی 1035
▁عمدہ 1035
▁உணர்வு 1034
ைப் 1034
▁మానవ 1034
▁கருத்து 1033
யாளர் 1033
గ్గ 1033
▁Energy 1032
▁ചെയ്യേണ്ടത 1032
▁അറിഞ്ഞ 1032
▁విషయాల 1032
▁వీటిని 1032
▁Reliance 1032
▁স্বাভাবিক 1031
্যান 1031
▁১৭ 1031
ുമ്പോൾ 1031
▁বিয়ে 1030
▁ஷ 1030
▁సహాయ 1030
▁curfew 1030
▁Neeraj 1030
ফ্ 1029
▁വിധ 1029
▁జు 1029
▁నేరుగా 1029
ంటు 1028
▁స్థానిక 1028
న్నె 1028
▁విదేశీ 1028
രൂപ 1027
ஸ்ட 1027
மான் 1027
▁రాష్ట్ర 1027
▁خیال 1027
পার্ 1026
மூ 1026
▁Karunanidhi 1026
▁നടത്തി 1025
ہو 1025
▁جلدی 1025
▁عالمی 1025
▁Sadhvi 1025
ுவதற்காக 1024
விட்டு 1023
▁అందు 1023
▁تاکہ 1023
ീഷ 1022
വച്ച 1022
▁యువ 1022
ട്ടോ 1021
யைச் 1021
▁Dharmendra 1021
▁இந்தியாவின் 1020
▁معمول 1020
▁پال 1019
െങ്കിൽ 1019
പ്പെടുത്തുന്ന 1018
▁ഹരി 1018
ിരുന്നത് 1018
▁பாதுகாப்பு 1018
▁జరుగ 1018
▁ابھی 1018
ുന്നതിന 1017
▁மஞ்சள் 1017
▁ఎటువంటి 1017
మెంట్ 1017
▁കാറ 1015
▁కర్ 1015
▁তাঁর 1014
▁வெளியேற்ற 1014
▁நூற்றாண்டில் 1014
தேவி 1014
▁প্রক্রিয়া 1013
പോയി 1013
▁உயிர 1013
▁ফ্র 1012
রেট 1012
▁നിന്നുള്ള 1012
ഭക്ത 1012
▁ഷാ 1012
▁సంబంధం 1012
ధీ 1012
▁تبدیلی 1012
▁Iqbal 1012
▁Piyush 1012
▁demolish 1011
ഓ 1011
உ 1011
ദിന 1010
▁ചിന്തിക്ക 1010
జీవ 1010
▁সম্পর্ক 1009
▁రాజ్య 1009
▁accelerate 1008
▁സംഗീത 1008
▁கொழுப்பு 1008
▁அமர் 1008
పద 1008
▁تھوڑی 1008
▁مقابلے 1008
▁بتا 1008
▁شیر 1008
▁শিল্প 1007
▁Terrorist 1007
▁എത്തി 1007
▁വിട്ട 1007
▁جنگ 1007
লিয়া 1006
▁سخت 1006
▁منظر 1006
▁jewelery 1005
▁చేతి 1005
▁పంచ 1005
▁وا 1005
▁കറുത്ത 1004
▁సంతోష 1004
▁رکھنا 1004
▁জাহাজ 1003
▁গড় 1003
▁സ്വീകരിക്ക 1003
പാല 1003
▁డై 1003
▁റൂ 1002
▁இங்குள்ள 1002
▁భావ 1002
▁হলুদ 1001
യ്ക്കുള്ള 1001
ഡീ 1001
ണമെന്ന് 1001
▁பங்கு 1001
మూ 1001
താക 1000
▁షా 1000
▁স্থানীয় 999
പന 999
ച്ചി 999
▁உபயோக 999
▁Gowda 999
= 998
▁அரசாங்க 998
த்தைத் 998
ாவில் 998
▁এমনকি 997
▁ബോധ 997
▁ഒളി 997
▁ثابت 997
▁procurement 996
▁മദ്യ 996
▁மருத்துவமனை 996
▁ஆண்டு 996
▁பரம்பரை 996
గర్ 996
దర 996
▁خشک 996
▁بچا 996
▁محض 996
▁বিশেষজ্ঞ 995
▁এগিয়ে 995
▁রাখে 995
▁গ্যাস 995
സര 995
ീകരണ 995
▁സംശയ 995
ഭൂമി 995
▁ഇപ്പോൾ 995
▁Pulwama 995
▁കുട്ടികളെ 994
▁ഇല്ലാതാക്ക 994
വില 994
▁కేంద్ర 994
য়েড 993
▁গণ 993
▁بہن 993
▁মুক্ত 992
▁Simultaneously 992
ஃப் 992
▁প্রচুর 991
▁সংস্কৃতি 991
▁ബ്ല 991
▁ఉన్నారు 991
▁ബഹ 990
▁ഭാഷ 990
▁১১ 989
▁بھا 989
▁دا 989
பர 987
▁ష 987
▁చేశారు 987
▁چور 987
▁impose 987
ரும் 986
ப்படை 986
▁کئے 986
▁درجہ 986
▁സംരക്ഷണ 985
▁അപ 985
▁ഫോണ 985
▁అడవుల 985
▁مقامی 985
ঢ় 984
▁ঘটনা 984
ബ്ബ 984
▁അമിത 984
பட்ட 984
கூ 984
▁அமைத்த 984
▁ఫ్ర 984
స్థి 984
▁শহরে 983
കട 983
തെന്ന 983
గమ 983
ীন 982
▁পরিষেবা 982
▁পানি 982
സിനെ 982
▁ക്ര 982
▁ഷോ 982
▁பெரு 982
▁چیز 982
▁سات 982
▁پڑے 982
▁বিদেশী 981
ന്റ 981
▁ஹெ 981
డ్డ 981
▁گول 981
স্বরূপ 980
▁একমাত্র 980
സീ 980
▁இருப்பினும் 980
పొ 980
▁చౌ 980
▁വൃക്ക 979
ங்கோ 979
▁എസ് 978
▁కల్ 978
▁خرید 978
▁کٹ 978
▁Gogoi 978
ഡിയ 977
മൂ 977
▁இந்தக் 977
▁വ്യത്യസ്ത 976
▁தெ 976
▁దశ 976
▁২৫ 975
ంటాయి 975
▁ஷா 974
▁సహ 974
▁دکھ 974
▁لائق 974
▁ছবি 973
▁రక్షించ 973
▁تجربہ 973
കളാണ് 972
▁ബസ 972
▁వీటిలో 972
ন্না 971
é 971
▁প্রি 970
కృతి 970
▁شراب 970
▁اتنی 970
প্প 969
বাহ 969
▁ഓഫീസ 969
ங்கே 969
▁స్వా 969
▁കത്ത 968
▁உற்பத்தி 968
▁పుట్ట 968
▁ചിരി 967
▁இணைந்த 967
▁திருவிழா 967
▁ചെന്ന 966
േക്കും 966
மிக்க 966
▁அமைப்ப 966
▁మొదలగు 966
▁എങ്കിലും 965
ఉ 965
ائب 965
یئر 965
▁কাছ 964
▁گڑھ 964
▁জৈন 963
ుకుంటారు 963
▁తూర్పు 963
জাত 962
▁নানা 962
▁മുന്ന 962
பிர 962
رم 962
▁دھوپ 961
ிலுள்ள 960
▁போன்றவற்ற 960
▁لمبا 960
▁গ্রে 959
لک 959
▁গবেষণা 958
▁তাপমাত্রা 958
▁చేస్తూ 958
▁പ്രകാശ 957
ப்பூ 957
▁టై 957
▁برابر 957
ியம் 956
ఖా 956
جان 956
കാന് 955
களினால் 955
ிடம் 955
மர 955
▁విమాన 955
▁طاقت 955
▁ജന്മ 954
▁அகல 954
▁నాగ 954
▁రాజా 954
ٹس 954
ൊട 953
ണമെന്ന 953
రించ 953
▁سکے 953
വർ 953
▁సంస్థ 952
మంది 952
▁സൂക്ഷിക്ക 951
▁ഉച്ച 951
▁వర్ష 951
ক্টর 950
খণ্ড 950
▁വാര് 950
▁വെളിച്ച 950
ട്യൂ 950
▁ടൂറിസ 950
▁బ్యా 950
▁কার্যক্রম 949
▁നിന്നാണ് 949
மாகவும் 949
▁இந்தியாவில் 949
▁ఫై 949
▁বেঁচে 948
▁অপারেশন 948
▁ധരിക്ക 948
▁ദോഷ 948
▁పవిత్ర 948
▁تحت 948
ভ্র 947
▁অস্ত্র 946
▁படை 946
▁مطلب 946
ক্রি 945
▁ఉండేది 945
▁باندھ 945
▁অপ 944
▁স্থাপিত 944
▁மக்களின் 944
▁بنیاد 944
▁ٹوٹ 944
▁വിളിച്ച 943
ித்து 943
▁கண்ண 943
▁కట్ట 943
▁ماہر 943
வரின் 942
పదార్థ 942
▁پہن 942
▁قیام 942
▁மீன் 941
▁بتایا 941
▁বাস্তব 940
യോട് 940
ത്തന്നെ 940
▁పసుపు 940
▁మౌ 940
দেহ 939
▁രണ്ടാമത്തെ 939
▁ప్రక్రియ 939
▁జయ 939
ندے 939
▁রোড 938
▁مچھلی 938
▁خوشبو 938
▁پڑتی 938
▁কর্ 937
35 937
చూ 937
لیس 937
▁دہلی 937
▁காணப்பட்ட 936
ధాన 936
▁آسان 936
▁സർ 936
▁கிழக்கு 935
▁سمجھ 935
▁তল 934
▁ത്രി 934
திர் 934
یب 934
▁കണക്ക 933
ടിച്ച 933
▁కలిగించ 933
▁മീന 932
▁വികസന 932
▁உப்பு 932
ப்பதற்காக 932
▁விளைவு 932
లేక 932
সহ 931
▁കുഞ്ഞു 931
సన్ 931
▁కాలంలో 931
▁অনি 930
മാരെ 930
▁மக 930
வார் 930
▁அதே 930
ேஸ்வர 930
▁సౌకర్యం 930
▁భో 930
▁اسکی 930
ব্যা 929
▁মানব 929
▁দোকান 929
▁സുഹൃത്ത 929
സ്വ 929
கொண்ட 929
200 929
▁అభి 929
ট্র 928
ভূমি 928
▁പോളി 928
▁రాయ 928
▁న్యూ 928
▁অস্থি 927
▁டே 927
▁ঝু 926
পরি 926
▁విశ్వ 926
మయ్య 926
▁علاقوں 926
▁আশেপাশে 925
▁ডো 925
▁അവസര 925
ക്കണക്ക 925
▁കാണിച്ച 925
ద్య 925
▁త్రి 925
▁بارہ 925
▁আয়োজন 924
▁উঠে 924
▁ஈர 924
▁உறுதி 924
▁ممبئی 924
▁মৃত্যুর 923
▁ഓടി 923
▁శాంతి 923
▁ചൈന 922
గీ 922
వాడు 922
▁ظاہر 922
▁গ্রন্থ 921
▁പിന് 921
▁مشرق 921
৩ 920
▁১৩ 920
▁കൊള 920
▁നിയന്ത്രണ 920
▁آپریشن 920
پورٹ 920
▁হত 919
▁அம்ம 919
ందుకు 919
▁حد 919
পর 918
▁പൊടി 918
ఝ 918
75 917
▁కాం 917
▁স্কুল 916
▁പഠന 916
களைக் 916
மம் 916
▁பதி 916
▁তিনটি 915
▁ചേര 915
డర్ 915
▁نوجوان 915
گار 914
▁மேற்கு 913
▁స్త్రీల 913
కంగా 913
▁آیا 913
▁سرحد 912
ম্যান 911
▁গ্রহণ 911
ിരുന്നില്ല 911
▁പ്രസവ 911
ശക്തി 911
ులతో 911
▁പുറത്തേക്ക 910
▁ఆరు 910
▁ఇప్పటి 910
▁انگلی 910
▁നൃത്ത 909
▁வளை 909
ేంద్ర 909
৩০ 908
ிக்கும் 908
▁కలుప 908
▁কিছুটা 907
▁ശ്രമിക്ക 907
ாளி 907
▁کون 907
▁وہیں 907
▁چکر 907
▁দুর্ 906
വേദ 906
▁మాత్రమే 906
▁صحیح 906
ٹو 906
২০০ 905
▁সেখান 905
▁விலை 905
▁ఆధునిక 905
وے 905
تھا 905
্রু 904
ന്റ് 904
தன 904
ధారణ 904
శక్తి 904
പോക 903
▁பின்ன 903
టన్ 903
▁لمبے 903
بت 903
▁بنائے 903
▁f 902
மண 902
▁డ్ర 902
▁క్రింది 902
▁دائیں 902
ہم 902
▁করছেন 901
േജ് 901
▁சேர்ந்த 901
▁ఉష్ణోగ్రత 901
ినట్లు 901
▁سونے 901
▁ডু 899
র্স 899
പിടിച്ച 899
▁کھو 899
▁چلنے 899
قب 899
ിനോട് 898
ിയത് 898
▁அரி 898
▁0 898
▁ఇంకా 898
▁వార 898
▁അന്തരീക്ഷ 897
▁سرگرم 897
▁সম্বন্ধে 896
ീവ് 896
ంగు 896
▁కొవ్వు 895
▁ప్రారంభించ 895
▁সিংহ 894
▁ഉണ്ടാകും 894
ுவதை 894
▁தொடர்பு 894
▁ഉപദേശ 893
▁ഇത്രയും 893
ഥികള 893
▁சேர்ந்து 893
▁கடவுள் 893
షా 893
చీ 893
వో 893
▁حامل 893
▁فری 893
▁پسند 893
ওয়ে 892
▁നശിപ്പിക്ക 892
ോടെ 892
யற்ற 892
▁ஓட 892
▁بنیادی 892
্ল্যা 891
ക്കര 891
▁వివిధ 891
ధ్వ 891
▁తీర 891
ائم 891
▁মিশ্র 890
▁പണ 890
▁ஆழ 890
్లో 890
పాద 890
ாகவும் 889
▁ఆధార 889
▁మ్యూజియం 889
ارے 888
▁দীর্ঘ 887
ত্রা 887
▁വെറുതെ 887
స్కో 887
▁میرے 887
സ്റ്റി 886
ணு 886
▁ദിന 885
പ്പെടുത്തിയ 885
ിരിക്കുകയാണ് 885
▁യന്ത്ര 885
▁మనిషి 885
شت 885
▁جنوبی 885
പൊ 884
▁സൗ 884
டாக 884
▁দান 882
▁ব্রা 882
▁শাহ 882
▁ഉപയോഗിച്ച് 882
മുണ്ടാ 882
▁ട്രെയിന 882
▁நெல் 882
▁పట్టణ 882
▁సంస్కృతి 882
▁శిల్ప 882
▁രഹസ്യ 881
▁പകുതി 881
റിഞ്ഞ 881
▁இடை 881
▁తెర 881
▁بان 881
▁ক্যান্সার 879
▁ഫെ 879
▁இரும்பு 879
ంటా 879
▁প্রাণী 878
▁உயர்ந்த 878
▁ہاں 878
▁ചന്ദ്ര 877
▁ব্লা 876
గానే 876
▁పిలువబడ 876
చార 875
ാണെന്ന 874
െന്നു 874
▁অন্তর 873
ാനാണ് 873
▁பஞ்ச 873
▁ప్రస్తుతం 873
▁জীবনে 872
▁ഫ്ല 872
▁കടന്നു 872
▁واپس 872
▁হিন্দু 871
▁പ്രതിരോധ 871
▁തീവ്ര 871
▁ആധുനിക 871
▁திரவ 871
▁மும்பை 871
▁అర్థ 871
▁ఆడ 871
▁కాల్ 871
▁டாக்டர் 870
▁ద్వార 870
▁یادگار 870
ட்ச 869
▁இடையே 869
▁ஒன்றாக 868
▁صدر 868
▁তত্ত্ব 867
▁നാട 867
▁نیو 867
லால் 866
▁ఉండవచ్చు 866
స్టా 866
▁مگر 866
▁آف 865
▁مقبول 865
▁உயர் 864
▁உள் 864
▁அழைத்த 864
▁عناصر 864
▁২৪ 863
ുമായിരുന്നു 863
▁கீ 863
భి 863
▁এরা 862
মত 862
▁চার্চ 862
நேர 862
▁লড়াই 861
াংশ 861
▁கேட்க 861
ళ్ల 861
ں 861
▁رائ 861
▁অর্ধেক 860
▁മുമ്പ് 860
▁ఆంగ్ల 860
▁فطری 860
▁নিয়ন্ত্রণ 859
▁நல 859
களிலும் 859
▁உடன் 859
▁மக்கள 858
த்துக்கு 858
▁బే 858
శేష 858
▁గుర్తించ 858
▁بھوک 858
▁শ্র 857
▁আকাশ 857
ക്കാണ് 857
ുകൊണ്ടിരിക്ക 857
▁எதிர 857
భ్య 857
ేవారు 857
▁پور 857
▁نہایت 857
شہ 857
▁നിൽക്ക 857
র্ষ 856
വിനെ 856
▁ہائی 856
▁അതിന്റെ 855
▁పాత 855
▁آٹھ 855
▁پکڑ 855
ধারণ 854
ন্যা 854
രക്ഷ 854
െങ്കില 854
യാണെന്ന് 854
▁കൂട്ടുകാര 853
ானது 853
▁இறங்க 853
▁పూర్వ 853
وف 853
▁സേവന 852
▁గుణ 852
▁شو 852
▁ഇത്തരം 851
പേര 851
স্ব 850
റ്ററ 850
தல 850
▁தன்மை 850
▁چاند 850
ক্কা 849
യോടെ 848
99 848
கெ 848
పాల 848
نڈر 848
▁لوٹ 848
▁অনুসারে 847
চ্চ 847
ുണ്ടാക്കുന്ന 847
▁വിട്ടു 847
▁లక్షల 847
కోట 847
▁گزار 847
▁বার্ 846
▁ঢাকা 846
▁చారిత్రక 846
కాలం 846
▁প্লে 845
▁వాహన 845
భు 845
▁مشرقی 845
ক্ষু 844
ങ്ങളായി 844
▁لگایا 844
▁প্রকার 843
▁রাজধানী 843
శ్వ 843
▁স্থাপন 842
ঞ্জা 842
വയ്ക്ക 842
▁എന്നതാണ് 842
▁ஆம் 842
▁அரச 842
ాల్లో 842
▁కొందరు 842
▁جگ 842
▁ഒഴിവാക്ക 841
▁மையமாக 841
▁আঘাত 840
▁കിടന്ന 840
▁பயன்படுகிறது 840
▁జాగ్రత్త 840
▁బుద్ధ 840
▁পক্ষ 839
ட்டம் 839
ட்டோ 838
▁বসবাস 837
▁তীব্র 837
▁జరగ 837
▁సామర్థ్య 837
▁آواز 837
▁பாதுகாக்க 836
▁అత్యధిక 836
▁వయసు 835
ధార 835
▁نجات 835
▁سکون 835
▁পেরে 834
▁ബുദ്ധി 834
ஷன் 834
▁கம்ப 834
நே 834
▁பக்தர்கள 834
▁దీన్ని 834
▁అనే 834
▁پہچان 834
▁اح 834
ঘাত 833
▁চক্র 833
▁ബാധിച്ച 833
▁ചെലവ 833
ائر 833
্বা 832
▁കാത്തിരിക്ക 832
▁ഭാഗ്യ 832
கன் 832
▁வருகின்றனர் 832
▁درج 832
▁পদ্ধতিতে 831
▁তৃতীয় 831
৫০ 831
▁നാള 831
▁வருவ 831
▁అమ్మ 831
▁ഡ്ര 830
▁നീണ്ട 830
സ്ഥിതി 830
▁മനസില 830
▁মার্ 829
▁ஆறு 829
▁میری 829
ென்று 828
▁நீள 828
▁మొక్క 828
ক্ল 827
▁സ്ഥാനത്ത 827
కుడు 827
▁بھول 827
▁ہوگی 827
▁مغرب 827
কালীন 826
ించు 826
▁مست 826
ুদ্ধ 825
▁തടവ 825
▁இன 825
ிறார் 825
▁நிறுவ 825
ుకొన్న 825
▁சேவை 824
▁کیسے 824
▁ন্যাশনাল 823
গুলোর 823
▁പുരുഷന്മാര 823
▁کردی 823
রিক 822
থু 822
▁সিদ্ধান্ত 822
ട്രി 822
▁முழுமையான 822
కరించ 822
▁శిక్షణ 822
▁خدمات 822
িক্যাল 821
ারি 821
▁കെട്ടി 821
▁என்பதை 821
ிற்காக 821
ফো 820
ാണെന്നു 820
▁ഹിന്ദു 820
▁இரண்டாவது 820
పోయి 820
▁మైదానం 820
یکٹ 820
▁ٹھ 820
▁অসুস্থ 819
▁வெண் 819
▁వర్ 819
న్నీ 819
గిరి 819
▁لمبی 819
▁തുടക്ക 818
صلاح 818
▁مردوں 818
▁دوبارہ 818
▁আমেরিকা 817
শক্তি 817
▁ভেঙে 817
▁കൂട്ടി 817
ുണ്ടായ 817
▁வைர 817
▁தவற 817
▁പ്രവേശിക്ക 816
ോടും 816
▁పాత్ర 816
▁క్ల 816
▁భా 816
▁خالص 816
▁சேர் 815
கண்ட 815
▁పరిస్థితి 815
▁നാല 814
നട 814
▁കൊണ്ടുപോക 814
கூட 814
▁বজায় 813
ശേഖര 813
ാമെന്ന 813
▁پڑا 813
களிடம் 812
களுக்கும் 812
▁முடியாது 812
▁بننے 812
▁বলেছেন 811
প্রা 811
▁അപേക്ഷ 811
பீ 811
నల్ 811
్యు 811
▁ఆట 811
▁رفتار 811
▁چیت 811
▁പരിശോധിക്ക 810
രാമ 810
▁തീരുമാന 810
▁അഭി 810
▁எதிர்ப்பு 810
▁కాంతి 810
▁ఉత్సవ 810
▁ملتے 810
▁দুজন 809
▁മോഹ 809
தற்கு 809
▁சிறப்பாக 809
▁అతడు 809
▁জেলার 808
ন্দু 808
വെള്ള 808
▁இடத்தை 808
▁இணைக்கப்பட்ட 808
ചര 807
▁చర్చి 807
▁ప్రేమ 807
// 807
▁కార్యక్రమం 806
▁జరిగిన 806
▁روڈ 806
▁جمع 806
▁ڈو 806
ുകളിലും 805
▁നീര 805
ப்பட்டுள்ளது 805
ాబాద్ 805
▁পুরুষদের 804
தெ 804
▁సమాచార 804
▁ایچ 804
▁قلب 804
▁বংশ 803
▁এয়ার 803
▁കള്ള 803
▁കിലോമീറ്ററ 803
ப்புற 803
▁నిర్మాణ 803
▁دوسرا 803
▁سوچ 803
▁മാത്രമ 802
▁மது 802
தன் 802
▁டோ 802
▁ஜெய 802
ஹ் 802
▁গল্প 801
தர 801
చ్చే 801
పర 801
▁கூறுகிறார் 800
▁జె 800
▁موسیقی 800
▁എം 799
ஜெ 799
▁তীরে 798
▁എഴുത 798
▁వృద్ధి 798
ేందుకు 798
▁ইংরেজ 797
പരി 797
▁நம்பிக்கை 797
▁رہائش 797
లైన 796
اتے 796
জেন্ট 795
▁അഞ്ച് 795
▁அத்துடன் 795
ண்டை 795
▁கருதப்படுகிறது 795
▁காற்று 795
మ్యూ 795
▁ٹرین 795
িয়ান 794
▁পঞ্চ 794
▁മൊ 794
டின் 794
▁శబ్ద 794
▁അറ 793
ശാന്തി 793
▁பொருள 793
▁చేస్తున్న 793
▁چمک 793
▁جبکہ 793
▁آگ 793
പ്പിക്കാന 792
யோடு 792
த்தார் 792
▁రసాయన 792
▁ప్రదర్శన 792
▁طے 792
ந்தது 791
▁இந்தியா 791
▁گلے 791
തിൽ 791
▁ബാല 790
டைந்த 790
▁اضافہ 790
▁చేపల 789
▁వున్న 789
▁فا 789
▁تھ 789
హో 788
▁تصویر 788
▁شک 788
সং 787
▁ড্যা 787
▁എന്തുകൊണ്ട 787
▁ഇന്ത്യ 787
த்தைச் 787
▁వ్య 787
▁ప్రభావితం 787
▁“ 786
▁നേരിട്ട 786
48 786
ூர 786
▁వదిలి 786
భీ 786
▁انہیں 786
▁سست 786
േണ്ടതുണ്ട് 785
ుతున్నారు 785
▁পূ 784
▁സമര 784
▁തിരിച്ചറിയ 783
▁സ്റ്റാ 783
▁വസ്തു 783
▁ط 783
▁مذہب 783
পন 782
▁শ্যাম 782
▁മുന്നോട്ട് 782
െല്ലാ 782
▁தடுக்க 782
▁வந்தது 782
தேவ 782
▁شکر 782
▁பொதுவாக 781
ন্দি 780
▁ആകെ 780
ந்திர 780
▁பெண்களின் 780
▁تھر 780
▁غلط 780
▁آخری 780
ৃষ্ট 779
▁رکھتے 779
▁ماہرین 779
ত্তা 778
▁আহ 778
▁క్రమ 778
▁അനുയോജ്യ 777
▁کمرے 777
▁خصوصی 777
▁নীচে 776
▁పద్ధతుల 776
▁తరచుగా 776
▁చేయబడింది 776
▁భుజ 776
▁سائنس 776
▁ഗുരു 775
▁காணப்படும் 775
▁சர 775
▁కూడిన 775
داد 775
ستہ 775
▁কার্যকর 774
ക്കാരുടെ 774
ാടി 773
ജോ 773
▁സംസാരിച്ച 773
▁മകന 773
ஸின் 773
▁வீடு 773
▁ஒன்ற 773
▁రకమైన 773
▁సామ 773
▁তোলা 772
▁ചോദിച്ച 772
▁رقص 772
▁বৈজ্ঞানিক 771
▁കൊണ്ടുവര 771
▁புது 771
▁கர 770
দল 769
▁എച്ച് 769
▁പൊതു 769
ിക് 769
ుకునే 769
జ్ఞాన 769
▁نیم 769
▁گزر 769
▁সংস্থা 768
▁வரிசை 768
▁రూపాయల 768
▁కళా 768
▁عادت 768
▁معاون 768
▁چپ 768
▁ఎప్పుడూ 767
▁সমান 766
▁ব্যবসা 766
▁প্লা 766
▁ബാധിക്കുന്ന 766
▁دکھا 766
▁سک 766
▁لائن 766
▁নিয়ম 765
বর্ত 765
▁পরিকল্পনা 765
▁ആരംഭിച്ച 765
ఐ 765
▁ఉత్తమ 765
▁முட்டை 764
▁ہندو 764
ফার 763
▁প্রদেশ 763
▁ചെയ്ത് 763
▁വ്യവസ്ഥ 763
னிய 763
▁خاتون 763
▁തലച്ചോറ 762
ఖ్ 762
▁చూస 762
▁شمالی 762
▁فقط 762
▁കണ് 761
▁സംഘ 761
▁இரண்ட 761
▁உயிர் 761
▁برا 761
▁লেখা 760
▁ഒപ്പം 760
▁ഫോട്ടോ 760
▁വീണ 760
బెట్ట 760
వాద 760
▁دال 760
اہ 760
దని 759
▁بھاری 759
▁خواہش 759
▁کھڑے 759
▁সাগর 758
▁ദൃശ്യങ്ങള 758
▁സൂക്ഷിച്ച 758
ില്ലെന്ന് 758
తను 758
▁نرم 758
യെല്ലാം 757
▁దెబ్బ 757
▁ఫె 757
رج 757
▁എന്നാൽ 757
ফট 756
த்துவ 756
▁பத்து 756
ரங்க 756
▁నగరాల 756
▁پہ 756
▁সম্মান 755
ান্ত 755
▁সম্ভবত 755
▁ডাক 755
~ 755
▁ভাইরাস 754
▁জনপ্রিয় 754
యము 754
▁ہفتے 754
▁রাই 753
▁ആറ 753
▁இதே 753
ழா 753
▁திரும்பி 753
వంతు 753
▁মুক্তি 752
▁দেবতা 752
▁വൈറസ 752
▁പ്ലാ 752
▁திசை 752
గ్రీ 752
▁صوبہ 752
হিত 751
▁দুটি 751
▁വ്യത്യാസ 751
▁കൊല 751
▁விளை 751
▁முறையாக 751
▁సూక్ష్మ 751
▁گوشت 751
▁প্রান্ত 750
▁ফ্রে 750
▁പോലീസ 750
கள 750
▁پرانی 750
▁زہر 750
▁வளர் 749
▁اسکول 749
ٹن 749
▁পরিচয় 748
ഉ 748
ാണല്ലോ 748
▁مضبوط 748
▁رکھتا 748
▁লক্ষ্য 747
േഴ്സ് 747
▁বই 746
▁పంప 746
▁ہنس 746
▁വാടക 745
ించారు 745
▁انتہائی 745
▁পদ 744
▁உதய 744
▁లక్షణాల 744
െടുക്കുന്ന 743
ക്കുകയാണ് 743
▁പുസ്തക 743
▁వారం 743
స్టి 743
▁പെരു 742
த்தன்மை 742
வாய் 742
ங்களாக 742
▁زور 742
▁এছাড়াও 741
▁ടെസ്റ്റ 741
▁കാണിക്ക 741
▁മാത്രമാണ് 741
55 741
▁విభాగ 741
స్టే 741
▁ہوکر 741
▁দৌড় 740
▁জুন 740
▁গান 740
▁പ്രശസ്ത 740
யையும் 740
▁செய்கின்றன 740
▁அறிவ 740
خت 740
▁বীর 739
▁ഇവര് 739
ങ 739
▁ഭംഗിയ 738
స్టర్ 738
▁تھیں 738
▁بہار 738
റ്റോ 737
▁ഇള 737
ம்பர 737
▁గూ 737
▁مچ 737
▁গুরুত্ব 736
▁হত্যা 736
▁എക് 736
நகர 736
▁برتن 736
منٹ 736
▁অধিকাংশ 734
রাস 734
మాన్ 734
مت 734
▁বোন 733
▁নিজস্ব 733
കാര്യ 733
க்கே 733
جے 733
▁ഭാവി 732
மையை 732
▁భాష 732
▁صفائی 732
স্থা 731
▁বাড়িতে 731
▁కన 731
▁لاکھ 731
তন 730
▁ഇതുവരെ 730
▁வியாபார 730
▁సంవత్సరాలు 730
বিদ 729
▁জ্ঞান 729
▁மாதிரி 729
ఫు 729
▁నిపుణ 729
▁ملنے 729
▁পরিবারের 728
▁ലഭിക്കും 728
▁പിടിച്ചു 728
▁సిద్ధ 728
▁خوراک 728
▁شان 728
▁কাছাকাছি 727
▁শতাব্দীতে 727
▁സേവ 727
ക്കൊ 727
▁தாவர 727
ரால் 727
▁గి 727
স্কো 726
▁ഇതിന്റെ 726
മാറ്റ 726
▁கண 726
▁கட்டிடக்கலை 726
యిల్ 726
▁അധികാര 725
▁అప్పటి 725
▁গিয়েছে 724
▁మార 724
তৃ 723
▁পঞ্চম 723
▁പരിചയ 723
▁പള്ളി 723
▁செய்தார் 723
▁வடக்கு 723
▁مش 723
▁എണ്ണം 722
▁దేవత 722
سط 722
വാസികള 721
▁ഭാവ 720
മുണ്ടായ 720
▁முதலாவது 720
▁கதை 720
▁ఎన్నో 720
▁కొబ్బరి 720
▁రైల్వేస్టేషన్ 720
▁مثال 720
গ্রী 719
▁এলাকা 719
യെന്ന 719
▁கட்டுப்பாடு 719
ான் 719
▁ক্যাপ্টেন 718
ഘട്ട 718
▁பெண்ண 718
▁آخر 718
▁இருக்கிறார் 717
▁காற்ற 717
பிள் 717
▁কোটি 716
▁தெற்கு 716
▁سمت 716
▁উই 715
க்கொண்டு 715
▁இள 715
▁జిల్లాలో 715
▁వ్యాపార 715
▁వస్త్ర 715
▁انھوں 715
▁എക്സ് 714
▁നേരിട 714
▁നായ 714
▁அவருக்கு 714
▁பிடிக்க 714
▁కణ 714
పరచ 714
▁చెక్క 714
▁مقدس 714
েক্ট 713
யிட 713
చ్ఛ 713
▁কন 712
▁സ്ഥിര 712
தற்கான 712
▁இன்னும் 712
▁కౌ 712
▁మార్ 712
مع 712
داری 712
▁নির্ভর 711
স্ত্র 711
ാനു 711
▁ആത്മ 711
ുണ്ടാകും 711
ാനാവില്ല 711
▁நை 711
▁وسیع 711
▁গ্রামে 710
▁സമാധാന 710
▁ప్లా 710
▁دروازے 710
تو 710
▁കടുത്ത 709
▁ഗോള 709
ത്താവ 709
▁நவ 709
▁నేషనల్ 709
▁کھلا 709
▁اچانک 709
ینہ 709
▁ভূমি 708
த்திற்கும் 708
మూల 708
▁పశు 708
▁గంగ 708
▁مٹی 708
▁সাল 707
▁মৃত 707
മണി 707
▁അവധി 707
ഥാപ 707
▁আধুনিক 706
▁പ്രത്യേകത 706
കളെയും 706
തായിരുന്നു 706
▁అమెరికా 706
న్నది 706
▁మరో 706
▁విలువ 706
▁ఏడు 706
▁அளவ 705
வரை 705
▁میڈ 705
▁لگی 705
▁স্ট্র 704
▁ഗവേഷണ 704
▁அடுத்த 704
▁சௌ 704
▁کرنی 704
▁رحم 704
▁کچ 704
ములు 703
▁ద్రవ 703
ക്കാൻ 703
▁জ্যাক 702
▁ধারণা 702
പോകുന്ന 702
▁புரோ 702
ோர் 702
▁నృత్య 702
వలసిన 702
▁فکر 702
▁ور 702
▁سوار 702
ുണ്ടെന്ന് 701
▁దేశం 701
▁చంద్ర 701
ؤ 701
▁کھول 701
▁ভবিষ্যত 700
റ്റിക് 700
▁கன 700
▁செலவ 700
புற 700
ியது 700
▁அலுவலக 699
▁వద్ద 699
▁సౌకర్య 699
▁సంపూర్ణ 699
▁ہوجاتے 699
▁چھٹی 699
▁ٹیکس 699
▁স্তম্ভ 698
▁ஆகிய 698
▁آبادی 698
▁நேர் 697
▁ప్రవాహ 697
▁గురు 697
▁గణ 697
▁اعلی 697
▁মূল্য 696
▁দায়িত্ব 696
ুয়া 696
ऐ 696
▁கட்டுப்படுத்த 696
▁ఎనిమిది 696
▁అనుగుణంగా 696
▁بھاگ 696
▁دار 696
▁তুলে 695
▁প্রজাতির 695
▁നിരവധി 695
▁പ്രാധാന്യ 695
மார் 695
▁ভিন্ন 694
▁খরচ 694
▁پاک 694
▁توانائی 694
৬ 693
റ്റു 693
నాథ 693
▁اڑ 693
വുമ 692
▁ஆண்டில் 692
▁ధరించ 692
▁শে 691
▁কিমি 691
നാള 691
▁வலிமை 691
▁தயாரிக்க 691
▁تاج 691
▁വൈകി 690
ിനെക്കുറിച്ച 690
▁வாச 690
▁தள 690
▁گہرا 690
▁শিক্ষা 689
രാജ് 689
▁ദക്ഷിണ 689
ள்ளி 689
▁ఫ్యా 689
▁دہ 689
সাই 688
▁கடைசி 688
▁చేసుకో 688
▁بدھ 688
▁স্টা 687
৮০ 687
സേന 687
▁தீர்த்த 687
సముద్రం 687
▁ڈگری 687
ö 687
േഷ 686
▁ചെയ്യാന 686
யாகவும் 686
ించడానికి 686
▁అంతర్జాతీయ 686
ഭേദ 685
▁நடத்த 685
▁கட்டப்பட்டது 685
▁وائرس 685
▁منصوبہ 685
▁সরকার 684
▁৬০ 684
ാതി 684
▁அமில 684
▁தனக்கு 684
▁స్థానంలో 684
డెన్ 684
▁چینی 684
▁പ്രവേശന 683
లింగ 683
▁نیا 683
▁اچھے 683
র্মা 682
▁തനി 682
കുട്ടി 682
చా 682
ుకుంటున్న 682
▁മറ്റുള്ളവര 681
ുണ്ടാക്കിയ 681
▁ആകാശ 681
புரி 681
వార్ 681
▁তেমন 680
▁গ্রা 680
▁ഉപേക്ഷിക്ക 680
மர் 680
▁اپ 680
▁ভূমিকা 679
ম্পা 679
▁அளவை 679
▁பெற்றது 679
▁چوک 679
▁طب 679
▁অবশিষ্ট 678
▁கண்ணாடி 678
▁சமூக 678
▁தற்கால 678
▁பிரம்ம 678
▁పరిణామ 678
ానిక 678
▁భారతదేశ 678
▁రకాలు 678
పురం 678
▁కేరళ 678
▁کیمپ 678
▁گجرات 678
▁യുവ 677
▁அவன் 677
▁ఎన్ 677
▁গোলাপ 676
চিত্র 676
▁கான் 676
ॅ 675
▁വലിച്ച 675
▁ശ്രമിച്ച 675
▁பரிச 675
▁நாட்டின் 675
▁దానికి 675
రాజు 675
▁మార్చ 674
▁వల్ల 674
ృష్ట 674
భా 674
▁సరిహద్దు 674
نت 674
யிலேயே 673
▁இந்து 673
லூ 673
బడతాయి 673
▁తిరుగు 673
▁سید 673
▁پلا 673
▁مغل 673
ার্থ 672
ുടേത 672
േഴ് 672
▁തിരികെ 672
லியா 672
▁கோயில் 672
▁مون 672
মুক্ত 671
▁প্রাপ্ত 671
হান 671
রেখা 671
▁അഞ്ചു 671
ிருக்கிறார் 671
నర్ 671
வாத 670
சார் 670
ூரில் 670
نڈے 670
▁مرا 670
വിധ 669
టెక్ 669
জিত 668
▁ഷെ 668
▁സിനിമ 668
▁விளையாட 668
▁ஆங்கிலேய 668
ర్ల 668
▁బ్రహ్మ 668
▁நன்கு 667
▁வரு 667
స్పష్ట 667
ியல் 666
మన్ 666
▁పాడ 666
▁ঈশ্বর 665
▁സാധ്യതയുണ്ട് 665
ാണെങ്കിലും 665
▁நடன 665
▁அளிக்க 665
▁ஜெ 665
▁సంవత్సర 665
৯০ 664
വരാണ് 664
▁தொண்ட 664
లెట్ 664
ঝা 663
গ্রাম 663
▁ఎం 663
స్తంభ 663
▁تعلق 663
▁ٹائ 663
ాలుగా 662
గె 662
স্কি 661
পূর্ব 661
▁কাশ্মীর 661
▁అవసరమైన 661
▁صوبے 661
▁প্রদেশের 660
▁তিব্বত 660
കുട്ടികള 660
മ്പ് 660
சியா 660
ச்செ 660
▁கேரள 660
ములో 660
▁ఆలోచన 660
▁متعدد 660
▁ইয়া 659
▁வீர 659
▁அர 659
రేట్ 659
▁لڑ 659
▁നയ 658
▁അവസരം 658
▁വിഷ്ണു 658
▁అడ్డ 658
ర్ధ 658
▁মাসের 657
കളിലൂടെ 657
▁முடிந்த 657
ூட்ட 657
▁ذرا 657
▁بیس 657
▁یقین 657
ؤں 657
▁ডিম 656
▁മുംബൈ 656
பால 656
▁بیل 656
ü 656
▁পেয়েছে 655
▁ആസിഡ 655
▁വായിക്ക 655
▁മത്സ്യ 655
▁کیے 655
▁പുറമേ 654
தான் 654
▁ஃப 654
▁குஜராத் 654
▁సౌకర్యాలు 654
▁ఘ 654
▁ఆలయంలో 654
▁پھنس 654
▁আক্রমণ 653
▁সক্রিয় 653
ഷന 653
▁வயதில் 653
ధన 653
▁پنج 653
▁দুর্ঘটনা 652
▁ഹൃദ്രോഗ 652
▁உத்தர 652
▁وقف 652
ایک 652
▁سامان 652
প্ট 651
▁পুরাতন 651
ున్న 651
▁జరుప 651
▁نفسیات 651
▁പോലീസ് 650
▁மலர் 650
▁అందరి 650
కార్ 650
▁جانتے 650
ডিয়া 649
▁ہن 649
গুপ্ত 648
▁ঘোড়া 648
▁শাসন 648
▁வருகிறார் 648
▁بلا 648
▁انگریز 648
▁వాయు 647
کٹر 647
یز 647
▁একত্রিত 646
গামী 646
▁கலவை 646
▁மைல் 646
ప్పటికీ 646
క్యూ 646
▁రై 646
▁ഇയാള 646
▁ডলার 645
ിങ്ങ 645
▁ഗുജറാത്ത 645
▁ஒப்ப 645
▁திரு 645
▁మార్గ 645
ہے 645
যোগ্য 644
▁സ്വാഭാവിക 644
ിനെയും 644
▁எல் 644
▁ত্যাগ 643
▁எஸ் 643
▁గౌ 643
▁مطالعہ 643
▁پہلا 643
▁தானிய 642
ுகின்றது 642
வல 642
▁மாவட்டத்தில் 642
▁వేసవి 642
▁అలా 642
▁نال 642
▁പെട്ടെന്നു 641
▁இறந்த 641
పోయే 641
▁গোপন 640
সম্ভব 640
▁கட்டுப்பாட்டில் 640
▁எண் 640
▁ஆர்வ 640
▁రాష్ట్రం 640
▁اف 640
▁چہ 640
▁চন্দ্র 639
▁വിഭാഗ 639
▁വ്യവസായ 639
▁புலி 639
▁ఏర్ప 639
▁کہنا 639
▁সামান্য 638
▁অভিযান 638
▁জেলায় 638
▁విస్తరించి 638
▁زر 638
▁دیکھنا 638
▁அல்ல 637
▁நோக்க 637
లంక 637
▁ജനിച്ച 636
ண்டர் 636
▁காஷ்மீர 636
తృ 636
▁گور 636
▁বীজ 635
নাম 635
▁അരി 635
പ്പുറത്ത 635
مال 635
▁نقطہ 635
▁শাসক 634
നിന്നും 634
▁கற்ப 634
களைத் 634
▁ஆரம்பித்த 634
▁தேவையான 634
▁நிற்க 634
▁چلتے 634
▁ব্যবহৃত 633
▁ബ്രഹ്മ 633
▁اول 633
ংস 632
র্প 632
ട്രോള 632
▁സമ്മാന 632
ిస్తే 632
▁آزاد 632
▁ہوسکتی 632
▁عطا 632
▁جشن 632
্ডার 631
▁వీరి 631
పరి 631
মূল 630
▁আগ 630
▁স্বামী 630
യുമാണ് 630
▁തെളിവ 630
▁പ്രതീക്ഷ 630
க்குப் 630
▁చెబుత 630
▁రూ 630
▁ఎయిర్ 630
▁عرصے 630
▁قدم 630
ئر 630
▁শেখ 629
▁তৈরী 629
▁সমা 629
▁ഉണ്ടെന്ന 629
▁కాక 629
▁ভিত্তি 628
▁குழு 628
▁விஞ்ஞான 628
ாக்சி 628
▁జాతుల 628
▁باز 627
্টার 626
▁നിരന്തര 626
▁സ്വഭാവ 626
▁ഹൗസ 626
வருக்கு 626
▁తొలగించ 626
క్షేత్ర 626
এস 625
▁যেটি 625
▁പ്രദര് 625
▁వంశ 625
چے 625
▁رانی 625
▁పరిశోధక 624
▁చలికాలం 624
▁تعلیم 624
▁এইচ 623
▁স্পর্শ 623
▁গান্ধী 623
▁വിഷയ 623
ங்களிலும் 623
யாளர்கள் 623
▁లెక్క 623
▁ٹیک 623
▁زمانے 623
▁সদস্য 622
▁জেলা 622
ഐ 622
ക്കിട 622
▁ദീര് 622
▁நிறை 622
▁அணை 622
శైల 622
ాపక 622
▁గె 622
▁چلتا 622
ন্দ্র 621
▁জমি 621
▁মসজিদ 621
▁செய்தி 621
▁பெயரில் 621
▁వీర 621
▁روکنے 621
▁আকারে 620
▁ആശുപത്രി 620
▁தெளிவாக 620
▁விவர 620
லீ 620
ువు 620
▁پولیو 620
▁جماعت 620
ার্ড 619
সিয়া 619
▁ചിത്രങ്ങള 619
▁തകര് 619
▁நோக்கி 619
நகர் 619
ணை 619
▁ചെയ്യാൻ 619
জ্জা 618
▁ജില്ലയിലെ 618
പെ 618
ഗതി 618
▁கூறு 618
పుర 618
▁గుజరాత్ 618
▁മേഖല 617
▁எழுந்த 617
త్యా 617
▁മികച്ച 616
▁ഡിഗ്രി 616
ణ్ 616
ൂട്ട 615
വൈ 615
▁నడి 615
ల్లీ 615
▁باد 615
▁چین 615
দ্য 614
▁ഇല്ലാത്ത 614
▁பள்ளி 614
▁చివర 614
ముద్ర 614
▁بنائی 614
ক্লি 613
▁രുചി 613
ുടെയും 613
▁മുമ്പ 613
ுறவு 613
▁వ్యవస్థ 613
▁నిర్మించారు 613
▁اختیار 613
▁پریشان 613
▁சார்ந்த 612
శీల 612
▁జనన 612
▁చైనా 612
عی 612
লিস 611
കൂട്ട 611
ുമെന്ന 611
పడిన 611
▁کرے 611
▁കേൾക്ക 611
ിലധികം 610
ിക്കാനുള്ള 610
ഭരണ 610
▁கண்ட 610
▁چلے 610
ব্রি 609
▁பேர 609
▁احتیاط 609
▁ഓർ 609
ত্যাগ 608
ত্রি 608
ন্থ 608
▁শতাব্দীর 608
ാണുള്ളത് 608
▁വ്യാപാര 608
▁సార 608
ఫే 608
▁മത്സര 607
ுக்காக 607
▁ప్రభుత్వ 607
శ్య 607
▁వెల్ 607
▁پلان 607
▁کھیت 607
▁لہر 607
ാഴ്ച 606
▁விலக 606
▁எம் 606
▁ராம 606
జ్జ 606
▁آمد 606
കഴിഞ്ഞ 605
ோட்ட 605
యాన్ 605
▁హు 605
▁شاندار 605
স্টো 604
▁নু 604
স্কার 604
▁অনুমতি 604
▁தொலை 604
▁உருவான 604
▁గౌరవ 604
▁వాతావరణ 604
▁জটিল 603
▁ভাষা 603
▁ആക്രമണ 603
▁இளைஞர் 603
▁அவரை 603
ைத் 603
ందని 603
యిన్ 603
▁রান্না 602
▁പതിവ 602
യെന്ന് 602
ക്കൊപ്പം 602
▁ரூபாய் 602
▁తెలుస్తుంది 602
▁గుండా 602
▁فرق 602
▁کشمیر 602
্যাক্ট 601
▁অপরাধ 601
৭০ 601
▁ম্যান 601
▁திரி 601
▁మద్య 601
్యాల 601
▁అంచనా 601
▁مہم 601
▁نصب 601
▁مناظر 601
▁নেমে 600
▁অফিস 600
കളില 600
▁രാജ്യങ്ങള 600
മില്ലാതെ 600
ிடமிருந்து 600
▁காலம் 600
▁வளாக 600
▁కూరగాయలు 600
▁కాశ్మీర 600
▁విష్ణు 600
▁دہرا 600
▁ہوسکتا 599
ലേറ്റ 598
▁సొ 598
▁প্রতিরোধ 597
▁দ্রব্য 597
▁கடுமையான 597
▁چکا 597
னார் 596
వరకు 596
ഗ്രാഫ 595
▁دب 595
কর্ম 594
▁জামা 594
▁পেছনে 594
മാകും 594
ஏ 594
▁నిర్మ 594
ష్ణ 594
▁باری 594
চর 593
▁সফল 593
▁രാജ്യത്തെ 593
▁கிரா 593
▁மாறி 593
▁بک 593
▁نق 593
▁خالی 593
▁হলেও 592
▁সাংস্কৃতিক 592
▁கொள்வத 592
▁ఎక్స్ 592
▁നിർത്ത 592
▁நம்ப 591
▁விடுதலை 591
লান 590
▁পরিবর্তিত 590
▁അനുവദിക്ക 590
▁இருப்பதால் 590
▁நூற் 590
ராஜ் 590
స్య 590
ించింది 590
▁ہمارا 590
സിറ്റി 589
യോടു 589
▁செயல்பாடு 589
▁கார 589
ింపు 589
▁تف 589
വിട്ട 588
▁കരുതിയ 588
▁ഒക് 588
ாபாத் 588
ஸ்தான் 588
క్రీ 588
▁కార్య 588
ఇ 588
▁گہری 588
னீ 587
طر 587
▁تجارت 587
▁ক্রম 586
▁বিষ্ণু 586
▁پتا 586
▁عن 586
▁بادشاہ 586
ঙ্ঘ 585
▁ലഹരി 585
▁കൃഷി 585
▁മാറിയ 585
സാക്ഷി 585
லெ 585
▁نمبر 585
▁ইন্ডিয়া 584
▁കടന്ന 584
த்திற்காக 584
▁இணைப்பு 584
▁واٹ 584
▁منعقد 584
́ 584
▁ആശ്രയ 583
▁ബുക്ക 583
▁முடிவு 583
▁వరుస 583
▁బయలుదేర 583
▁লবণ 582
▁തേട 582
▁தனித்தனி 582
స్థాపన 582
▁చక్ర 582
▁చెరువు 582
ూరు 582
െന്നും 581
ினாலும் 581
▁கடல 581
▁ఆత్మ 581
▁ఇసుక 581
చై 581
▁تازہ 581
াইল 580
▁শক্তিশালী 580
▁என்றும் 580
▁داخلہ 580
▁অতিরিক্ত 579
▁അംഗ 579
▁தீவிர 579
▁ஜூ 579
▁பண 579
ைய 579
▁ఆకాశ 579
▁سچ 579
▁گھنٹہ 579
▁തുടര 578
▁പുതു 578
▁ఆధారంగా 578
▁دیکھے 578
▁পশ্চিমে 577
ക്കിടയില 577
▁സഞ്ചരിക്ക 577
▁பதிலாக 577
▁స్థాయి 577
▁ప్రభుత్వం 577
▁کروا 577
نگے 577
ব্রা 576
▁কাগজ 576
শৃঙ্খল 576
▁সেনা 576
▁രാഷ്ട്രീയ 576
த்தீ 576
ধ্ব 575
▁കൊണ്ടുവന്ന 575
▁மறை 575
ఫర్ 575
▁ٹیم 575
▁নভেম্বর 574
শিল্প 574
> 574
▁നിത്യ 574
సియా 574
▁ہفتہ 574
യ്ക്കായി 573
போர் 573
బ్రా 573
▁మార్చి 573
▁رکاوٹ 573
▁نومبر 573
▁ലാഭ 572
മായിരുന്ന 572
▁തോന്നിയ 572
▁تلاش 572
▁امریکہ 572
▁পুনরায় 571
▁ധൈര്യ 571
വെച്ച 571
ുണ്ടായിരുന്ന 571
மதி 571
▁عوامی 571
জীব 570
পাদ 570
▁ஆக 570
▁స్థిర 570
▁పద 570
ھن 570
▁دوڑ 570
▁এন 569
▁നിരക്ക 569
▁এল 568
তায় 568
▁അടച്ച 568
▁کہانی 568
ধারা 567
▁மண்டல 567
ப்பகுதி 567
ப்பூர் 567
্যান্ট 566
▁വിവര 566
ித்த 566
▁مکان 566
▁টেস্ট 565
▁আয়োজিত 565
▁রাজকীয় 565
മാണ 565
▁கண்டி 565
▁تحقیق 565
▁مواد 565
▁پھٹ 565
▁മൊത്തം 564
ഭാഗം 564
▁സ്വാഗത 564
ப்படுகின்றது 564
▁சிற்ப 564
▁مقصد 564
▁ایشیا 564
র্ড 563
▁ടീ 563
▁எட்டு 563
க்கப்பட்டது 563
▁কম্প 562
▁আইন 562
െത്തി 562
▁வழங்க 562
▁آباد 562
▁প্রাথমিক 561
▁ആയുധ 561
ஃப 561
▁గృహ 561
▁پچھلے 561
▁হিসাবে 560
பகுதி 560
గల్ 560
ేశారు 560
▁آثار 560
▁ہوگیا 560
▁പങ്ക 559
▁വിദ്യ 559
ராய 559
▁పనుల 559
హిత 559
▁داغ 559
▁دراصل 559
▁جنت 559
▁যোগাযোগ 558
▁ప్రి 558
▁పలు 558
▁చెయ్య 558
াইজ 557
சக்தி 557
▁வாகன 557
▁نایاب 557
▁উদ্দেশ্য 556
േന്ദ്ര 556
▁ലക്ഷം 556
▁കൊച്ചു 556
ற்கால 556
▁జరిగే 556
▁دفاع 556
▁بیک 556
▁شاید 556
▁দেখানো 555
জাতি 555
ङ 555
▁തമ്മില 555
▁மேல 555
ஓ 555
డింగ్ 555
▁పండుగ 555
▁নম্বর 554
ുപോയ 554
▁மிக்க 554
▁அலை 554
ర్స్ 554
ణీ 554
▁డిగ్రీ 554
▁اکتوبر 554
▁খেলার 553
▁முதல 553
▁రహదారి 553
▁کریم 553
▁അയച്ച 552
▁நிலப்பரப்ப 552
▁పనిచేయ 552
నంత 552
▁ఆమ్ల 552
▁వంతెన 552
▁حقیقت 552
പ്രതി 551
▁വിധി 551
▁శైలి 551
▁৩৫ 550
▁ധാരാളമ 550
லிய 550
ించాడు 550
വർക്ക് 550
বৃত্তি 549
മല 549
▁വിവാഹ 549
▁కోర 549
▁عل 549
▁دبا 549
▁অক্টোবর 548
▁தரை 548
ப்படுவது 548
▁கட்டாய 548
▁వందల 548
▁ప్రొ 548
▁কালী 547
▁പത്ര 547
▁మరి 547
▁చేసుకొ 547
మును 547
▁সামাজিক 546
ন্টা 546
▁ഭര് 546
▁హిందూ 546
পতি 545
▁নেন 545
▁അന്ന 545
ன்றி 545
▁தொடங்கி 545
▁వస్తున్న 545
▁భారతదేశం 545
▁بارش 545
▁ആർ 545
▁പ്രേമ 544
பாடு 544
ப்பர் 544
▁کھلے 544
▁بج 544
▁বিস্তার 543
▁সালের 543
মাস 543
ினர் 543
▁সম্পর্কিত 542
കളിലെ 542
ബോധ 542
ంధ్ర 542
▁پنڈ 542
ുണ്ടാ 541
▁மனிதர் 541
▁జ్ఞాన 541
▁ఆది 541
▁ఆసియా 541
▁خور 541
ർച്ച 541
▁এলাকায় 540
ിലേക്ക 540
ரொ 540
దుర్గ 540
▁కన్ 540
▁వెలువడ 540
▁حالانکہ 540
▁لب 540
▁ഇതേ 539
▁సాధన 539
▁ناکام 539
▁রিপোর্ট 538
▁বৃষ্টি 538
▁জর্জ 538
▁നേരത്തെ 538
▁لیٹ 538
چا 538
▁کرسکتے 538
گے 538
▁শেষে 537
ப்படுகிறார் 537
బే 537
లుగా 537
▁سمیت 537
▁എഴുതിയ 536
▁மாதம் 536
56 536
▁பாத்திர 536
▁بول 536
ংশ 535
য়েন 535
▁ফর 535
▁പരിസര 535
യാകും 535
படுத்த 535
عل 535
▁اندازہ 535
▁سنت 535
ാർ 535
ঙ্গি 534
▁সিটি 534
▁প্রতীক 534
▁എന്നിവിടങ്ങളില 534
▁കൃത്യമായ 534
▁സൈന്യ 534
▁கிரி 534
க்கலை 534
▁நீளம் 534
▁விஷ்ணு 534
▁பரப்பளவில் 534
▁جون 534
▁মার্ক 533
▁പരിശീലന 533
றிய 533
▁பெரும்பாலான 533
▁حالات 533
ெடுத்த 532
ండ్ర 532
▁లైన్ 532
▁ডাকা 531
▁আসন 531
▁കയറി 531
പ്രകാരമ 531
മേള 531
పాటి 531
▁పనులు 531
▁অবলম্বন 530
▁സൃഷ്ടിക്ക 530
▁சந்திர 530
ేటప్పుడు 530
تیں 530
▁صنعت 530
▁২২ 529
హెచ్ 529
ఒక 529
▁بہترین 529
̧ 529
▁மாநிலத்தின் 528
▁மொழி 528
▁கருத 528
▁அரண்மனை 528
ార్థ 528
▁సాంస్కృతిక 528
زہ 528
چار 528
▁জলবায়ু 527
ചേര 527
▁ചേ 527
வல் 527
দীপ 526
േഷ് 526
▁திறமை 526
▁உள்ளூர் 526
▁نتیجے 526
▁درست 526
▁دیکھی 526
▁বিক্রি 525
▁ক্যামেরা 525
▁ഇരട്ട 525
▁ക്രോ 525
▁தொடர்ப 525
▁பரப்ப 525
▁ஆதி 525
▁ஆதார 525
▁تربیت 525
▁অন্তর্গত 524
▁தூண்ட 524
▁செய்யப்பட்டது 524
▁மொ 524
▁جاسکتی 524
▁এস 523
▁সংরক্ষণ 523
ോളജി 523
ാണിത് 523
▁அருங்காட்சியக 523
▁మిగిలిన 523
▁শত্রু 522
▁অধিকার 522
▁இவர் 522
▁میرا 522
ٴ 522
ইউ 521
১ 521
বেল 521
▁மறைந்த 521
▁చింత 521
▁اسلئے 521
▁পুত্র 520
▁সন্তান 520
▁ন্যা 520
ഋ 520
▁சுருக்க 520
▁திட்ட 520
▁ధర 520
▁سارے 520
▁کلی 520
ندہ 520
এম 519
ായിട്ടാണ് 519
▁விதி 519
▁சேர 519
▁மரண 519
రామ 519
▁بجائے 519
▁سلسلہ 519
സിന്റെ 518
▁മടങ്ങ 518
▁மொத்த 518
த்திலேயே 518
▁ట్యూ 518
▁منزل 518
▁এম 517
শত 517
▁গঠন 517
▁கண்டு 517
▁పాట 517
▁دفتر 517
▁منا 517
▁প্রকাশ 516
▁সমৃদ্ধ 516
▁অঞ্চলের 516
▁দর্শক 516
▁பகுதியை 516
▁இருக்கலாம் 516
తె 516
▁ఖర్చు 516
▁ప్రాంత 516
▁کھینچ 516
▁دھر 516
▁চালানো 515
▁যুদ্ধের 515
▁കോടതി 515
கொ 515
▁రీ 515
▁راہ 515
▁রেখেছে 514
▁ആലോചിക്ക 514
▁ശത്രു 514
▁அடிப்படையில் 514
ப்படு 514
▁دکان 514
▁ہزاروں 514
യേറ്റ 513
വന്ന 513
ശുദ്ധ 513
▁ആദ്യമായി 513
▁ഉത്തരവ 513
ുകാരന 513
▁விதை 513
▁భూభాగం 513
▁حملہ 513
মুখ 512
▁കോണ് 512
▁అనగా 512
▁لیتی 512
▁لہ 512
▁কক্ষ 511
ക്കുവേണ്ടി 511
▁இருந்தாலும் 511
▁కావడం 511
▁کھاتے 511
ാണെങ്കിൽ 511
▁বিল 510
ঙা 510
▁প্রজনন 510
▁விலக்க 510
புர 510
▁చేర్చ 510
డియా 510
▁رائے 510
▁دلچسپ 510
نام 510
▁مول 510
▁تہذیب 510
▁సబ్ 509
▁పిలుస్తారు 509
గొట్ట 509
▁স্পষ্ট 508
▁പഠിച്ച 508
బడే 508
సంఖ్య 508
▁سپ 508
“ 508
▁সমাধান 507
▁ধারা 507
▁സൂചന 507
▁സുരക്ഷ 507
പ്പെടുത്തി 507
போது 507
வெளி 507
▁ప్రవేశించ 507
▁انسانی 507
ലോക 506
പോലും 506
▁பொறுப்ப 506
াত্মক 505
▁హరి 505
▁కథ 505
▁నగరంలో 505
▁నవంబర్ 505
▁جاگ 505
▁شادی 505
▁করতেন 504
▁ഉദയ 504
▁உப 504
▁கிராமத்தில் 504
▁చంద 504
▁یوں 504
▁নৃত্য 503
കൊണ്ടു 503
▁వారిని 503
▁చంప 503
▁آسمان 503
▁আর্ট 502
▁গবেষক 502
മാസ 502
గొ 502
▁ക്രൂ 501
வினை 501
▁தேட 501
▁మిశ్రమ 501
డుగు 501
▁لم 501
▁দিল্লি 500
ില്ലാതെ 500
▁அறிவு 500
செய்ய 500
▁மூன்றாவது 500
▁వ్యాప్తి 500
اور 500
▁নামের 499
▁পড়েন 499
▁কোম্পানি 499
▁ഏഴ 499
▁ഗുരുതര 499
▁കരി 499
▁പിഴ 499
▁ബോംബ 499
▁చేశాడు 499
زار 499
▁علم 499
▁ڈب 499
▁تہ 499
বহ 498
ാതിരുന്ന 498
▁കോടി 498
47 498
▁இயந்திர 498
த்திலுள்ள 498
▁பௌத்த 498
బండ 498
▁చూపించ 498
ফ্রে 497
+ 497
മാക്കിയ 497
▁ഡ്രൈവ 497
ஸா 497
▁రకం 497
▁కనీసం 497
▁స్టా 497
▁చర్చ 497
قہ 497
জীবন 496
വിള 496
▁ബാധിക്ക 496
ടോബര് 496
▁رکھی 496
ായിരം 495
▁വിവാഹം 495
ٹھے 495
▁آم 495
▁একদিন 494
▁ব্রিটিশ 494
▁কাহিনী 494
மணி 494
▁சுதந்திர 494
▁நகர் 494
36 494
▁బాల 494
▁తర 494
▁నౌక 494
▁صف 494
മാർ 494
▁جانی 493
▁غصہ 493
▁باوجود 493
▁পয়েন্ট 492
▁কৃষ্ণ 492
▁റിപ്പോര് 492
▁గ్రంథ 492
▁మరొక 492
▁మండ 492
▁బహు 492
▁وہی 492
▁بڑ 492
▁حس 492
▁بنتا 492
▁پہنچے 492
دھر 492
িনী 491
ോപ 491
▁دباؤ 491
▁হবার 490
▁চিকিৎসা 490
பொருட் 490
లెక్ 490
నుండి 490
▁ویل 490
▁যিনি 489
▁থাকত 489
▁তাঁরা 489
வள 489
▁کب 489
▁مسجد 489
▁മനസിലാക്ക 488
▁அறிந்த 488
யக 488
▁దీర్ఘ 488
▁ఉద్యోగ 488
▁لیتا 488
্যান্ড 487
▁സുഹൃത്തുക്കള 487
▁ഇന്നലെ 487
த்திரு 487
▁வட்ட 487
ந் 487
▁زندہ 487
কুমার 486
ிலான 486
▁فیس 486
▁প্রবাহ 485
▁যুগ 485
▁d 485
▁പരിധി 485
▁എട്ട 485
▁ശിക്ഷ 485
▁മാറ്റിയ 485
చర 485
▁دوپہر 485
▁کشتی 485
দর্শ 484
▁மந்திர 484
▁ذکر 484
ിലേയ്ക്ക 483
▁கலாச்சார 483
▁تمہیں 483
ിലേക്കു 482
▁ഇരുപത 482
▁താരതമ്യ 482
ുറപ്പ 482
ிலிருந்த 482
పోతున్న 482
▁മുഴുവൻ 482
চ্ছেদ 481
▁கிழ 481
▁கல்வி 481
▁கொடி 481
లియా 481
فل 481
▁فطرت 481
▁পরিণত 480
▁സ്ഥാപിക്ക 480
▁ചോദ്യം 480
வகை 480
ங்களுடன் 480
▁ఫలితంగా 480
▁موڑ 480
▁سدا 480
৪ 479
▁ശ്രമിക്കുന്ന 479
▁ബംഗാള 479
െടുത്തു 479
തിന്റെ 479
▁ஏழு 479
▁అనుకూల 479
▁دیکھیں 479
▁یونیورسٹی 479
▁കൂടുതൽ 479
গাছ 478
▁নির্দেশ 478
▁আগুন 478
▁ശക്തമായ 478
▁മന്ത്ര 478
▁താര 478
ുകൊണ്ടാണ് 477
41 477
▁؛ 477
▁പ്രൊഫ 476
▁മുസ് 476
▁క్షీణ 476
▁جتنا 476
وق 476
▁سلسلے 476
গুলোকে 475
▁കണ്ടെത്തിയ 475
▁നീങ്ങ 475
▁వీరు 475
ండర్ 475
▁توجہ 475
▁پائ 475
▁سیدھا 475
▁নাইট 474
▁সেরা 474
റേഷന 474
▁തിരഞ്ഞെടുക്ക 474
▁പാക 474
ങ്ങളുമായി 474
ഞ്ജ 474
▁സാധ്യമ 474
▁സൈനിക 474
▁തീരുമാനിച്ച 474
▁நடைபெறுகிறது 474
▁నిరోధ 474
▁చేయబడిన 474
▁అందులో 474
▁تبدیل 474
▁പൗര 473
▁வாழ் 473
▁தயாரித்த 473
ক্ট 472
▁বিষ 472
കൊടുക്ക 472
▁വോ 472
▁இறக்க 472
▁خرچ 472
تہ 472
াইয়ের 471
▁കൃഷ്ണ 471
▁പരിപാടികള 471
▁വാങ്ങി 471
▁பாரம்பரிய 471
▁லெ 471
நாட்ட 471
▁యంత్ర 471
▁روپے 471
ক্ষেপ 470
২০ 470
▁সম্রাট 470
▁கேட்ட 470
▁ప్రవహించ 470
▁بیرون 470
റിന്റെ 469
▁சிவன் 469
▁పరిసర 469
పొంద 469
عت 469
▁প্রাসাদ 468
▁പരിശ്രമ 468
▁അന്ന് 468
▁നവംബര് 468
ொரு 468
న్నారు 468
▁అయింది 468
N_NN 468
▁عموما 468
***** 468
▁২৬ 467
▁நடை 467
▁வரலாறு 467
ినప్పుడు 467
ళ్లు 467
▁కోల్ 467
▁کہاں 467
ল্লি 466
▁অংশগ্রহণ 466
▁തെളിയിക്ക 466
▁മുന്നോട്ടു 466
▁குதிரை 466
▁కొనుగోలు 466
▁বিরুদ্ধে 465
▁ইউরোপ 465
ঞ 465
▁செயற்கை 465
▁ఉన్నత 465
▁మారి 465
▁যেহেতু 464
ানু 464
▁প্রার্থনা 464
ിനായി 464
▁நூற்றாண்டு 464
▁پول 464
حال 464
▁দক্ষিণে 463
▁പഠിപ്പിക്ക 463
▁ചോദ്യ 463
ஐ 463
দো 462
াকার 462
களா 462
ஔ 462
▁பண்பாடு 462
▁కొల 462
▁సామాజిక 462
ముల 462
▁మత 462
▁زیر 462
▁مئی 462
േക്കാം 461
▁அன்ப 461
സൈറ്റ 460
▁തട്ടി 460
▁సహాయక 460
ائش 460
▁উদাহরণ 459
▁ক্লাব 459
উড 459
▁ധരിച്ച 459
▁ടിക്കറ്റ 459
▁இப்போது 459
▁ఉపయోగపడ 459
పత్తి 459
▁చిహ్న 459
বর্তী 458
ദാസ 458
▁ഒപ്പ 458
▁காண்ப 458
▁ഫലം 457
▁வெவ்வேறு 457
▁ஆசியா 457
▁ఉద్దేశ 457
ధాన్య 457
ముగా 457
నగర 457
▁সফর 456
▁കേരള 456
▁தயாரிக்கப்பட்ட 456
▁ஆட 456
▁தொலைவில் 456
▁చూడండి 456
▁కాబట్టి 456
▁కార్యక్రమాలు 456
▁فراہم 456
৭৫ 455
▁সমাধি 455
▁നിലയില 455
▁ആരാധ 455
▁അരുണ 455
ளு 455
▁தொழில் 455
▁தொடக்க 455
▁లేని 455
▁لٹ 455
▁আবিষ্কার 454
ঋ 454
▁ഘടക 454
ொன்று 454
▁நியூ 454
ளவில் 454
బుల్ 454
▁సైనిక 454
▁ശോഭ 453
▁தன்னை 453
ுக்கும் 453
▁প্রদর্শন 452
▁ফ্রি 452
▁ഫീ 452
സ്വാമി 452
▁அனு 452
விய 452
ప్రా 452
ئیے 452
▁تخلیق 452
▁آکر 452
▁উপস্থিত 451
ജെ 451
▁അന്വേഷിക്ക 451
▁வகிக்க 451
தாகவும் 451
▁புத்தக 451
▁கூறினார் 451
బడుతున్న 451
▁ఆశ్రమ 451
▁বর্তমান 450
▁চালু 450
ওয়ার্ড 450
▁വിദഗ്ധ 450
െഴുത 450
▁വിളിച്ചു 450
▁அசை 450
கிராம 450
▁இந் 450
▁குழப்ப 450
▁ఆటల 450
▁మూడవ 450
చిత్ర 450
▁శతాబ్దంలో 450
▁గ్రామంలో 450
▁بائی 450
▁بنگال 450
▁রোমান 449
▁വിദ്യാഭ്യാസ 449
നോട്ട 449
▁പിതാവ 449
49 449
▁గోల్ 449
▁دروازہ 449
▁എത്തിക്ക 448
భాగ 448
▁సంగీతం 448
▁حکم 448
▁خط 448
▁بہادر 448
▁ലൈംഗിക 447
▁ഓണ 447
▁കണ്ടെത്തി 447
ிடையே 447
க்கெட் 447
ుకుంటుంది 447
▁সমাজ 446
▁লিঙ্গ 446
▁কোড 446
▁ടെക് 446
രാത്രി 446
▁ஆனது 446
25 446
▁کتنی 446
▁বিভাগের 445
সিংহ 445
▁স্থাপত্য 445
▁വിവരങ്ങള 445
கட்ட 445
▁விளைவாக 445
▁உண்டாக 445
72 445
▁బంధ 445
▁جھک 445
▁معاملے 445
▁سجا 445
▁বিজ্ঞান 444
▁உறை 444
ஸ்டர் 444
▁விளக்க 444
▁அலக 444
▁పరిస్థితుల 444
▁పొగాకు 444
▁లభించింది 444
▁భక్తులు 444
▁چکی 444
▁চাঁদ 443
▁ব্যাংক 443
പാദിപ്പിക്ക 443
▁சார் 443
చ్చు 443
▁شرح 443
▁قص 443
▁وار 443
▁উন্নত 442
▁বিপরীত 442
▁স্থাপনা 442
▁ঐতিহ্য 442
▁தலைமை 442
▁گروپ 442
▁کردیا 442
▁جیت 442
▁അല്ലെങ്കിൽ 442
▁കാര്യങ്ങൾ 442
▁বিচার 441
িস্ট 441
க்கிர 441
▁تار 441
▁جہاز 441
▁রহস্য 440
ধর 440
▁উদ্ 440
▁নমুনা 440
▁ഗാന്ധി 440
▁குறைபாடு 440
▁لفظ 440
▁پیاس 440
▁ادھر 440
▁ذمہ 440
▁বন্যপ্রাণী 439
ടങ്ങിയ 439
ட்சி 439
நாடு 439
▁போக்குவரத்து 439
▁சந்திப்ப 439
▁مشورہ 439
▁ساری 439
▁نتیجہ 439
▁کامیاب 439
▁জানান 438
▁উত্তরে 438
എസ് 438
▁ஏற்பட்டது 438
ன்று 438
ந்தர் 438
▁స్వతంత్ర 438
రెన్ 438
▁పద్మ 438
▁جاری 438
▁ابتدائی 438
▁ملیں 438
▁ആശയ 437
ுவதற்கான 437
▁ద్వ 437
▁সিস্টেম 436
▁কার্যালয় 436
▁পালিয়ে 436
വ്യക്ത 436
ാരംഭ 436
▁സ്വാതന്ത്ര്യ 436
▁பத 436
▁బంగారు 436
▁اوسط 436
▁রায় 435
ిస్తున్నారు 435
▁చెట్టు 435
▁అధ్యయనం 435
▁സാമൂഹിക 434
▁சாதன 434
গুলিতে 433
▁വ്യക്തമായ 433
▁خوشی 433
▁সংগীত 432
▁উষ্ণ 432
▁സഹായത്തോടെ 432
രാധ 432
▁மாவட்டத்தின் 432
▁பண்ப 432
▁ரயில் 432
নেট 431
[...]
