▁के 2474677
। 2025357
▁में 1734936
▁है 1653701
▁की 1510902
▁को 1185846
▁से 1081052
▁और 974092
▁का 840643
▁पर 800594
▁ने 796076
, 749780
▁कि 689631
▁हैं 528398
▁भी 512524
▁। 511383
▁लिए 442697
▁, 430372
ी 404612
ों 402613
▁नहीं 401854
▁एक 380550
ा 363847
▁कर 354261
▁इस 329026
▁ 324560
▁यह 303383
▁( 303108
▁ही 300452
▁किया 295030
▁हो 286095
▁तो 281536
▁कहा 261410
▁था 260923
▁करने 240852
▁गया 236521
न 234041
▁) 228596
- 214575
▁व 207233
▁- 201201
▁. 197619
▁जो 192018
▁वह 187363
▁दिया 187247
े 180174
▁बाद 176206
र 172642
▁साथ 172305
▁न 169708
▁सरकार 163249
क 159848
▁हुए 155867
▁अपने 150674
▁तक 145915
ता 144382
▁रहे 143132
▁जा 143082
ल 142567
. 142016
▁थी 139364
म 137852
▁उन्होंने 135726
▁गई 132803
▁थे 132777
▁कुछ 126620
▁दिल्ली 125623
ने 124238
▁लोगों 123544
▁रहा 121697
▁रही 114599
स 114111
▁दी 113619
▁कोई 112539
ना 110573
▁उनके 108506
▁अ 105898
▁लेकिन 105866
▁गए 105809
▁वे 105751
▁पहले 105279
ब 104504
▁या 104011
▁भारत 103269
▁करते 99374
▁होने 99100
▁' 98168
▁दो 98103
▁इसके 94893
▁किसी 92847
ित 91958
त 90286
ं 90185
▁जब 90082
▁पुलिस 89476
▁उन्हें 89110
▁वाले 88856
द 88769
▁अब 87588
▁आ 86210
▁नई 85929
ो 85871
▁अपनी 85442
▁कांग्रेस 84914
कर 84295
▁लोग 84197
▁हम 83289
▁ये 82838
▁बात 80309
▁फिर 80241
▁तरह 79122
▁देश 79046
▁भाजपा 77379
▁तुम 76844
▁हुई 76502
▁उसके 74417
▁सिंह 74253
▁रूप 73587
ियों 72541
▁मोदी 72331
▁मामले 72181
ते 72047
ें 71138
ट 70387
व 70386
▁हुआ 70068
▁पढ़ें 69912
: 69684
▁लेकर 69642
▁बताया 69501
▁जाने 69005
▁पार्टी 68873
▁समय 68428
▁द्वारा 68390
▁उसे 67935
▁By 67792
▁" 67019
▁दिन 66875
▁इन 66759
▁तथा 66228
▁क्या 65815
▁काम 65506
प 65063
ज 64775
▁सकता 64718
▁राज्य 63740
िक 63151
▁सभी 63110
▁लिया 63081
▁चुनाव 62577
▁उस 61959
▁होगा 61917
▁उनकी 61753
ह 61657
▁करना 61330
▁साल 60865
▁कोर्ट 60821
ए 60756
▁पास 60342
▁कई 59865
▁बार 59691
▁बीच 59621
) 58949
▁जाता 58729
▁देने 58491
▁मंत्री 58034
▁उन 55839
▁दे 55656
▁नाम 55590
▁प्रदेश 55432
▁ओर 54808
▁दौरान 53994
▁चाहिए 53874
▁दोनों 53408
▁अन्य 53137
▁खिलाफ 52671
▁आप 52073
▁होता 51133
▁जांच 50861
▁देखने 50451
▁कम 50450
▁किए 50255
▁ले 50025
▁अधिक 49441
▁भारतीय 49330
▁मोबाइल 49172
नी 49150
ण 49145
ती 49057
▁हर 48958
▁मैं 48870
▁वीडियो 48437
▁तीन 48145
' 47949
ओं 47878
▁पूर्व 47642
▁ऐसे 47624
▁यहां 47310
रा 47255
▁क्षेत्र 47071
ग 47001
▁प्रधानमंत्री 46964
▁शुरू 46862
सी 46567
ला 46214
▁वाली 46184
्य 46052
री 45819
▁करें 45769
श 45354
▁ख़ुद 45250
▁रुपये 45179
▁कारण 45155
▁फोटो 44978
▁जाएं 44958
▁जाएगा 44916
▁बहुत 44604
▁प्र 44600
▁मुख्यमंत्री 44460
य 44298
▁शामिल 43816
▁ताजा 43808
▁म 43661
▁इससे 43638
▁जारी 43447
▁करता 43297
com 43256
▁: 43237
▁m 43212
▁अल्लाह 43176
▁खबरें 43156
▁[ 43011
ई 43010
ि 42257
▁स 41623
ड़ 41561
▁लाइव 40971
▁ब 40961
▁उसकी 40892
▁स्कोर 40814
jagran 40704
▁सकते 40556
▁अगर 40282
्स 40022
▁केंद्र 39951
▁सबसे 39917
▁वर्ष 39842
ड 39621
▁बारे 39499
▁नेता 39458
▁विकास 39084
ू 38757
ु 38118
▁एवं 37964
▁ऐसा 37957
जी 37467
▁इसे 37324
िंग 37205
▁अपना 37013
▁? 36876
ली 36863
▁करोड़ 36829
▁उनका 36766
▁उसने 36739
▁पूरी 36417
िया 36293
▁आरोप 36044
▁प्रति 35817
▁होगी 35742
▁सुरक्षा 35467
▁होती 35283
▁यदि 35260
▁ग 35238
▁मांग 34604
▁घर 34559
का 34470
▁ज्यादा 34324
या 34262
▁सी 34170
▁इसमें 34136
फ 33897
पुर 33840
ीय 33813
▁चार 33728
▁सामने 33596
ख 33523
▁पाकिस्तान 33511
▁आज 33456
▁लगा 33396
़ 33331
▁अध्यक्ष 33322
▁सकती 33301
मा 33241
▁वि 33198
▁जबकि 33163
▁हमने 33106
▁प 33047
▁बैठक 33006
▁ना 32979
▁बना 32951
▁मु 32944
▁गांधी 32909
▁क़ 32868
वा 32648
▁इसी 32483
▁कार्य 32455
▁पिछले 32173
▁क 32011
▁अनुसार 31863
▁बनाने 31687
▁करीब 31650
च 31636
▁मंत्रालय 31603
▁जानकारी 31594
▁19 31268
▁ए 31180
▁पांच 31145
▁दिए 31132
के 31071
▁सेना 30899
▁जैसे 30859
▁दर्ज 30834
▁उत्तर 30780
▁मुताबिक 30624
▁सब 30579
गी 30539
▁तैयार 30478
▁कहना 30381
▁जिस 30378
▁लाख 30356
▁श 30167
▁अभी 29992
ाई 29939
▁आई 29747
ंग 29638
▁राष्ट्रीय 29625
▁तरफ 29603
पी 29570
▁आने 29305
▁रिपोर्ट 29270
▁ऐ 29136
▁जाए 29112
▁दूसरे 28714
▁बड़ी 28566
बी 28380
▁अधिकारी 28232
▁ख 28143
▁अदालत 28054
▁तब 27940
▁हमारे 27860
▁कुमार 27717
एं 27693
▁वहीं 27685
▁स्थिति 27637
▁इसलिए 27636
▁मौत 27592
▁नि 27528
▁इसका 27521
पर 27494
▁जिसमें 27487
ओ 27473
▁जाती 27427
▁चल 27421
▁आगे 27339
थ 27326
▁महिला 27254
ॉ 27213
▁पा 27198
▁वहां 27143
▁वाला 27131
▁तुम्हारे 27081
▁अलग 27070
▁बयान 27010
▁तहत 27001
▁उसका 26967
▁ली 26951
▁जहां 26914
▁केंद्रीय 26903
▁बे 26893
▁प्रमुख 26874
▁मे 26846
▁सं 26798
▁आम 26787
▁कानून 26773
▁मुंबई 26764
सा 26739
▁आधार 26728
क्ष 26541
▁क्योंकि 26458
▁आए 26297
▁हालांकि 26186
▁योजना 26124
।' 25985
▁काफी 25936
▁मिल 25826
▁पद 25742
▁सूचना 25718
▁अलावा 25676
▁आदेश 25666
▁बस 25656
▁होते 25503
▁बंद 25460
डी 25229
▁मुझे 25207
▁देते 25139
▁विभाग 25110
▁फ 25067
▁बाहर 25026
▁जवाब 24879
▁विशेष 24832
ः 24730
▁स्थित 24699
▁पेश 24611
▁रात 24552
▁प्राप्त 24525
▁10 24524
▁पूरा 24494
▁व्यक्ति 24457
▁फैसला 24447
▁सुप्रीम 24404
▁मौजूद 24337
▁सीमा 24304
ै 24286
▁मुख्य 24229
▁प्रकार 24201
▁बड़ा 24146
▁गांव 24109
▁सिर्फ 24108
् 24085
▁पता 24010
▁पत्र 23977
▁करेंगे 23907
▁हजार 23907
▁रहने 23884
▁तौर 23804
] 23636
▁कु 23625
▁जनता 23621
▁जी 23591
▁परिवार 23492
▁कोशिश 23470
▁इसकी 23457
▁आयोग 23414
▁पी 23408
ियां 23393
▁नरेंद्र 23341
▁अधिकारियों 23320
▁ज 23306
▁राम 23244
▁जाना 23210
▁विरोध 23204
▁संख्या 23195
टी 23114
▁केवल 23103
ंड 23102
▁मदद 22894
▁लेने 22889
▁दिनों 22885
ले 22834
एस 22777
▁ऐसी 22751
▁; 22732
▁विधानसभा 22603
▁विचार 22597
▁/ 22574
▁दुनिया 22555
▁लगे 22546
▁बल्कि 22519
▁राज्यों 22375
▁राष्ट्रपति 22344
▁जीवन 22340
▁सा 22281
▁रखा 22236
वी 22220
▁राहुल 22171
▁बन 22167
कार 22092
▁सु 22069
▁मामला 22067
▁बड़े 21995
▁गुजरात 21981
प्र 21976
▁सवाल 21927
▁ताकि 21920
▁खुद 21899
▁पानी 21895
▁कभी 21894
ाँ 21832
▁जाएगी 21831
▁द 21806
भ 21754
7 21749
4 21728
6 21701
▁जागरण 21698
▁वजह 21630
▁ब्यूरो 21594
▁चुके 21548
▁कार्रवाई 21512
▁घटना 21484
▁याचिका 21477
▁यही 21448
3 21417
▁करो 21402
▁आतंकी 21401
▁आया 21395
▁बैंक 21342
▁दल 21201
▁हमें 21145
जा 21082
▁जाते 21027
▁हाल 20848
e 20839
▁रह 20710
▁उनसे 20623
गा 20610
▁त 20580
▁हत्या 20465
▁कह 20434
▁होंगे 20415
▁रसूल 20371
ति 20359
▁नेताओं 20352
▁दूर 20325
▁कश्मीर 20285
▁भाग 20274
▁देशों 20251
▁मेरे 20118
▁उसी 20115
▁ल 20111
▁% 20102
▁राजनीतिक 20069
▁बजे 20051
]। 20048
▁हूं 19896
को 19844
▁यादव 19835
स्त 19831
बा 19817
▁सरकारी 19810
▁स्तर 19810
▁s 19749
▁करती 19740
▁गिरफ्तार 19723
▁मिली 19670
▁हाथ 19653
▁चीन 19633
▁बनाया 19600
▁कंपनी 19572
▁12 19532
8 19484
▁च 19441
▁उससे 19428
▁समिति 19397
▁लगाया 19193
▁यात्रा 19173
▁लोकसभा 19168
▁पैदा 19101
रे 19094
▁नए 19024
से 19005
▁सोमवार 18967
▁तय 18952
▁दर 18942
▁जरूरत 18938
▁मिला 18902
▁इ 18843
▁संबंध 18830
▁विभिन्न 18798
▁पहुंच 18774
हा 18765
ौ 18730
▁जेल 18726
त्र 18724
▁समर्थन 18687
▁फीसद 18684
▁जिसके 18673
▁शिक्षा 18670
वि 18633
▁वरिष्ठ 18633
ंत 18565
▁होना 18542
▁राज 18508
▁चर्चा 18504
▁कार्यक्रम 18501
▁जिले 18477
▁भर 18476
▁सुनवाई 18417
▁जिन 18405
? 18378
▁चाहते 18373
▁चुका 18347
▁व्यवस्था 18339
▁पहली 18337
िका 18253
दा 18199
▁बच्चों 18170
▁ला 18071
▁रोक 18043
अ 18038
1 17997
▁ईमान 17987
▁टीम 17971
▁पीएम 17963
▁पूरे 17950
मान 17942
▁उपलब्ध 17922
▁चला 17911
i 17884
की 17877
▁सीबीआइ 17868
5 17854
▁जान 17848
▁तुम्हें 17841
▁15 17810
▁जिसे 17802
▁कहते 17768
वर 17746
▁उप 17733
▁प्रक्रिया 17721
▁सुबह 17671
▁संसद 17655
▁बढ़ 17650
▁सेवा 17560
▁जल 17525
▁जगह 17506
ड़ा 17495
▁विदेश 17487
▁बता 17476
▁उ 17474
▁ह 17466
▁धर्म 17423
▁! 17423
्या 17354
▁निर्माण 17328
▁साफ 17301
▁छोड़ 17295
▁अधिकार 17243
▁1 17233
▁अस्पताल 17233
▁बुधवार 17188
▁पक्ष 17164
ज़ 17160
▁समझ 17144
▁20 17116
▁S 17093
▁मिलने 17086
▁मंगलवार 17065
▁वही 17051
▁कुल 17032
▁नजर 17028
▁जम्मू 17022
्व 16976
▁वक्त 16885
▁इस्तेमाल 16876
▁बिहार 16858
ेट 16851
▁चुकी 16838
▁जिसक 16837
▁सूत्रों 16810
▁पढ़ेंः 16793
▁रखने 16780
▁दूसरी 16764
▁छह 16760
▁पीछे 16740
▁हमारी 16724
▁मै 16670
▁स्थान 16642
▁क्यों 16638
▁बल 16620
▁जमा 16608
▁वो 16590
▁कदम 16582
▁हमले 16575
आइ 16550
▁बी 16533
▁भ 16532
▁वालों 16511
िल 16497
▁थीं 16474
▁संगठन 16462
▁माना 16450
▁शिकायत 16447
▁समेत 16434
▁शुक्रवार 16404
▁निर्देश 16367
▁सके 16363
▁सदस्य 16349
ष 16297
▁फैसले 16276
o 16130
▁मीडिया 16129
▁करेगा 16101
▁महीने 16089
▁अभियान 16064
▁लागू 16062
ठ 16048
ंज 16039
▁प्रयास 16008
▁सात 15984
▁विश्व 15983
ड़ी 15975
▁आरोपी 15957
▁2 15956
▁संबंधित 15950
▁बा 15945
▁जन 15922
▁अमेरिका 15920
▁प्रयोग 15918
▁प्रदान 15880
▁करके 15845
▁मन 15838
▁11 15834
▁कराने 15815
▁वापस 15797
▁पार 15790
ृ 15735
▁ध्यान 15726
▁उच्च 15725
2 15686
▁एस 15668
पा 15663
▁स्पष्ट 15647
▁रक्षा 15600
▁रेलवे 15586
▁ई 15574
▁मंदिर 15559
▁कार 15548
▁बातचीत 15539
▁समाज 15458
▁बिना 15430
ंस 15418
▁आग 15415
▁मा 15410
दार 15382
▁प्रस्ताव 15345
▁लगभग 15340
तर 15333
तः 15327
मी 15291
▁देना 15284
▁मुद्दे 15225
▁रि 15216
▁देख 15190
▁मान 15188
▁दें 15168
▁रब 15156
ंट 15133
▁स्कूल 15131
ेशन 15002
▁याद 14992
▁महिलाओं 14954
▁उपयोग 14906
▁सचिव 14884
▁गृह 14879
रो 14854
▁सर 14821
ध 14794
▁मार 14791
▁8 14775
▁18 14767
▁सजा 14764
▁पिता 14731
▁केजरीवाल 14721
▁चलते 14718
▁प्रतिशत 14699
▁देता 14686
▁एन 14674
▁शनिवार 14655
▁आर्थिक 14625
यों 14610
▁चीज़ 14581
▁सांसद 14580
▁मगर 14564
▁उनमें 14549
▁ओ 14509
▁डॉ 14485
▁र 14470
▁ठीक 14461
▁पहुंचे 14455
▁7 14433
▁मार्ग 14418
▁पत्नी 14415
▁अनु 14379
▁सूची 14314
▁कहीं 14281
स्ट 14278
▁बनाए 14277
मो 14239
▁जिससे 14217
▁देखा 14191
▁सामान्य 14155
▁देखते 14148
▁लगातार 14115
▁कल 14094
्यू 14076
s 14065
▁उसमें 14054
▁विधायक 14020
▁अगले 14008
▁ता 14008
)। 14006
फ़ 13994
ँ 13975
▁मामलों 13944
मे 13942
▁ऊपर 13941
▁खास 13930
▁नीति 13914
▁फ़ 13908
शा 13900
▁आपको 13898
▁रे 13866
▁लाभ 13857
▁बदल 13811
▁आदि 13808
उ 13791
▁डि 13791
िस 13781
▁मध्य 13711
▁सही 13697
▁पड़ा 13688
▁हाई 13658
▁हिस्सा 13621
र्स 13618
▁घोषणा 13610
▁माल 13582
▁यू 13558
▁इंडिया 13518
▁लिखा 13494
▁आतंकियों 13494
▁भेज 13476
राज 13469
वे 13462
▁जीत 13439
▁लगाने 13437
▁एम 13433
▁सपा 13428
▁घायल 13423
▁करे 13398
▁दु 13388
▁3 13378
▁शहर 13374
00 13354
▁भाई 13330
▁संघ 13329
▁जमीन 13322
जन 13288
▁मां 13283
▁दस 13278
▁शाह 13272
▁विवाद 13267
▁किताब 13257
▁स्वीकार 13244
▁धन 13242
▁महाराष्ट्र 13229
▁दाखिल 13222
▁सहित 13213
ुल 13200
▁खा 13176
▁संदेश 13166
ंद 13161
▁महा 13159
▁होकर 13154
छ 13141
▁उनको 13139
▁राजनीति 13137
▁मिले 13129
▁रविवार 13109
▁इनमें 13097
िन 13094
▁हूँ 13087
▁स्थानीय 13084
▁सि 13072
▁बावजूद 13068
क् 13068
▁वित्त 13066
▁गुरुवार 13062
▁गौरतल 13057
▁क्षेत्रों 13055
▁लगी 13051
▁प्रदर्शन 13050
न्द 13046
ेंगे 13014
▁श्री 13013
▁मेरी 12979
त्त 12944
▁राय 12927
▁वर्ग 12914
▁शाम 12907
▁मुलाकात 12901
▁ऑफ 12898
▁5 12888
▁भारी 12879
नि 12878
▁अन 12835
▁आठ 12827
▁अंतिम 12820
▁अच्छा 12798
▁डाल 12797
▁सत्ता 12794
▁रेल 12792
आ 12787
▁महत्वपूर्ण 12784
▁जिला 12745
▁बंगाल 12745
▁निकल 12730
▁गयी 12726
र्ड 12725
▁चाहता 12722
एम 12715
▁निर्णय 12715
▁पहचान 12713
▁हमला 12705
ढ़ 12694
▁25 12693
ाय 12676
कि 12666
▁भ्रष्टाचार 12662
▁उम्मीद 12647
▁मैंने 12624
▁राष्ट्र 12586
क्स 12585
▁ज़ 12576
▁नगर 12564
▁तेज 12549
▁30 12541
▁स्वास्थ्य 12540
▁जल्द 12471
▁खर्च 12466
▁घंटे 12465
▁भेजा 12444
▁14 12433
आर 12426
र् 12423
टे 12388
▁सहायता 12368
▁पाक 12361
▁दावा 12350
▁बच्चे 12327
टा 12314
फा 12300
▁पीठ 12299
एन 12286
▁लग 12275
▁बोर्ड 12265
▁बाल 12225
▁किस 12209
वरद 12186
▁गो 12182
जे 12178
▁जे 12172
▁मार्च 12167
t 12158
रण 12131
▁बि 12108
▁सुधार 12076
▁किसानों 12060
स्थ 12060
▁करा 12056
नाथ 12047
▁नेतृत्व 12047
िगार 12036
▁बढ़ा 11999
▁जुड़े 11968
▁प्रभावित 11949
▁सह 11926
▁विषय 11910
▁परीक्षा 11891
्र 11879
▁हों 11878
क़ 11877
▁निजी 11876
▁ट 11872
वीं 11856
▁विमान 11851
▁संवाददाता 11836
▁आदमी 11834
▁डी 11787
▁प्रशासन 11784
▁बिजली 11784
▁अथवा 11776
▁कराया 11760
▁रा 11755
▁खबर 11751
िट 11747
रों 11736
▁9 11731
पाल 11730
▁संयुक्त 11708
▁फिल्म 11699
▁सड़क 11690
दी 11689
▁हासिल 11673
▁रंग 11658
▁16 11650
शी 11648
▁ख़ 11640
▁बने 11629
▁मो 11625
▁शादी 11600
र्ट 11574
▁13 11572
▁लखनऊ 11554
▁विश्वास 11539
▁दलों 11528
▁लाने 11526
▁आंदोलन 11497
▁सौ 11481
▁पंजाब 11475
▁जाएंगे 11468
▁बेहतर 11467
▁रहते 11467
▁लाल 11445
वार 11431
▁माह 11415
▁नौ 11398
ाव 11398
▁मि 11395
▁गलत 11362
▁जरूरी 11344
▁कमी 11334
ड़े 11299
▁भूमिका 11294
▁बिल 11294
▁पूछताछ 11280
▁लिये 11280
▁खत्म 11276
ूर 11222
▁कैसे 11218
आई 11217
▁बनी 11210
▁देर 11206
खा 11199
▁50 11193
▁6 11193
▁अतिरिक्त 11109
▁राशि 11085
▁खेल 11077
▁स्वयं 11077
ुर 11068
▁विधेयक 11058
▁नीचे 11055
▁करेगी 11022
यू 11020
बू 11016
▁मूल 11015
▁गंभीर 10987
▁आर 10977
▁गिर 10974
▁मौके 10967
▁पश्चिम 10964
▁हा 10945
▁सत्र 10934
▁संपर्क 10917
▁शक्ति 10913
ेड 10912
▁माध्यम 10897
▁विपक्ष 10889
▁करार 10886
▁गये 10874
▁इलाके 10864
▁हि 10790
▁मई 10775
▁लोक 10775
▁बारिश 10775
a 10774
▁वोट 10770
▁कंपनियों 10769
▁पूर्ण 10766
▁पाया 10746
एँ 10700
ाया 10670
▁शर्मा 10663
▁समस्या 10657
▁बाजार 10655
बल 10650
▁अप्रैल 10640
▁डर 10637
▁बताते 10620
ात 10613
▁सोनिया 10598
▁टी 10580
ष्ट 10557
▁सोच 10554
▁पड़ 10534
▁लो 10524
▁जून 10504
▁पति 10496
बे 10493
▁सामाजिक 10488
▁सो 10457
▁अपील 10441
▁फोन 10424
u 10422
▁अभि 10412
ेश 10412
▁सदन 10398
इ 10386
▁जरिए 10385
▁सदस्यों 10378
▁ट्रेन 10377
9 10376
▁सभा 10365
वाद 10353
▁छ 10352
▁कार्यालय 10351
▁उम्मीदवार 10332
▁इतना 10306
▁सम 10306
▁छात्र 10305
ान 10295
▁मह 10282
▁दक्षिण 10270
▁अनुमति 10267
▁मुस्लिम 10259
▁नंबर 10248
▁उठा 10244
▁बह 10235
ीन 10204
▁दुष्कर्म 10190
▁गंगा 10168
▁इं 10157
▁रखते 10157
▁जनवरी 10153
▁कै 10152
▁निकाल 10150
▁नया 10120
▁4 10112
▁विजय 10095
▁दिखा 10092
यां 10072
राम 10064
यर 10059
ार 10050
ाइ 10039
▁दिल 10038
▁अच्छी 10011
▁सहयोग 9999
र्क 9994
▁छात्रों 9994
y 9974
गत 9944
▁कृषि 9935
▁समूह 9934
▁गु 9918
▁स्व 9888
कों 9885
▁बनने 9883
p 9879
▁अच्छे 9877
नगर 9873
▁राहत 9872
र्ज 9850
▁जन्म 9846
मन 9801
▁सीट 9798
▁युद्ध 9793
▁बजट 9773
▁छोटे 9768
द्ध 9752
ग्र 9751
▁दिसंबर 9727
▁मौसम 9713
▁अगस्त 9711
▁भाषा 9684
▁कौन 9673
at 9670
▁दिशा 9670
में 9667
▁विदेशी 9661
िश 9660
▁लगता 9658
▁डे 9644
▁प्रचार 9636
▁लेते 9619
जागरण 9617
▁फिलहाल 9608
▁हे 9606
▁बदलाव 9593
▁17 9591
▁खरीद 9588
▁मानव 9586
▁परिणाम 9585
▁प्रवेश 9582
्म 9579
▁गैर 9554
▁थ 9539
▁प्रभाव 9534
▁24 9526
▁आयोजित 9512
▁टिकट 9509
▁राज्यसभा 9499
▁चुनौती 9481
▁क्षमता 9479
▁दा 9459
▁प्रकाश 9449
▁अंदर 9432
▁अंत 9421
▁परिवर्तन 9421
▁भीतर 9409
हर 9404
▁न्यायालय 9402
ंगी 9396
▁अहम 9385
▁सारे 9375
▁देव 9374
▁तरीके 9357
▁हमेशा 9339
▁नुकसान 9315
▁जिसने 9315
▁दिवस 9311
▁जुलाई 9311
भा 9308
▁गा 9300
▁प्रत्येक 9294
▁मेरा 9293
▁आइ 9292
▁हरियाणा 9277
्ह 9272
▁संकेत 9244
▁राजधानी 9239
▁जैसा 9230
▁निवासी 9224
▁भूमि 9221
▁कही 9205
▁तैयारी 9198
झ 9193
▁नोट 9174
▁खान 9173
▁बेटी 9162
▁संपत्ति 9161
▁चाहे 9160
▁ज्ञान 9152
दान 9152
▁सार्वजनिक 9150
गु 9148
घ 9135
न्त 9125
▁रख 9109
▁चि 9107
m 9103
▁बेटे 9081
▁आपके 9060
▁हार 9057
▁शासन 9054
▁निवेश 9053
▁एजेंसी 9037
▁दिखाई 9023
▁जैसी 9022
िता 8998
▁अवसर 8998
▁वकील 8996
▁निर् 8992
▁धरती 8980
▁साबित 8964
▁असर 8963
वालों 8941
रिया 8935
▁देकर 8916
▁तुम्हारी 8916
▁पड़े 8899
त् 8896
मेंट 8892
▁राजस्थान 8877
स्प 8869
▁बढ़ाने 8851
पट 8828
ंक 8827
▁अनेक 8824
▁पि 8814
लि 8807
▁खारिज 8806
▁मत 8787
▁मैदान 8786
▁परियोजना 8783
देश 8775
▁कहने 8765
▁दिख 8761
ेगा 8758
▁ढ 8758
वान 8755
▁संविधान 8752
▁अपराध 8741
▁अन्ना 8741
ीकरण 8735
▁सक्रिय 8730
▁प्रसाद 8727
▁सत्य 8714
▁घ 8711
h 8710
टर 8703
▁देंगे 8703
▁लक्ष्य 8681
▁अप 8680
▁मारे 8676
▁पहुंचा 8662
▁न्यायाधीश 8654
▁आय 8653
▁चले 8652
▁निश्चय 8650
▁उद्योग 8646
शन 8643
▁सुरक्षित 8637
▁लौट 8635
▁रो 8635
▁हालत 8630
▁राह 8619
▁हालात 8598
▁इनकार 8582
▁स्थापित 8579
▁मतदान 8568
▁शा 8545
▁खुदा 8545
▁अस 8539
▁प्रेम 8526
र्म 8520
ोर 8516
ज़ाब 8513
▁सका 8504
▁नवंबर 8502
न्न 8498
▁प्रवक्ता 8488
▁शरीर 8471
गर 8470
▁शव 8468
▁नियंत्रण 8455
▁इलाकों 8438
▁चरण 8415
d 8412
र्न 8407
▁संभव 8399
▁वर्षीय 8382
▁ग्रामीण 8370
▁नोटिस 8366
ढ 8365
▁केस 8351
▁अंतरराष्ट्रीय 8348
▁जवानों 8346
▁लगाए 8344
▁ग़ 8344
▁घोटाले 8333
कश्मीर 8319
▁शुरुआत 8307
▁बेहद 8298
▁घोषित 8297
▁संबंधी 8295
▁नियम 8288
▁मर 8287
ये 8278
काल 8276
▁खोज 8266
पूर्ण 8259
▁बेशक 8256
▁मजबूत 8242
▁जनरल 8234
ाने 8229
▁क्लिक 8226
▁फरवरी 8225
▁जवान 8223
S 8221
▁स्टेशन 8216
▁कीमत 8208
▁हाईकोर्ट 8201
▁ममता 8193
▁रखी 8184
▁अरब 8182
द्द 8173
▁जिन्हें 8171
▁सुविधा 8169
▁सन् 8168
ंच 8167
लैंड 8167
▁समुदाय 8156
▁जस्टिस 8152
▁सम्मेलन 8138
▁ध 8136
▁पाकिस्तानी 8129
मु 8122
▁कं 8115
▁जानते 8102
▁सीटों 8098
▁एल 8094
▁झ 8091
▁पढ़ने 8084
एल 8072
▁हिंसा 8053
▁चिंता 8051
▁विश्वविद्यालय 8051
▁उद्देश्य 8047
▁उठाया 8046
▁21 8039
चार 8036
ियाँ 8034
▁बन्द 8028
सं 8026
्ब 8024
▁शीर्ष 8023
▁परि 8021
▁फ़ाइल 8021
▁इतिहास 8018
▁वर्तमान 8014
▁जमानत 8010
▁संभावना 8009
▁य 8007
▁समान 8001
▁जोर 7999
▁सितंबर 7999
▁भर्ती 7976
▁तुम्हारा 7958
▁उत्पादन 7942
▁दायर 7939
▁चाहती 7928
▁मूल्य 7907
▁पहला 7897
▁प्रो 7895
▁नदी 7892
▁एयर 7891
नों 7890
▁रोग 7885
▁तू 7882
▁ब्र 7873
▁अर्थ 7869
न् 7867
▁अमेरिकी 7842
▁आरोपियों 7838
ास 7825
▁धारा 7824
▁22 7808
▁जताई 7807
▁रहता 7806
रू 7797
▁शि 7795
▁पाने 7781
▁लड़ 7775
शि 7756
0 7755
▁उसको 7746
ar 7745
▁खराब 7743
▁सीधे 7742
▁प्रणाली 7742
▁बातें 7730
▁बराबर 7728
द्र 7724
▁सप्ताह 7722
▁बचा 7720
▁कोलकाता 7710
▁डिग्री 7706
▁40 7701
▁गठन 7696
▁शिवसेना 7692
▁दबाव 7688
▁देगा 7687
▁ऊ 7680
▁वृद्धि 7679
▁हटा 7676
ंध 7663
▁जिम्मेदारी 7662
▁आते 7654
वादी 7654
▁लाए 7653
▁संसदीय 7649
रु 7647
▁क्र 7644
▁_ 7640
▁कर्म 7635
▁कार्यकर्ताओं 7628
▁जु 7621
▁रोकने 7618
▁पटेल 7613
▁युवक 7611
कारी 7610
▁भविष्य 7609
ंडा 7608
▁खड़े 7607
▁तमाम 7603
वाला 7598
ेंद्र 7594
▁हमारा 7582
▁नीतीश 7579
▁सम्मान 7565
▁जेटली 7551
ेंट 7542
▁सू 7542
▁जि 7538
▁मनमोहन 7538
वाह 7537
▁सफल 7535
“ 7521
▁अवधि 7509
ाल 7501
▁बैठे 7501
▁आवश्यकता 7498
▁ज़मीन 7497
▁विरोधी 7495
▁सफलता 7482
▁भा 7481
▁पूछा 7478
ज्ज 7471
▁न्याय 7469
▁कट 7468
▁बद 7459
▁वेबसाइट 7456
▁रू 7454
▁राजा 7452
▁इलाज 7448
▁चुनावी 7447
▁दूसरा 7438
▁बहु 7437
कल 7435
▁मिलकर 7434
ंप 7433
▁उठाए 7430
▁डा 7424
▁परिषद 7423
▁बु 7415
▁करनी 7412
▁पाए 7410
▁उम्र 7409
▁पुत्र 7408
▁सिर 7389
शील 7388
ल्ल 7386
डा 7385
▁राजनाथ 7382
▁इन्कार 7381
▁दरअसल 7374
▁समारोह 7373
▁नेटवर्क 7361
▁आवास 7360
ख़ 7360
▁A 7352
▁ड 7347
एफ 7328
& 7327
▁सामना 7320
ज्ञ 7316
> 7311
▁यात्रियों 7306
▁केरल 7299
▁जानता 7299
▁तैनात 7291
▁बोल 7280
▁कर्नाटक 7278
▁समाप्त 7274
▁कड़ी 7259
▁44 7247
▁आतंकवाद 7245
▁किये 7239
▁वन 7238
▁मंजूरी 7231
▁बैंकों 7231
▁रु 7227
▁लि 7222
▁विस्तार 7209
▁अध्ययन 7206
▁शब्द 7205
▁पुराने 7202
▁उठ 7194
▁विकसित 7192
▁योग 7191
▁निर्धारित 7187
ेंस 7179
ऋ 7179
▁तमिलनाडु 7164
ौम 7154
▁इनके 7141
▁अधिनियम 7129
▁हिंदू 7127
▁बसपा 7126
▁संस्थान 7114
▁किन्तु 7114
▁जय 7112
▁तापमान 7110
▁नागरिक 7108
ही 7101
रत 7086
▁वैसे 7082
धार 7080
▁खोल 7075
▁सै 7074
वन 7065
▁यक 7055
▁बदले 7053
▁अरविंद 7050
▁अंग 7044
▁वी 7043
▁स्वामी 7038
▁आवश्यक 7037
पो 7030
▁बनाई 7029
/ 7029
ण्ड 7029
▁पहुंची 7022
▁किसान 7021
▁पकड़ 7019
▁जिन्होंने 7017
▁निदेशक 7014
िटी 7013
▁बदला 7013
पन 7013
▁तेजी 7010
▁तलाश 7009
▁शांति 7006
# 7005
▁विज्ञान 7004
g 7002
▁भरोसा 6997
▁१ 6997
▁कॉलेज 6994
▁असम 6989
गार 6988
▁बच 6979
▁स्क 6973
▁विधायकों 6963
▁रखे 6955
▁श्रीनगर 6948
▁ऑ 6935
▁शख्स 6933
▁भुगतान 6928
▁भू 6925
हार 6917
▁ठ 6912
▁युवा 6907
▁2014 6902
▁सख्त 6902
बार 6902
ेज 6891
▁समक्ष 6884
▁जाति 6877
िए 6877
हम 6873
▁ऊर्जा 6869
▁अत्य 6868
▁बाबा 6863
▁गुरु 6861
▁तुमसे 6861
▁काल 6860
▁वस्तु 6854
▁निशाना 6841
▁मुलायम 6841
▁जिनके 6840
सु 6840
▁कर्मचारियों 6837
▁अक्टूबर 6836
▁संशोधन 6834
▁राज्यपाल 6828
I 6828
▁सिवा 6828
▁हु 6822
▁मंत्रियों 6820
▁युवती 6816
▁रहेंगे 6813
▁गठबंधन 6807
▁रैली 6805
▁नही 6802
▁जिनमें 6801
▁संस्था 6799
L 6797
▁कार्ड 6786
▁शहीद 6782
ाइट 6781
▁आकाश 6781
स् 6778
▁जिनक 6778
ाइन 6757
ियन 6756
डे 6751
़ीन 6747
▁आरक्षण 6740
▁प्रबंधन 6718
▁जाकर 6715
▁विकल्प 6710
▁अव 6701
लू 6700
▁लड़ाई 6693
ुक 6682
▁मुद्दा 6668
▁सलाह 6665
▁पु 6662
▁सुना 6662
तम 6659
िस्ट 6656
▁कराई 6650
वें 6649
▁सैन्य 6643
▁लड़की 6643
▁दोषी 6630
▁26 6625
्वा 6623
यी 6623
म् 6623
▁O 6617
▁खड़ा 6615
▁प्रश्न 6614
▁कमेटी 6613
▁सुनिश्चित 6611
▁अखिलेश 6603
▁एक्स 6602
दे 6587
▁आसमान 6578
▁कस 6573
▁अनुभव 6570
ष् 6570
▁भवन 6560
कु 6553
▁प्रत्याशी 6543
▁लेना 6541
▁Raj 6537
▁रोड 6534
▁मुश्किल 6526
▁आता 6525
▁विधि 6518
धा 6513
▁आवेदन 6508
्ज 6503
▁अल 6503
▁सिफारिश 6498
देव 6494
्श 6491
▁शायद 6489
an 6489
▁शिव 6489
ौर 6480
▁जीएसटी 6480
▁खाते 6479
गो 6476
▁2017 6468
▁हवा 6461
▁भीड़ 6461
▁हेतु 6461
▁23 6455
म्बर 6454
C 6451
▁मुद्दों 6440
▁टिप्पणी 6437
ूल 6434
▁बो 6429
▁संघर्ष 6425
▁28 6418
लाल 6416
▁निशान 6414
▁आशंका 6413
▁तभी 6405
बर 6402
▁27 6399
▁प्रशिक्षण 6393
▁ऋण 6388
▁मिनट 6383
▁थाने 6383
▁रुप 6379
▁दृष्टि 6379
▁दोपहर 6378
▁होनी 6377
ैन 6375
▁उल्लंघन 6368
▁उतर 6361
दु 6359
▁100 6359
▁फल 6359
▁उचित 6356
▁जिलों 6346
▁स्ट 6344
▁आरोपों 6337
ाम 6337
▁रहेगा 6335
▁उदाहरण 6334
▁सोशल 6332
▁व्यापार 6326
▁पड़ी 6320
▁माता 6320
ियो 6307
▁संबोधित 6307
म्ब 6302
▁सुन 6301
▁पे 6297
▁इस्लाम 6295
▁खो 6294
▁आधारित 6292
▁शिकार 6290
र्ग 6289
िर 6287
▁मालूम 6286
चर 6278
▁अरुण 6275
▁जितन 6274
सर 6272
▁नियुक्ति 6272
▁रुख 6269
▁उत्तराखंड 6268
ेन 6266
▁ट्वीट 6255
▁भाषण 6255
▁देती 6249
▁महासचिव 6244
▁परिजनों 6243
▁निगम 6238
▁आयोजन 6235
▁अमित 6233
▁किलोमीटर 6218
▁मूसा 6218
▁प्रौद्योगिकी 6217
▁मेल 6215
▁पालन 6214
▁बरामद 6210
achin 6209
▁छोड़कर 6209
▁कॉ 6204
▁मेडिकल 6201
▁मुखर्जी 6195
▁दौरे 6189
▁पुस्तक 6182
▁2016 6179
▁वित्तीय 6178
▁दस्तावेज 6175
▁मौका 6169
िज 6167
▁चली 6163
▁रास्ते 6163
▁मुक्त 6161
▁निश्चित 6158
▁लगाई 6158
गल 6157
▁रणनीति 6152
al 6145
▁Verma 6139
▁हवाई 6138
▁यूपी 6137
▁मालिक 6136
▁मित्र 6134
कृत 6134
▁कानूनी 6133
्ति 6130
▁कैबिनेट 6129
▁बनाकर 6124
▁वार्ता 6119
▁सीबीआई 6119
वल 6116
ात्मक 6113
▁इन्हें 6112
▁तीनों 6108
▁चलने 6108
त्य 6108
▁रहती 6101
▁मी 6095
▁साजिश 6092
▁उधर 6091
▁वै 6091
n 6089
▁छवि 6086
▁मना 6085
चा 6080
▁प्रधान 6077
▁कार्यकर्ता 6060
b 6060
▁यातना 6058
▁अहमद 6051
▁सफाई 6048
▁रास्ता 6046
▁अंतर 6044
▁जिम्मेदार 6039
▁मानना 6038
▁सर्व 6031
पे 6031
▁उपाध्यक्ष 6030
▁थाना 6028
▁फाइल 6019
▁भाव 6017
▁पारित 6016
र्च 6014
▁बीते 6012
नो 6012
▁छूट 6010
▁बचाव 6000
▁डाला 5994
▁सुझाव 5982
▁सहमति 5977
▁चौ 5974
एच 5972
▁जरिये 5969
▁नोटबंदी 5965
िव 5962
▁बम 5951
▁इस्तीफा 5950
▁गिरफ्तारी 5945
्यु 5943
▁पै 5942
▁वास्तव 5941
▁31 5939
तन 5939
▁पर्यावरण 5937
स्ट्र 5937
▁तुमने 5928
ियर 5923
▁सम् 5922
▁मंच 5918
क्र 5918
▁ताकत 5911
▁खुश 5911
▁एंड 5908
▁प्रा 5896
िग 5895
▁तेल 5890
▁पाल 5870
▁लाइन 5870
▁आती 5870
▁एड 5862
▁मात्रा 5860
▁हुक्म 5859
▁संगठनों 5857
▁बजाय 5852
▁इतनी 5843
▁सीएम 5841
▁पंचायत 5827
▁नव 5821
Manish 5820
▁मृत्यु 5820
▁लालू 5820
▁दशक 5818
▁पैसे 5816
▁Negi 5811
जर 5808
▁प्रस्तुत 5804
▁मिलेगा 5802
सि 5802
▁फांसी 5792
▁दम 5790
▁बोले 5788
ाइल 5787
▁हिरासत 5781
▁पहल 5779
▁गत 5773
▁सामान 5769
▁चंद्र 5763
▁पटना 5757
▁मुकदमा 5750
▁घट 5747
▁प्रमाण 5743
▁विवाह 5742
ेश्वर 5742
▁इच्छा 5742
▁सच 5733
ल्ड 5732
▁यानी 5730
▁एक्सप्रेस 5728
स्क 5728
▁सकें 5726
▁महान 5725
▁भले 5722
▁बेच 5716
▁मांगी 5712
▁हल 5708
A 5705
ीर 5698
▁सहायक 5695
यामत 5692
▁आनंद 5688
र्द 5687
▁टे 5686
▁नेशनल 5686
▁वर्षों 5682
v 5678
▁परीक्षण 5676
भूत 5670
▁गैस 5667
▁अवैध 5663
▁तोड़ 5660
▁आसपास 5657
भर 5648
▁नौकरी 5647
▁रोजगार 5647
▁एजेंसियों 5641
▁पाई 5639
▁2012 5637
▁चुन 5636
▁मशीन 5636
▁तुलना 5636
श्व 5632
er 5630
▁उठाने 5629
▁देवी 5628
▁शहरों 5627
▁मनुष्य 5622
l 5620
▁0 5618
▁क्रिया 5611
▁धार्मिक 5609
▁स्थापना 5600
था 5598
हे 5598
▁हैदराबाद 5594
▁बाहरी 5594
▁गति 5593
▁गुण 5592
▁निकट 5591
▁झारखंड 5588
▁प्रावधान 5588
निक 5583
▁सांसदों 5577
िंद 5576
ानी 5575
मत 5574
▁उड़ान 5571
▁सवार 5570
▁दर्जन 5570
ॉल 5569
▁नेपाल 5568
▁छात्रा 5557
▁युवाओं 5557
जि 5557
ियत 5551
▁60 5551
▁परेशान 5544
दर 5543
▁श्रेणी 5542
▁बर 5538
▁मानते 5536
50 5535
फर 5534
▁” 5534
गढ़ 5530
▁बातों 5526
णी 5516
जू 5516
▁धमकी 5514
▁टैक्स 5512
▁माहौल 5510
▁रुक 5509
▁खाली 5505
M 5505
▁रुपए 5502
▁बैठ 5500
▁पहुंचने 5499
▁बाकी 5498
E 5498
▁संजय 5496
▁बचाने 5491
▁लें 5491
▁नियमों 5483
▁मकान 5481
▁जुड़ी 5478
▁भेजे 5476
▁दोबारा 5472
सम 5471
▁पो 5467
वाली 5460
▁आख़िर 5460
▁मुसलमानों 5458
▁पढ़ 5454
ूँ 5451
वाल 5449
▁पर्याप्त 5449
▁अहमदाबाद 5448
▁चलाने 5444
▁लिख 5439
▁कल्याण 5437
▁प्रेट्र 5432
ां 5426
▁कथित 5425
▁N 5423
▁जंगल 5423
▁तंत्र 5418
▁प्रतिक्रिया 5417
▁मुठभेड़ 5412
▁एच 5412
द्व 5410
▁तार 5409
▁दौर 5409
▁अमर 5408
▁कर्मचारी 5405
▁लाया 5398
▁भगवान 5397
▁पड़ता 5394
▁विपक्षी 5394
▁रखना 5393
मय 5392
▁सिस्टम 5391
▁सेक्टर 5388
▁फीसदी 5388
वत 5388
▁जज 5384
▁जरूर 5382
▁संसाधन 5380
ल् 5376
▁घरों 5374
निया 5374
▁तत्काल 5373
ंगे 5366
ज़िल 5366
▁टूट 5359
▁व्य 5357
क्शन 5356
▁तुमको 5355
श्त 5354
▁खाने 5354
रन 5351
▁अनिवार्य 5350
▁बहन 5347
▁वाहन 5337
▁P 5330
ेल 5325
च्छ 5325
गे 5324
▁सिद्ध 5323
▁संकट 5319
▁रूस 5310
▁बाग 5309
कर्ता 5306
▁जमकर 5303
▁स्थल 5302
▁गोवा 5293
▁जीव 5292
सू 5291
▁दवा 5289
श् 5283
▁मू 5280
▁अंग्रेजी 5278
▁सामग्री 5274
▁अली 5269
▁हिंदी 5268
हि 5267
▁कमजोर 5263
▁तृणमूल 5259
▁वास्ते 5259
▁व्यवहार 5257
▁स्थानों 5252
्रा 5248
▁वेतन 5244
▁उतार 5242
▁ईमानदार 5237
▁आवाज 5233
▁हाथों 5225
▁नियुक्त 5225
▁सुषमा 5223
▁हक़ 5222
▁खतरा 5220
▁B 5219
▁निगरानी 5218
णा 5215
▁उल्लेखनीय 5211
▁राव 5208
▁हादसे 5204
▁गोली 5202
हत 5200
▁शर्त 5189
▁पस 5187
P 5186
▁चुनावों 5184
▁बहस 5184
▁अधिकांश 5183
गंज 5183
▁रद 5182
▁फैल 5170
▁संप्रग 5169
▁फर्जी 5168
▁तुरंत 5163
▁तस्वीर 5154
▁फायदा 5153
eet 5152
ीम 5150
▁गतिविधियों 5149
स्व 5148
▁शक 5143
▁जोड़ 5142
वास 5141
▁पीड़ित 5137
▁चा 5137
▁प्रेस 5136
▁न्यायमूर्ति 5136
▁साहित्य 5133
▁स्वागत 5132
▁महसूस 5131
▁हथियार 5128
ंब 5127
▁अर्थव्यवस्था 5127
▁पुरस्कार 5126
▁मिशन 5125
▁प्रथम 5124
▁समीक्षा 5122
▁Singh 5120
▁स्वतंत्रता 5118
▁आंध्र 5116
▁रेखा 5115
▁2011 5113
▁अनुमान 5112
▁गांवों 5111
▁चौधरी 5109
▁पश्चिमी 5106
▁भावना 5105
▁खाद्य 5104
▁छोटी 5104
▁वहाँ 5104
▁संरक्षण 5103
▁लंबे 5101
▁सारी 5099
▁पुरुष 5095
ोज 5094
▁2013 5094
स्म 5093
▁जाहिर 5089
▁चयन 5085
ाक 5083
▁महत्व 5079
▁कर्ज 5075
साथ 5068
▁अध्यक्षता 5065
▁29 5060
चि 5058
अलग 5044
▁जिक्र 5043
▁टा 5042
▁तकनीक 5038
भि 5036
▁Mo 5035
▁आसान 5030
▁चित्र 5028
चे 5027
धि 5025
▁परमाणु 5021
▁चीनी 5020
▁पुष्टि 5016
▁मिलता 5013
on 5012
▁भूल 5008
ेस 4997
▁फेंक 4996
▁मौ 4991
▁व्यापक 4989
▁समाधान 4985
▁चेतावनी 4984
ंगल 4983
▁पहुँच 4983
▁होटल 4980
▁गुनाह 4973
▁आयुक्त 4958
▁चंद 4957
▁जग 4954
▁अंक 4952
एंगे 4949
पीसी 4945
▁रखता 4944
फी 4940
ल्ला 4939
▁हफ्ते 4938
क्षा 4938
f 4935
टो 4934
▁आपूर्ति 4932
▁दर्शन 4931
▁मिलेगी 4929
ाना 4926
▁लोकपाल 4923
▁शराब 4921
▁ग्राम 4921
तत्कालीन 4913
▁यात्री 4912
▁गुजर 4907
▁फि 4905
इस 4903
▁सुख 4902
▁स्वराज 4898
▁मं 4897
▁इंतजार 4896
▁दूरी 4895
▁प्रदूषण 4894
▁मात्र 4891
jha 4885
▁लिहाजा 4881
▁सीटें 4878
▁सक्षम 4876
▁वास्तविक 4876
▁निम्न 4871
▁हाउस 4870
▁आकर 4863
▁शपथ 4862
▁अचानक 4861
▁विशिष्ट 4860
▁बीज 4858
▁नक्सलियों 4858
▁मीटर 4857
▁M 4857
▁जल्दी 4856
ैल 4855
T 4854
▁Gun 4853
▁स्प 4853
ज़ा 4846
▁प्रणब 4842
▁कार्यकाल 4841
▁पत्थर 4840
▁लंबी 4840
▁सहयोगी 4834
ष्ठ 4834
k 4832
▁तर 4831
▁पूछ 4831
▁मिश्र 4829
▁अंतर्गत 4822
▁मतलब 4819
▁एसपी 4814
्रे 4813
ोल 4812
▁बनाना 4812
▁केन्द्र 4811
▁तनाव 4809
▁आस 4809
▁आजादी 4807
▁1. 4806
▁सालों 4804
सन 4802
▁अनुसंधान 4801
▁पुकार 4800
जो 4798
▁पैग 4798
▁प्रतिबंध 4796
▁योजनाओं 4789
▁चिदंबरम 4789
▁डॉक्टर 4787
▁काट 4786
गम 4784
▁इब 4781
▁कराए 4778
▁भड़क 4776
म्म 4767
▁आकार 4766
in 4763
▁आग्रह 4759
नु 4759
योग 4753
▁समझौते 4752
चल 4752
पति 4750
@ 4749
ाबाद 4746
▁लागत 4743
्न 4740
▁ऑपरेशन 4738
▁साधन 4732
▁तर्क 4731
▁आयकर 4731
▁परिसर 4725
▁जाओ 4719
▁खुले 4719
ुआ 4718
लर 4718
▁निस्संदेह 4716
▁आडवाणी 4715
र्ण 4713
▁वादा 4712
▁इनकी 4710
▁बुरी 4709
▁चाह 4704
▁फेसबुक 4699
करण 4699
▁बाप 4695
धान 4693
▁पूजा 4693
▁औ 4692
▁तारीख 4691
▁चेन्नई 4690
वाई 4682
▁दुकान 4679
▁कब 4677
▁पैसा 4676
ार्थ 4675
▁C 4675
▁रहना 4673
▁कंप्यूटर 4673
▁T 4673
▁तु 4672
वां 4671
▁दिखाया 4668
▁अति 4667
टिंग 4665
▁पूछे 4662
प्प 4661
दो 4660
▁आशा 4660
▁घटनाओं 4656
ांत 4652
▁स् 4650
िम 4646
▁छत्तीसगढ़ 4645
,000 4644
▁गुप्ता 4642
पु 4640
▁राजीव 4638
▁2015 4632
पत्र 4632
▁चैनल 4627
▁हटाने 4627
क्त 4624
▁ठंड 4621
▁रवाना 4620
▁कारोबार 4618
▁आलोचना 4618
फो 4616
▁बाढ़ 4616
▁वायु 4616
▁घाटी 4608
क्ल 4607
▁ढंग 4606
▁35 4603
जहाँ 4598
▁राजग 4594
▁अधिकतम 4588
▁बांग्लादेश 4587
▁परंतु 4581
▁बुला 4570
▁फेर 4570
▁पहुँचा 4570
▁पढ़ाई 4564
▁स्कूलों 4560
▁तलाक 4560
▁कला 4559
▁गोल 4558
▁बनर्जी 4558
▁मोह 4555
▁कहानी 4555
नीय 4555
▁पीड़िता 4554
▁दलील 4553
▁बिल्कुल 4553
▁एफ 4551
ाप 4548
▁खुलासा 4545
▁बुरा 4545
pai 4541
R 4539
▁व्यक्त 4536
▁उत्पन्न 4534
▁रोज़ 4534
भाव 4533
र्व 4533
▁परन्तु 4531
▁डाक 4530
▁औद्योगिक 4528
▁आजम 4521
▁चिकित्सा 4517
▁तकनीकी 4516
शे 4513
जेएनएन 4512
▁न्यूनतम 4512
▁हिस्से 4511
▁हवाला 4509
जनक 4509
▁मंडल 4508
▁खाता 4508
रूप 4508
▁लु 4507
त्व 4502
▁हिसाब 4500
▁कार्यवाही 4487
▁जयपुर 4484
▁लॉ 4483
▁भोजन 4482
▁बरस 4481
▁बच्ची 4477
▁तिवारी 4475
▁वीर 4474
▁जाएँगे 4473
▁सकेंगे 4471
▁पैर 4468
▁हिमाचल 4467
▁जानी 4465
▁Baj 4464
▁संभाल 4463
▁रिकॉर्ड 4462
▁बीमारी 4460
डर 4457
▁कोयला 4456
हरा 4452
▁पत्रकारों 4452
▁क्रम 4449
▁संस्कृति 4444
▁बदलने 4443
शु 4441
< 4435
▁शोध 4434
▁अशोक 4429
० 4427
▁मुख्यालय 4422
पत 4422
▁कॉल 4419
▁खूब 4418
▁न्यायिक 4417
▁चारों 4417
ड्र 4415
▁बढ़ती 4413
▁70 4411
▁गिरोह 4409
▁बढ़ावा 4406
▁घुसपैठ 4399
ब्र 4398
▁न्यूज 4397
▁बै 4396
▁योग्य 4395
्ल 4394
▁मुहैया 4394
▁आधुनिक 4391
व्य 4389
हन 4386
म्प 4384
▁I 4384
▁पड़ेगा 4383
O 4383
▁उत्पाद 4381
लो 4380
▁आयु 4378
▁खेती 4378
▁सकेगा 4374
▁भेजने 4373
▁इंटरनेट 4372
स्ता 4371
▁घुस 4369
ची 4363
▁आदर्श 4363
▁गडकरी 4362
ाह 4362
ख्त 4358
▁उन्हीं 4356
▁प्रकाशित 4354
▁देखकर 4353
esh 4353
▁रहेगी 4351
▁लगने 4348
रम 4347
▁Kumar 4346
▁सीमित 4345
▁खुफिया 4343
▁आबादी 4340
Pratap 4334
▁झूठ 4333
▁किमी 4327
▁छा 4327
▁सौंप 4325
▁ब्रिटिश 4323
▁पसंद 4320
▁निर्यात 4314
▁खाना 4312
▁तीसरे 4310
D 4307
तु 4306
▁2010 4304
▁कठिन 4303
▁शुल्क 4302
्ड 4301
धे 4300
▁चोट 4298
▁दौरा 4295
▁सरकारों 4292
▁सेवाओं 4290
▁जदयू 4289
▁विरुद्ध 4289
▁क्षमा 4288
घर 4285
▁गठित 4284
▁आरंभ 4282
▁वर्षो 4279
▁धीरे 4279
▁महज 4279
▁हित 4277
▁उत् 4277
▁संत 4276
वाले 4276
▁दौड़ 4275
▁इतन 4273
▁संदर्भ 4268
▁एयरपोर्ट 4266
▁पेट 4261
▁बढ़ने 4260
▁2009 4259
मंत्री 4259
▁मिसाइल 4259
▁तत्व 4249
▁समझौता 4247
▁सियासी 4246
▁पदार्थ 4246
▁टन 4246
▁पोस्ट 4242
ट्ट 4242
्यो 4242
▁सुनाई 4239
▁सैनिकों 4238
▁आयात 4237
ाइड 4234
▁मायावती 4229
▁योगदान 4226
▁जम 4226
▁सम्बन्ध 4226
ल्ट 4222
बद्ध 4217
विध 4214
ंडर 4213
▁दुर्घटना 4211
च्च 4202
▁इलाहाबाद 4201
▁अंजाम 4196
▁चलता 4194
▁गरीब 4193
▁ट्रैक 4192
▁हद 4192
▁पश्चात 4192
▁समझा 4183
▁ज़रूर 4183
यन 4181
▁सद 4178
▁लेंगे 4177
” 4174
▁मांगा 4167
यें 4167
ोप 4165
▁फरमा 4161
▁दोस्त 4159
▁लगाते 4157
ट्री 4150
▁ज्यादातर 4150
▁मॉ 4149
▁नामक 4147
तौर 4147
▁खंड 4146
ान्त 4146
▁अनुरोध 4143
▁पहुंचाने 4140
▁रहीं 4139
▁उल्लेख 4136
▁छोटा 4134
▁पूर्वी 4134
▁मजबूर 4133
लोक 4132
▁लड़ने 4132
पूर्वक 4131
▁रिकार्ड 4130
is 4129
▁k 4128
▁समुद्र 4127
▁ब्रिटेन 4127
▁रचना 4126
यो 4124
भी 4122
▁मानसिक 4121
▁500 4121
▁लिखे 4121
हू 4117
▁झा 4116
▁मोहम्मद 4113
दर्श 4106
▁पढ़ा 4103
▁2008 4103
्छ 4102
प्त 4101
ठा 4100
▁पेड़ 4099
▁शो 4095
▁सड़कों 4094
▁बांध 4093
▁अखबार 4090
▁फ़ोल्डर 4090
ानंद 4087
▁पार्क 4084
▁घरेलू 4078
▁जिंदगी 4078
▁क्षेत्रीय 4073
▁मुकाबले 4071
▁लोकतंत्र 4069
▁स्वा 4068
▁दुख 4065
▁दंड 4065
▁नारायण 4064
▁कमान 4061
▁चौक 4061
▁तट 4061
▁रज 4057
▁पीट 4054
▁परिवहन 4052
▁इसको 4047
मुख 4045
▁कविता 4045
▁रकम 4042
्ष् 4040
ेक 4037
Kamal 4036
िकल 4036
▁जापान 4035
▁आत्म 4035
▁वैज्ञानिक 4033
▁रोज 4030
▁पाठ 4030
▁संगीत 4029
▁हक 4027
▁गवाह 4027
▁स्वरूप 4026
▁कक्षा 4024
▁इंडियन 4023
▁आखिर 4021
▁गाड़ी 4018
▁धु 4017
निर् 4017
▁फसल 4015
▁80 4013
▁ताल 4010
▁निकाला 4010
▁अक्सर 4009
▁देगी 4007
20 4006
▁शेयर 4006
▁पढ़े 4005
िड 4004
▁कवि 4000
▁प्रकृति 4000
▁ग्रहण 3999
▁बीमा 3998
▁साढ़े 3997
▁प्रभारी 3996
▁शाखा 3994
▁महिलाएं 3993
▁मनो 3990
ाइज 3987
▁प्रकट 3985
▁अर्जी 3984
ांक 3984
▁चढ़ 3983
▁सकी 3980
▁शब्दों 3979
▁एलान 3977
▁गाय 3977
▁जाएँ 3976
भाग 3975
बाद 3973
▁जोशी 3971
▁कद 3969
▁दाम 3967
▁San 3964
▁कहां 3963
िनी 3963
it 3962
▁सामूहिक 3962
▁गुमराह 3960
्टर 3958
▁डॉलर 3957
हीन 3954
▁बहुमत 3945
आप 3945
▁सिन्हा 3944
▁निर्भर 3943
▁स्वतंत्र 3942
▁नागरिकों 3939
▁परियोजनाओं 3930
▁खड़ी 3928
▁रहो 3926
▁दि 3925
▁स्रोत 3925
िय 3925
▁प्रभावी 3923
▁ऑनलाइन 3922
मल 3921
▁प्रगति 3920
▁बढ 3920
▁समस्याओं 3920
▁वर्मा 3919
▁बुलाया 3919
फे 3919
▁निभा 3917
धन 3916
▁डाय 3916
▁बढ़कर 3914
▁फैला 3913
▁हस्ताक्षर 3913
िज़ 3913
▁जब्त 3910
▁आपकी 3910
गन 3908
्ट 3908
ट्र 3907
Tiwari 3907
▁मिलती 3907
▁जयललिता 3907
w 3905
▁पुरानी 3904
जीत 3904
▁भय 3902
▁बादल 3900
▁गीत 3900
▁रच 3899
▁निकालने 3898
jeev 3896
दाय 3895
▁दू 3890
▁मुद्रा 3890
बु 3889
ोन 3889
— 3888
▁वाहनों 3887
▁मल 3886
▁2. 3885
▁ट्रेनों 3885
▁फूल 3885
▁डेढ़ 3883
ुद्दीन 3881
▁आजाद 3879
▁आवंटन 3878
▁मोहन 3876
र्ध 3876
ियम 3875
▁वाराणसी 3873
▁साथी 3870
▁उद्यम 3869
▁प्राकृतिक 3867
▁वापसी 3865
दि 3863
‘ 3863
▁पुल 3862
ोस 3862
▁समाजवादी 3862
▁उड़ 3857
▁स्थायी 3853
▁परंपरा 3853
▁लौटा 3852
खी 3850
▁विफल 3847
▁माफी 3846
ंदा 3845
▁प्ल 3840
▁समर्थकों 3840
्क 3839
▁मद 3838
▁भूकंप 3836
▁घो 3836
▁उपस्थित 3833
▁सेंटर 3832
c 3832
▁अफसरों 3831
िक्स 3831
▁खुशी 3831
▁कैंप 3830
▁चालक 3829
रि 3821
▁खींच 3820
▁लेखक 3820
▁लाइसेंस 3819
▁मुख 3819
▁आफ 3812
▁री 3810
श्र 3810
▁टू 3809
▁पेट्रोल 3806
▁साझा 3805
▁हिदायत 3805
▁संकल्प 3803
▁दूध 3802
▁नजदीक 3801
िये 3801
▁आना 3801
▁अंतर् 3801
▁हजारों 3800
▁बलों 3798
श्य 3798
), 3791
▁गुट 3788
▁विस्फोट 3786
नर 3786
▁कानपुर 3784
ताओं 3784
लों 3783
U 3782
▁हट 3781
▁अपेक्षा 3781
▁निपटने 3779
▁किनारे 3778
▁मद्देनजर 3777
▁बिक्री 3777
▁होंगी 3756
▁मिश्रा 3756
▁आत्महत्या 3756
▁एक्ट 3755
▁इजाजत 3755
▁छिपा 3755
▁देखें 3754
▁फायरिंग 3753
▁इजरायल 3751
▁नाराज 3751
▁मानसून 3750
▁कितने 3748
▁जैन 3748
▁भटक 3747
▁जंग 3745
▁जला 3740
ल्प 3739
▁व्यक्तिगत 3737
▁अवश्य 3736
त्री 3735
▁चाहिये 3732
▁गुणवत्ता 3732
▁फो 3731
▁कहो 3731
▁दिये 3730
▁पहन 3729
▁शेख 3728
▁भोपाल 3726
मि 3726
▁ठहरा 3724
हाल 3723
▁उपकरण 3721
▁देरी 3720
▁उर्फ 3719
ालय 3718
ल्स 3716
▁टीवी 3715
▁मिलते 3715
एक 3714
▁मस्जिद 3714
▁कौ 3714
▁समाचार 3710
▁रक्त 3708
▁शुरु 3707
▁सूर्य 3706
▁सांस 3702
▁उल 3700
▁पुनर् 3698
▁लूट 3696
▁मंत्रिमंडल 3695
▁सिद्धांत 3695
▁आगरा 3693
▁नर 3692
▁कमरे 3690
▁कितनी 3690
▁दान 3686
▁स्मृति 3684
▁नेहरू 3684
▁विवरण 3683
▁सां 3682
▁गृहमंत्री 3681
मंद 3679
▁भु 3677
▁गईं 3676
▁फा 3672
▁शेष 3672
टल 3671
्द 3671
▁लड़कियों 3670
▁विशाल 3670
ृत 3669
पुरी 3667
वर्ती 3667
▁पल 3666
▁नाग 3662
यत 3662
▁बाज़ 3662
▁साइट 3659
▁उत्तरी 3657
N 3656
▁आपस 3652
्ली 3651
▁डॉक्टरों 3650
▁अवस्था 3647
रमा 3645
▁संबंधों 3640
▁आसानी 3640
लिया 3639
▁नौसेना 3637
फ्ट 3636
▁खुल 3632
▁अधीन 3632
▁भारतीयों 3630
▁मुंह 3629
▁चू 3629
ग़ 3629
धी 3625
▁संग 3624
▁प्रोजेक्ट 3624
▁बांट 3623
▁उतन 3622
▁शरद 3621
▁कृपया 3621
▁शीघ्र 3619
▁दृश्य 3617
▁चोरी 3617
▁मेट्रो 3617
ौल 3616
▁शहरी 3615
r 3612
▁अगली 3612
▁नियमित 3611
▁सबको 3608
तो 3607
▁काले 3607
▁जानने 3605
▁टो 3605
▁व्यवसाय 3603
▁सर्वे 3603
▁जहाज 3602
▁विंडो 3601
ाज 3596
▁नाटक 3596
▁क्रिकेट 3595
▁लश्कर 3594
▁संस्थानों 3592
▁अमल 3591
▁चाल 3591
▁परेशानी 3590
▁महाराज 3587
▁औसत 3586
र्प 3585
▁विस्तृत 3584
▁ग्रुप 3579
▁ईश्वर 3579
▁भिन्न 3579
▁आत्मा 3578
▁चे 3577
▁एशिया 3574
▁बोझ 3573
▁प्रत्यक्ष 3573
रिक 3570
▁दायरे 3570
नू 3569
▁युवकों 3568
शाली 3567
▁उपाय 3565
चक 3564
▁खबरों 3564
तान 3563
▁फरार 3562
िप 3560
▁चै 3559
▁आपदा 3556
▁ठाकरे 3555
धर 3555
▁गुना 3550
दास 3548
▁किंतु 3546
▁जाय 3545
▁हंगामा 3544
▁सार 3543
or 3536
▁खतरे 3535
▁ट्विटर 3535
▁चु 3535
▁अन्त 3535
▁पत्रकार 3534
बाजी 3531
ed 3530
▁नये 3527
▁लगाकर 3524
▁अंध 3524
▁बताने 3523
▁हेलीकॉप्टर 3523
ाधिकार 3522
ेस्ट 3521
▁पुन 3519
▁एं 3518
▁पलट 3518
▁आपने 3517
रज़ 3514
▁खून 3512
▁नाकाम 3512
▁R 3504
▁प्राण 3504
▁इमारत 3502
▁ऐतिहासिक 3498
▁इनका 3498
▁90 3496
▁जोड़ने 3494
▁फ्रांस 3492
▁अधि 3491
क्रम 3489
▁प्रशासनिक 3485
▁सेल्सियस 3485
न्ना 3484
▁d 3478
ंगा 3474
▁प्रस्तावित 3474
▁जगहों 3474
राष्ट्रीय 3473
▁तथ्य 3471
▁रद्द 3470
’ 3469
▁संदेह 3468
▁नसीहत 3468
ेयर 3465
▁कितना 3465
क्का 3462
▁प्राथमिकता 3456
▁फंसे 3455
▁हिस्सों 3455
▁हड़ताल 3454
▁दीवार 3453
▁करवा 3451
लिंग 3450
▁इकाई 3449
▁विधान 3448
गण 3448
▁दलित 3447
▁पोल 3445
▁फार्म 3441
▁शिक्षक 3440
ॉट 3439
en 3436
▁आयतों 3435
▁लहर 3434
▁दया 3432
▁पिछली 3431
▁45 3430
▁शु 3430
▁आव 3430
▁सीधा 3429
▁महीनों 3429
▁ख़बर 3429
▁सुभाष 3428
प्ल 3427
▁प्यार 3425
ाऊ 3424
▁फे 3423
▁इंदिरा 3422
▁हृदय 3421
▁पेंशन 3420
शो 3417
▁डो 3414
▁छोड़ने 3411
▁फै 3411
▁घेर 3408
ोड 3408
बीर 3407
▁राजद 3405
▁नक्सली 3404
▁उम्मीदवारों 3401
▁दैनिक 3398
▁कांड 3398
▁युग 3397
▁गुलाम 3395
ैर 3394
कुल 3393
▁सेट 3391
▁मॉडल 3390
कू 3388
▁सीख 3387
( 3386
▁किरण 3386
▁उपचार 3385
▁व्या 3385
▁कायम 3384
▁हजारे 3384
▁परिवारों 3383
▁माने 3383
▁रफ्तार 3382
▁समझते 3376
▁व्यक्तियों 3375
▁पायलट 3375
▁चयनित 3372
F 3371
▁निकले 3370
▁आपत्ति 3369
▁जुड़ 3369
▁संचार 3367
▁सफर 3366
▁पर्यटन 3366
re 3363
▁झुक 3362
▁जुड़ा 3361
▁भग 3360
सल 3359
▁लिखी 3359
▁पथ 3359
H 3358
▁नोएडा 3357
▁2000 3355
▁मिट्टी 3354
▁2007 3354
as 3352
▁सबूत 3350
▁रेप 3350
ून 3349
▁उमर 3347
▁रखो 3347
▁p 3346
ोगे 3345
ेक्ट 3344
30 3344
▁रखें 3333
▁चूंकि 3331
▁बताई 3330
साद 3330
▁ईडी 3328
▁बंध 3328
दारी 3326
▁रामदेव 3325
गाम 3324
लेट 3323
▁सर्वर 3322
नेवाले 3321
▁गंभीरता 3320
इयों 3320
▁संरचना 3319
▁सांप्रदायिक 3318
▁बढ़ी 3315
▁आपका 3315
▁पक्षों 3313
▁महंगाई 3313
▁अदा 3312
▁लेख 3312
▁काला 3309
▁बुद्धि 3305
▁कामकाज 3305
▁आश्रम 3305
▁आधिकारिक 3304
▁अनुच्छेद 3303
▁अकेले 3303
▁यौन 3301
ग्राफ 3301
▁संदिग्ध 3300
▁b 3298
▁भेजी 3296
नाम 3293
▁संचालन 3290
▁प्रत्य 3287
▁मंत्र 3286
▁नायडू 3286
▁लिमिटेड 3285
▁पेज 3285
▁चेहरे 3284
▁लेता 3283
ंडी 3283
्टी 3282
" 3280
▁कू 3279
▁सूत्र 3278
▁दिखाने 3277
▁आगामी 3275
पि 3275
▁एप 3274
▁पूंजी 3274
▁अं 3273
▁घटा 3272
▁सैनिक 3268
▁सर्वाधिक 3268
K 3268
▁दबा 3265
▁वायुसेना 3263
▁ठहराया 3262
▁इंकार 3258
▁मिटा 3257
जात 3256
▁बुनियाद 3254
▁सलमान 3253
▁तेलंगाना 3252
फिल 3252
▁सुरक्षाबलों 3251
▁जुटा 3250
तों 3250
▁बेह 3250
▁नील 3249
▁शैतान 3249
▁मारा 3247
▁वारदात 3246
▁धर 3245
▁संग्रह 3243
▁गर्म 3239
▁अपर 3239
▁टाल 3239
▁जाम 3238
▁बरत 3237
▁पड़ोसी 3235
▁भारती 3234
▁प्रारंभ 3232
▁झुठला 3231
x 3226
▁w 3225
▁रहें 3224
खंड 3224
▁कारणों 3223
▁आपराधिक 3220
र्थ 3219
▁कृष्ण 3218
▁समर्थक 3218
▁a 3218
र्त 3217
▁सुनने 3216
▁दर्द 3215
▁दिला 3215
▁200 3213
▁अता 3211
▁रस 3209
j 3209
▁गुर 3209
ज़ी 3204
▁बगैर 3201
▁दुश्मन 3197
▁पंडित 3197
▁त्रुटि 3196
▁रिहा 3193
क्ति 3193
्चर 3192
▁गर्मी 3192
वीर 3192
▁सवालों 3190
पार 3187
▁सरदार 3186
▁आखिरी 3185
▁पृष्ठ 3182
तक 3181
▁जड़ 3181
डीए 3181
्नी 3179
गाह 3178
▁चलाया 3177
उन 3175
▁अर् 3170
▁साथियों 3167
▁पार्टियों 3167
▁मस 3167
▁मकसद 3165
▁गेट 3164
जासं 3164
▁शिविर 3163
▁लिखित 3163
▁वैश्विक 3162
▁चेक 3162
▁आसाराम 3162
▁बनाते 3160
▁प्रतिनिधि 3152
▁सूरत 3150
▁बधाई 3150
▁बेटा 3149
▁इंटर 3148
▁संहिता 3148
▁कठोर 3146
▁अंश 3146
▁निर 3146
▁न्यू 3145
▁अत्याचार 3143
▁दास 3143
▁प्रसिद्ध 3140
▁यद्यपि 3140
▁बीमार 3137
▁पृथ्वी 3136
▁हरकत 3133
▁लड़के 3131
▁मुसलमान 3131
▁जाये 3131
▁संवाद 3130
▁हैः 3130
▁नमाज़ 3129
▁पहाड़ 3128
एमसी 3127
▁ब्रह्म 3126
▁देखना 3124
राब 3122
पुरा 3120
दल 3120
▁32 3120
▁दिलाने 3120
V 3120
▁मसले 3117
▁उत्पादों 3117
२ 3117
▁माल्या 3116
▁जताया 3116
▁सहारा 3115
▁मोर्चा 3115
द् 3113
▁साम 3113
▁फ्र 3112
▁औपचारिक 3109
गांव 3105
▁सिविल 3105
▁टि 3105
▁डालने 3104
▁सुंदर 3104
▁प्रभु 3103
▁मचा 3102
... 3101
▁घूम 3101
▁बख्श 3100
लेख 3099
▁D 3098
! 3098
▁सदस्यता 3096
▁उभर 3096
▁निवास 3096
ल्फ 3095
पिता 3095
▁घाट 3094
कारों 3094
वेद 3092
▁ब्लॉक 3089
▁पट 3087
▁निधि 3085
▁प्रतिभा 3084
▁निकलने 3081
▁राजस्व 3077
कृति 3074
एनएस 3073
▁आश्वासन 3071
▁दिलों 3068
▁ठाकुर 3067
▁भला 3063
▁पुणे 3062
▁मनोहर 3061
▁मान्यता 3061
▁रिजर्व 3060
▁डाटा 3060
▁प्राधिकरण 3060
▁आंकड़ों 3058
▁भरी 3054
▁अल् 3053
▁मेरठ 3050
पीएस 3049
दीप 3049
▁माकपा 3048
▁अधिकारों 3047
▁वस्तुओं 3046
▁असफल 3046
▁कहेंगे 3045
▁अर 3044
राव 3044
▁ग्रामीणों 3041
▁ब्याज 3040
▁मोमिन 3040
▁विशेषज्ञ 3039
ri 3039
▁गढ़ 3039
▁लंबित 3038
▁सिखा 3037
▁विल 3036
▁गिरा 3035
▁नाबालिग 3034
▁थोड़ा 3034
वेश 3034
▁विचारों 3034
▁सुल 3034
▁सिलसिले 3033
▁विद्यालय 3033
▁जुट 3031
▁c 3030
▁चुना 3028
▁प्रोग्राम 3028
▁बिगड़ 3027
▁किस्म 3027
▁स्थगित 3026
▁संस्कृत 3024
▁दब 3021
मैं 3021
▁सिरे 3021
▁खां 3021
▁प्रबंध 3019
▁जहन्नुम 3019
▁महात्मा 3018
▁चालू 3018
हल 3017
▁आंकड़े 3014
▁इल 3011
▁in 3009
▁लिखने 3009
▁अपहरण 3008
▁जू 3008
▁बढ़ते 3007
▁प्रोफेसर 3007
▁किशोर 3006
▁स्टेट 3004
ीकृत 3003
▁अंतरिक्ष 3003
▁इसीलिए 3002
▁इक 3002
▁पू 3002
▁पवार 3001
▁तरीका 3000
▁चौहान 2999
ेगी 2999
▁अग्रवाल 2999
▁सागर 2999
▁सर्विस 2997
▁बेस 2997
०० 2997
▁नामांकन 2996
▁गरीबी 2993
ंठ 2992
▁कार्यक्रमों 2992
बंद 2991
▁बाग़ 2991
▁स्वच्छ 2989
▁वार 2989
हित 2988
▁सिख 2986
ैक 2984
▁खोलने 2983
▁प्राथमिक 2983
▁सेवाएं 2981
▁36 2980
▁टेस्ट 2979
▁गोलीबारी 2977
कांत 2975
▁ज़िन्द 2975
▁संतोष 2974
ॅ 2974
ांग 2973
▁रमेश 2973
▁पंच 2970
▁वितरण 2970
▁शून्य 2968
▁रोका 2964
▁इन् 2964
चन 2961
▁वाजपेयी 2960
लाइन 2960
▁सलाहकार 2960
▁चुने 2960
वर्त 2960
जार 2959
▁निलंबित 2958
यु 2957
▁बाबू 2957
▁चढ़ा 2956
▁सरल 2955
.. 2954
nika 2953
▁नवीन 2952
▁चेयरमैन 2951
▁आएगा 2951
बंध 2951
▁डूब 2950
▁गरीबों 2950
▁मूर्ति 2949
▁ट्रा 2947
▁कंपनियां 2947
▁अफसर 2946
फ़ार 2946
▁प्रतीक 2944
▁पड़ने 2942
▁खुली 2939
▁उड़ा 2939
डिया 2938
▁अधिग्रहण 2937
▁चुनें 2937
▁नष्ट 2936
अप 2936
▁अब्दुल 2934
त्ता 2934
▁थोड़ी 2930
▁दिग्विजय 2929
▁मारने 2925
▁सुर 2925
▁त्रि 2925
▁अर्थात 2925
▁परिस्थितियों 2924
▁जाया 2922
▁दर्जा 2921
▁मच 2918
▁श्र 2917
▁प्रार्थना 2917
▁कांफ्रेंस 2915
सार 2911
▁पुनः 2909
▁छप 2908
स्टर 2907
▁राजमार्ग 2907
▁दत्त 2903
राहीम 2902
▁निर्मित 2899
▁स्पेशल 2898
▁दादा 2897
टीसी 2896
▁संवेदनशील 2895
ांतर 2894
▁नाराजगी 2893
▁भरा 2893
▁कोच 2893
▁शताब्दी 2892
सो 2892
▁चिकित्सक 2891
▁संसार 2891
▁लघु 2890
▁विद्युत 2889
खे 2887
▁कहता 2885
िद 2881
▁Abhish 2880
▁लिहाज 2880
▁पर्वत 2876
दिष्ट 2876
टन 2875
एँगे 2875
15 2873
▁लाखों 2872
▁ढूंढ 2872
▁मृतक 2869
▁बोला 2868
▁गुप्त 2868
▁आंतरिक 2867
10 2865
फ़िर 2864
▁प्रेरित 2862
▁शारीरिक 2861
▁माँग 2861
▁श्रीलंका 2860
▁दीक्षित 2859
▁दिक्कत 2857
▁बताए 2857
▁जता 2856
▁घिर 2854
▁भूषण 2852
▁कैंसर 2849
▁ख्याल 2848
▁दीन 2848
▁मुखिया 2847
▁संस्थाओं 2847
▁काउंसिल 2847
षा 2846
युक्त 2845
▁वीजा 2845
▁मतदाताओं 2844
▁निर्वाचन 2842
विद 2840
B 2840
▁निधन 2838
▁दोहरा 2835
बुल 2834
ek 2832
▁गोद 2832
▁कोड 2832
▁डिजिटल 2831
▁दावे 2829
▁सच्चे 2829
▁एफआइआर 2826
▁नबी 2826
▁लेखा 2826
▁सूबे 2825
▁तिथि 2823
▁ट्रक 2823
▁ठोस 2823
▁दीपक 2820
▁नीतियों 2820
▁जेएनएन 2819
▁पौ 2819
▁अधिवक्ता 2819
▁हथियारों 2817
▁इंजीनियर 2815
्मा 2814
सिंह 2813
▁मधु 2812
▁अधिसूचना 2811
▁जै 2810
▁प्राचीन 2810
▁अजय 2809
डो 2808
▁गौर 2808
▁हस्त 2807
▁अभिनेता 2807
▁लेन 2807
▁अटल 2806
▁डेटा 2806
▁गलती 2805
▁आधा 2804
▁सर्वोच्च 2804
▁रिश्तेदार 2803
▁मनीष 2803
ic 2803
▁जिंदा 2801
ारा 2800
▁चाय 2800
▁सिम 2798
▁3. 2796
▁इकट्ठ 2795
ग्न 2794
▁चीज 2793
्हीं 2793
▁शुभ 2789
ायी 2788
▁राजेश 2787
▁सर्वेक्षण 2785
▁काग्रेस 2785
डब्ल्यू 2783
▁कमांडर 2782
▁देशभर 2781
▁2006 2781
▁बीस 2780
▁भूख 2778
▁पासपोर्ट 2778
ेन्द्र 2777
▁प्राय 2777
▁नहर 2777
▁सज़ा 2773
▁हवाले 2772
▁दाऊद 2772
▁ज्योति 2772
▁जगत 2771
गें 2771
▁उद्घाटन 2770
घात 2770
▁दिखाएँ 2770
▁सुविधाओं 2769
▁मानें 2767
▁पॉ 2767
क्षण 2766
▁विज्ञापन 2766
पत्ति 2766
वासी 2765
▁लै 2763
▁कालेज 2762
▁जताते 2761
▁पवित्र 2761
▁उपभोक्ता 2760
▁गोपाल 2756
▁बोलने 2755
ुओं 2754
▁शांत 2752
▁नितिन 2750
▁अफगानिस्तान 2749
▁पह 2748
▁बाबत 2746
ाए 2744
▁प्रयासों 2742
▁मुह 2741
▁बढ़ोतरी 2739
▁प्रताप 2739
ूं 2738
-20 2737
▁मानक 2737
ur 2735
▁सीआरपीएफ 2734
▁गोर 2734
▁कर्मियों 2732
▁हस्तक्षेप 2731
▁विपरीत 2728
ुन 2728
▁निकाय 2727
्ता 2727
▁मरने 2724
▁तलाशी 2723
▁धार 2722
▁यातायात 2721
▁गार्ड 2720
▁कराना 2718
▁देखो 2717
▁दशा 2716
▁सत 2712
▁किलो 2712
▁बीएसएफ 2710
85 2709
▁इंतजाम 2708
▁पाते 2708
▁अल्पसंख्यक 2708
▁गर्भ 2708
▁सुविधाएं 2706
ing 2704
आइसी 2702
▁झेल 2701
▁बनकर 2698
▁महानिदेशक 2697
▁शरीफ 2697
▁सारा 2695
▁उत्साह 2693
ध्यक्ष 2693
▁डिस्क 2692
ुरान 2690
िफ 2688
▁निर्मल 2688
शासित 2685
श्च 2685
▁पद्धति 2684
तल 2683
जल 2682
▁अभाव 2682
▁कार्यों 2682
▁डाले 2678
▁बैठा 2678
्ले 2678
▁यु 2677
शाला 2677
▁अपमान 2677
▁खरीदने 2676
▁गवाही 2675
▁कामयाब 2674
▁विंड 2673
ध्या 2672
सूर 2672
लिस 2668
▁नै 2668
▁बचने 2668
▁उपयुक्त 2668
▁कपड़े 2667
▁पत् 2665
▁कश्मीरी 2665
▁यूनिट 2665
▁सोने 2664
▁पात्र 2663
▁तह 2662
▁सम्मानित 2662
कम 2660
▁अवि 2660
▁प्रशांत 2659
▁पड 2659
▁सिटी 2658
▁संवैधानिक 2657
▁उक्त 2656
▁75 2655
▁आये 2655
▁जीवित 2653
▁मानी 2652
▁जानकार 2650
{ 2650
▁अनिल 2649
▁एनआइए 2649
▁मंगल 2649
▁कब्जा 2648
▁जुटे 2648
▁राज्यमंत्री 2646
ज़े 2646
▁श्रम 2645
▁G 2645
▁नवाज 2644
▁ठहर 2643
▁सन 2642
डु 2641
▁रवि 2641
▁वातावरण 2638
} 2638
▁फंस 2637
▁एसी 2636
▁बॉ 2636
▁बाधा 2635
▁सबक 2633
▁पैमाने 2631
सुर 2629
▁सब्सिडी 2628
▁कथा 2627
जु 2624
▁33 2622
▁क्व 2621
▁फंड 2619
▁मेहरबान 2619
▁तारीफ 2618
▁दूसरों 2618
▁खुलती 2618
वै 2616
▁यूनिवर्सिटी 2616
▁गौ 2615
▁संस्कार 2615
▁फॉर 2613
▁सौर 2613
es 2612
न्ट 2611
▁सईद 2610
12 2610
ंख 2610
▁सौंपी 2609
पक 2609
le 2608
▁सलाम 2608
▁2005 2607
डि 2607
▁चंडीगढ़ 2606
▁उदार 2606
एगा 2603
राज्य 2603
▁विवादित 2600
▁रेड्डी 2599
▁आउट 2598
▁वर्णन 2598
▁मारपीट 2597
▁भरे 2597
▁फ्लैट 2597
▁मोड़ 2596
र्ब 2595
▁बर्फ 2595
ग्रस्त 2595
▁अज 2595
बिल 2594
▁प्रदर्शित 2593
पान 2592
▁पकड़ा 2592
ाग 2592
▁शरण 2592
▁याचिकाकर्ता 2591
▁छत 2591
▁खेत 2591
प्ट 2590
▁ताज 2588
st 2588
▁बतौर 2585
िब 2584
▁दाग 2583
▁लगते 2583
लिखित 2582
कालीन 2581
▁ट्रस्ट 2581
▁पशु 2580
फ़ी 2579
पूर्व 2577
▁चीफ 2577
▁फुट 2577
अर 2576
19 2574
▁जुटी 2574
ियल 2574
▁भरने 2574
▁सुपर 2573
▁सांस्कृतिक 2573
▁ट्रंप 2572
▁गायब 2571
ंडे 2570
▁परहेज 2570
▁मुकदमे 2570
वाड़ा 2569
▁लापता 2568
▁अग्नि 2568
▁विभागों 2568
▁कल्पना 2566
▁वैज्ञानिकों 2565
▁भली 2563
ाक़ि 2563
▁सुरेश 2561
▁अनुसूचित 2561
▁यूपीए 2559
ैट 2559
ro 2559
▁ऊंचाई 2558
इन 2557
▁पकड़े 2556
▁निशाने 2556
▁जिसको 2556
▁J 2553
▁होम 2552
▁कमल 2552
▁चलती 2552
▁हरि 2551
एएनआई 2550
▁कैद 2549
▁मुसीबत 2549
▁गीता 2549
▁यमुना 2548
▁अफ 2548
फ्र 2546
▁जोड़ा 2546
▁हत्याकांड 2546
▁शंकर 2546
▁लिखकर 2544
▁बहादुर 2543
▁सबके 2540
भाजपा 2538
▁आकलन 2538
▁आश्चर्य 2538
▁डाक्टर 2537
▁कड़ा 2535
देह 2534
▁करोड़ों 2533
th 2533
▁साधारण 2532
▁मानने 2530
▁ललित 2529
तया 2528
▁उद् 2528
वाने 2527
▁ऑफिस 2527
▁असल 2525
▁आतंक 2524
▁खुला 2524
सीन 2524
▁उत्तम 2523
तुल 2522
▁बच्चा 2522
▁अनुकूल 2520
▁मुहम्मद 2519
▁4. 2519
▁वाम 2518
▁बरकरार 2517
ैया 2517
▁जाएंगी 2516
▁वर्षा 2516
▁स्थिर 2514
्त 2514
70 2513
िशन 2512
▁कौशल 2512
▁यहीं 2512
▁एसोसिएशन 2511
▁सदस्यीय 2511
झा 2510
▁असली 2508
▁ड्राइवर 2508
em 2507
ऊ 2506
▁शोर 2506
रानी 2506
ूंगा 2505
▁शिक्षकों 2505
▁देखे 2504
▁पदों 2503
▁फौज 2502
▁एकजुट 2502
▁मतदाता 2501
▁मुफ्ती 2499
▁अब्दुल्ला 2498
▁जाट 2498
▁अधीक्षक 2497
▁सौदे 2497
25 2496
▁खतरनाक 2496
▁तीख 2496
्च 2494
फल 2491
▁आएगी 2490
ख्यात 2490
▁छोड़ा 2489
▁काबू 2489
▁फट 2487
▁बां 2486
▁सरक 2485
▁छुट्टी 2483
▁निंदा 2483
छा 2482
मिन 2482
▁ढेर 2482
▁प्रतिनिधित्व 2481
▁2004 2479
▁सुशील 2478
40 2478
▁मतभेद 2477
▁सफेद 2477
▁गिन 2477
आरएस 2477
▁वृ 2476
▁तीसरी 2473
▁माँ 2473
▁पंक्ति 2472
बंदी 2471
▁गहरा 2471
▁2002 2471
▁प्रियंका 2470
ॉन 2469
▁रिश्ते 2467
कोट 2466
्लू 2466
दू 2465
▁ख़ास 2464
▁उतारा 2461
▁यूरोप 2461
▁वाद 2459
▁स्कीम 2458
▁तकलीफ 2457
▁पिछड़ 2457
▁नौकर 2455
▁सहमत 2454
▁तम 2454
▁Tilak 2453
▁कनेक्शन 2453
▁डीएम 2452
▁37 2450
भारत 2449
▁पंजीकरण 2449
▁बुक 2449
▁अस्तित्व 2449
ंद्र 2449
▁धमाक 2448
वेल 2448
▁किशोरी 2448
▁रिश्तों 2446
▁रखकर 2446
▁मुझसे 2446
▁देखी 2444
endra 2443
्ला 2443
त्मक 2443
ौत 2441
▁ग्राहकों 2439
▁पीने 2437
▁नोटों 2436
कृष्ण 2436
▁नियत 2435
लिन 2435
▁चक्र 2433
▁ओबामा 2432
▁सौंपा 2432
▁प्रशंसा 2432
G 2431
▁हितों 2429
▁वायदा 2425
▁जुर्माना 2424
काम 2422
▁कप 2421
▁व्याख्या 2421
▁जनसंख्या 2419
▁हिन्दी 2419
▁मणिपुर 2418
▁दुआ 2418
▁मुफ्त 2417
▁त्याग 2417
पूर 2414
▁ठिकाना 2412
Y 2411
▁संगम 2411
▁मुहर 2411
and 2411
▁कैश 2410
▁सवा 2409
▁प्रसारण 2408
▁हिन्दू 2408
▁पं 2407
▁दफ्तर 2406
▁गिरावट 2406
▁हरग 2406
▁जबरदस्त 2405
▁घटनाएं 2403
▁लंदन 2403
▁हाइ 2402
एसटी 2401
▁भ्रम 2400
▁विशेषज्ञों 2400
पल 2400
मंडल 2399
▁हमलों 2398
बोध 2398
▁बोस 2398
▁प्रतिमा 2397
भाष 2396
▁अनुरूप 2396
▁मजिस्ट्रेट 2395
▁रावत 2395
▁ऑटो 2394
▁साध 2393
▁48 2392
▁ओडिशा 2391
▁भंडार 2390
▁हां 2389
▁दंगों 2388
बाज 2388
▁टिक 2388
रक्षक 2387
▁पैकेज 2387
▁जनहित 2386
▁चर्च 2385
बन्ध 2384
▁गाजियाबाद 2383
▁लोकायुक्त 2382
▁रै 2382
हट 2380
▁ज् 2380
▁फोर्स 2379
▁साधा 2379
▁हज 2379
▁दोष 2378
▁बस्ती 2375
▁प्रकरण 2375
▁गुल 2374
वती 2373
▁जजों 2372
▁सैकड़ों 2369
▁सच्चाई 2367
▁मौजूदगी 2367
▁वार्षिक 2366
▁इंदौर 2365
ड्ड 2364
▁बीत 2363
▁झगड़ 2363
ंव 2363
पोष 2362
▁उठाते 2361
▁उलट 2360
▁जायेगा 2360
▁संचालित 2357
▁मनी 2356
▁इस्तीफे 2356
▁प्रारंभिक 2356
▁दायित्व 2355
▁ईरान 2354
▁भागीदारी 2354
▁छेड़छाड़ 2354
शंकर 2354
▁निदेशालय 2353
ेक्स 2352
▁रांची 2352
▁नतीजा 2351
am 2350
▁उन्होने 2349
ज्ञान 2348
▁खनन 2346
भाई 2346
▁अभियुक्त 2345
▁अकबर 2344
▁जहर 2343
▁रहस्य 2341
▁सकारात्मक 2341
बि 2340
ग् 2340
▁मिलाकर 2339
▁सिल 2338
▁मुजफ्फरनगर 2338
टक 2338
▁नारे 2338
▁मैच 2337
जय 2337
रोह 2337
पीएफ 2337
▁मुझ 2336
▁उग 2336
▁बिंदु 2335
▁बोली 2334
्ध 2334
प्पा 2333
▁शुक्र 2332
▁शेर 2331
▁पुलिसकर्मियों 2331
▁कम्प 2331
ठी 2330
▁सोन 2330
▁पहुंचाया 2326
डीसी 2325
▁मुआवजा 2324
▁अंसारी 2324
ch 2324
▁करनेवाले 2324
▁अयोध्या 2323
▁करेंगी 2322
▁इधर 2322
▁चेहरा 2322
▁लिंक 2320
ra 2320
▁सेवानिवृत्त 2319
▁पीडि़त 2319
▁नियंत्रित 2319
▁बनवा 2318
minal 2318
▁तस्वीरें 2317
फ्त 2317
▁तूफान 2316
▁टै 2314
ख़्श 2314
▁सिंचाई 2313
क़रीब 2313
िक्र 2311
▁मंजूर 2310
▁खातों 2310
▁कब्जे 2310
▁Test 2310
पीएल 2309
▁मुक़ 2308
्थ 2307
▁दृष्टिकोण 2307
▁अज्ञात 2306
▁ति 2305
▁ज्ञात 2305
▁42 2304
▁नक्सल 2302
िच 2301
▁नेताजी 2300
▁सीडी 2300
▁नैतिक 2298
Sanjay 2295
60 2295
▁ज़रुर 2295
▁ट्र 2294
▁तंग 2292
▁मंड 2292
▁समन्वय 2292
▁कोरिया 2289
▁मार्गदर्शन 2289
ाबूद 2288
▁मनोज 2286
▁रंजन 2284
▁दस्तावेजों 2281
▁वैध 2281
▁धमाके 2279
▁हिंदुस्तान 2278
ैत 2278
▁लौटने 2277
▁नतीजे 2276
आरसी 2276
▁मृत 2276
▁शैली 2276
▁दिलचस्प 2273
▁प्रमाणपत्र 2273
▁हरी 2272
▁प्रबंधक 2272
▁द्विपक्षीय 2272
▁मुल्क 2271
▁एकमात्र 2271
ाचार्य 2271
-1 2270
▁रिहाई 2270
▁आयी 2269
▁सुबूत 2269
▁बैक 2269
▁अफ्रीका 2267
▁नकदी 2266
▁शौचालय 2265
▁एम्स 2265
▁फार 2261
▁ढांचे 2261
शिया 2261
▁विमानों 2261
80 2260
रस 2260
▁हाँ 2259
▁निर्माता 2258
स्त्र 2257
फ्ल 2256
▁देखभाल 2255
▁इबादत 2255
मार 2254
प्रयुक्त 2253
▁टाटा 2252
▁वजन 2251
नुसार 2251
▁भलाई 2251
स्ती 2249
▁स्वच्छता 2249
▁कमांड 2249
▁वाक 2249
▁उपज 2248
▁साक्ष्य 2247
▁स्त्री 2246
▁डेस्क 2244
ौन 2243
▁पथराव 2242
▁प्रवाह 2242
▁कृष्णा 2241
▁डीजल 2241
▁करनेवाला 2240
▁घंटों 2238
▁कक्ष 2237
▁ढाई 2233
▁आतंकवादी 2233
▁ख़ुश 2233
▁बेदी 2232
▁एटीएम 2231
▁संसाधनों 2231
▁जवाहर 2230
▁उपन्यास 2230
▁उद्योगों 2228
▁आंकड़ा 2226
▁दोषियों 2225
▁समझने 2225
▁तौबा 2225
▁Joshi 2224
घाट 2223
▁गुज़र 2222
▁क़ि 2222
▁Kishor 2221
डीआर 2220
▁शिंदे 2219
▁t 2217
▁हानि 2217
▁बेचने 2216
▁साहब 2214
▁रिश्वत 2214
▁मिसाल 2214
▁जिहाद 2214
▁दर्शा 2212
▁बढ़ाया 2211
▁34 2211
िंदर 2211
▁रन 2209
▁गोयल 2209
▁ईसा 2209
▁लोकप्रिय 2207
▁भट्ट 2207
▁बीएस 2206
मिल 2206
▁बहाल 2205
ul 2205
▁डाली 2204
▁संपन्न 2204
▁जाल 2201
▁संस्करण 2200
▁चीजों 2199
el 2199
▁उपस्थिति 2199
▁संभावित 2198
▁उठे 2198
▁शह 2198
▁अरुणाचल 2196
▁झटका 2194
▁ब्योरा 2191
▁प्ले 2190
▁बढ़ाकर 2188
11 2187
ाधिक 2187
▁लक्ष्मी 2185
▁द्वार 2185
▁काव्य 2185
▁लेती 2184
▁घोटाला 2184
भूषण 2184
▁चुप 2184
ऑ 2182
▁अनशन 2181
▁निचल 2179
▁कमाई 2179
▁लगेगा 2179
इंग 2179
▁सदैव 2179
क्की 2178
▁लक्षण 2178
▁प्रवर्तन 2177
▁परिजन 2177
▁कुंजी 2177
▁आज्ञा 2177
▁विषयों 2175
▁कागज 2175
▁सोना 2174
▁पूर्वोत्तर 2173
▁शत्रु 2172
▁दूरसंचार 2171
न्त्र 2171
▁समस्त 2170
▁यूसुफ 2170
▁पाठ्यक्रम 2170
▁खासकर 2169
▁बुजुर्ग 2168
▁रूट 2166
दर्शी 2166
▁कटौती 2165
▁ढांचा 2165
▁आरएसएस 2165
▁n 2165
▁अग्र 2163
▁शुद्ध 2162
▁जानिए 2162
▁सूख 2162
▁केंद्रों 2161
▁शर्म 2161
▁केन्द्रीय 2161
▁उत्पीड़न 2161
▁क्रू 2160
ूँगा 2160
मेल 2159
▁दक्षिणी 2158
▁तस 2158
▁तलब 2157
मैन 2157
▁आएंगे 2156
▁आदम 2156
▁डिजाइन 2154
▁सेंट्रल 2152
▁आवंटित 2152
्लो 2152
▁नर्स 2151
्री 2149
▁खिल 2149
▁नदियों 2149
▁अध 2148
़्त 2148
▁चूक 2147
▁000 2147
▁f 2147
घा 2147
▁वेद 2146
▁करवाने 2146
▁मांगने 2146
▁साहस 2145
माल 2143
▁समुद्री 2142
ुफ् 2142
▁बुराई 2141
▁करीबी 2140
क्टर 2139
▁हिंसक 2138
▁राजनैतिक 2138
▁हॉ 2138
ग्री 2133
▁इंजन 2133
प्रे 2133
▁कोशिका 2133
▁आह्वान 2131
▁स्पेक्ट्रम 2131
▁तिल 2129
▁घाटे 2128
▁स्क्रीन 2128
▁परामर्श 2127
श्री 2127
▁डरा 2127
▁बर्बाद 2127
▁क्रांति 2126
त्थ 2126
▁निरीक्षण 2122
ौली 2121
ूम 2121
▁बाह 2121
ष्टि 2120
▁of 2119
राय 2119
▁प्रत्याशियों 2118
▁समृद्ध 2115
▁ग्राहक 2115
▁कन् 2113
▁पुलिसकर्मी 2113
▁मेहनत 2113
शास्त्र 2113
▁विनोद 2112
▁दिलाया 2112
आइएम 2111
▁ऐलान 2111
मेट 2110
▁प्रेरणा 2110
▁हुसैन 2109
▁अल्प 2109
risht 2109
▁बोर 2109
▁लगाना 2108
▁एसएसपी 2108
▁अनुवाद 2107
ल्ले 2106
ग्रह 2102
▁खाद 2102
▁एकड़ 2102
▁छु 2100
▁जानें 2099
▁आराम 2099
▁2001 2098
▁स्वस्थ 2097
▁इंजीनियरिंग 2097
वर्ष 2096
▁बेंगलुरु 2096
▁स्टेशनों 2096
▁गहरी 2094
▁बुलाई 2093
▁थम 2092
▁स्ल 2088
▁शरीक 2087
▁मास्टर 2086
▁मोर्चे 2084
▁शोषण 2084
▁पावर 2084
▁उपग्रह 2084
वंश 2083
▁ऋ 2083
▁भौतिक 2083
▁कहती 2082
▁अध्यादेश 2082
टिक 2082
▁महानगर 2082
शिप 2082
िहार 2082
▁अनाज 2082
▁डरते 2081
▁भक्त 2080
▁मिलना 2080
▁गैंगरेप 2080
▁झुठलाया 2080
▁अमृतसर 2079
▁निकला 2078
▁सुनी 2078
▁नाते 2077
▁जाँच 2076
▁पाठक 2075
▁गुस्सा 2074
▁कीमतों 2074
▁विज 2073
र्ज़ 2073
▁इटली 2071
▁सुप्रीमो 2071
▁उपर 2071
▁सशक्त 2070
45 2070
▁राजन 2068
▁तीस 2066
ha 2066
▁5. 2063
▁65 2063
▁भेंट 2063
▁जयंती 2063
▁विवादों 2061
▁चांद 2061
▁चमक 2060
याँ 2060
▁कहकर 2059
एसआई 2059
▁अनुप्रयोग 2059
स्वामी 2058
▁प्रोत्साहन 2058
▁पैरवी 2058
▁हमसे 2057
▁पन्न 2057
थे 2056
▁हमलावर 2055
▁विभाजन 2054
▁उजागर 2053
ापि 2053
देन 2053
ङ 2053
▁संयंत्र 2052
▁नंद 2052
▁खुर्शीद 2051
▁बचे 2051
▁संपूर्ण 2048
▁लांच 2047
▁व्यस्त 2046
▁तत्वों 2045
▁सूक्ष्म 2044
▁घड़ी 2044
▁पुराना 2043
▁आइटी 2041
▁पोस्टर 2041
▁विश्लेषण 2040
▁कलाकार 2040
--- 2040
▁तीसरा 2039
▁39 2039
▁निगाह 2039
▁उत्पादक 2039
▁अभ्यास 2039
▁सिलसिला 2038
▁छठ 2038
▁देहरादून 2036
वालो 2036
▁300 2035
ट्टी 2035
▁to 2035
▁आंखों 2034
us 2034
▁गौरव 2033
▁अलर्ट 2033
▁लगती 2033
न्द्र 2033
मणि 2032
▁राकांपा 2031
▁सचिन 2031
▁सकेगी 2030
▁दिमाग 2030
चौ 2028
▁मरीजों 2027
▁सौदा 2026
▁पड़ती 2026
▁मुनाफ 2026
▁निशानी 2026
▁कपिल 2025
▁तैनाती 2025
▁असं 2025
▁सालाना 2024
इंड 2024
▁कौर 2024
▁प्रावधानों 2023
▁ईरानी 2023
14 2023
▁लोगो 2022
वृत्ति 2021
यान 2020
▁निकाले 2019
▁एह 2018
alit 2017
▁मनाने 2016
94 2016
वेदन 2014
▁मुहिम 2014
ऊँ 2013
▁150 2012
▁भागों 2012
▁h 2012
▁रेडियो 2011
▁मुक्ति 2011
▁मांझी 2011
89 2011
▁आमंत्रित 2010
un 2010
▁टॉप 2008
ष्ण 2008
▁तेरे 2008
▁असमर्थ 2008
▁वाड्रा 2008
धाम 2007
▁श्रद्धालुओं 2007
▁प्रतीक्षा 2007
क्यू 2004
▁संयोजक 2004
▁बंट 2004
▁जोखिम 2004
▁सिब्बल 2003
▁विद्यार्थियों 2003
▁इनसे 2003
▁यूं 2002
चंद्र 2002
▁वाल 2001
▁पवन 2001
▁फीट 2001
▁जिनसे 2000
▁अपराधी 1999
▁पिटाई 1999
▁बर्फबारी 1999
▁योगी 1998
▁गले 1998
▁रुचि 1997
▁वीके 1997
▁जटिल 1996
▁सॉफ्टवेयर 1996
▁1000 1996
▁प्रतिदिन 1996
▁हराम 1996
▁वसूल 1995
▁शुक्ला 1995
W 1995
▁सुनील 1994
▁अमिताभ 1993
▁एकत्र 1993
▁राजेंद्र 1993
▁ऊँच 1993
99 1992
ोद 1991
▁साइबर 1991
▁55 1990
न्ध 1989
▁परस्पर 1989
▁अपराधियों 1988
▁व्यापारी 1988
▁संजीव 1987
पात 1987
▁आधी 1987
▁जीतने 1986
हो 1985
▁इराक 1985
डोर 1984
▁भंग 1983
▁अभिलेख 1983
▁तलवार 1982
▁गज 1981
▁आध्यात्मिक 1981
▁एजेंट 1980
▁चौकी 1980
भोग 1980
▁शिशु 1980
कर्मी 1979
▁भार 1979
▁कूट 1979
▁आकर्षित 1978
▁स्वदेश 1978
▁शिखर 1978
▁गेहूं 1978
▁स्मारक 1977
▁सचिवालय 1976
▁लाना 1976
तू 1976
वृत्त 1975
▁सहज 1975
रुप 1972
▁पहाड़ी 1971
▁संतुष्ट 1970
▁भागवत 1970
▁बहाने 1969
्रि 1967
▁जर्मनी 1967
▁सिपाही 1966
▁सोचा 1966
▁फिल्मों 1965
दारों 1965
▁मांस 1965
▁मंजिल 1964
▁वेब 1964
▁ज़ुल्म 1964
▁कंट्रोल 1963
18 1962
ालिम 1960
▁दयालु 1960
▁उपचुनाव 1959
▁साई 1959
▁प्रभुत्व 1959
क्षेप 1958
▁आइएस 1957
▁सतह 1957
▁पूज्य 1957
▁व्यावसायिक 1956
▁खिला 1954
▁रण 1954
Z 1954
▁आँख 1954
▁गूगल 1953
्वे 1952
▁मनाया 1952
▁भेदभाव 1952
▁the 1952
▁भाषाओं 1951
▁उमा 1951
▁स्टाफ 1951
▁महबूबा 1950
▁दोस्ती 1950
▁विचारधारा 1950
▁पकड़ने 1949
▁अन्तर् 1949
▁Rai 1948
▁चपेट 1947
▁प्रती 1947
▁कड़े 1947
▁चलो 1945
▁धूम 1944
▁बिहारी 1944
▁क्लास 1944
▁अत्यधिक 1944
▁रिसर्च 1943
▁चीजें 1943
▁अस्पतालों 1941
क्षेत्र 1939
▁चिन्ह 1939
▁टैंक 1939
▁मार्क 1938
▁लंबा 1938
▁चख 1938
▁सपना 1937
▁उदय 1937
▁सचेत 1937
▁कलाम 1937
▁इंस्पेक्टर 1936
पै 1936
र्ष 1935
पू 1935
▁तल 1933
▁सीधी 1933
चंद 1932
▁सुप्रीमकोर्ट 1932
▁जन्मदिन 1932
थी 1931
वट 1930
▁तबाही 1930
▁ट्रेनिंग 1930
▁चेतना 1930
▁जोरदार 1929
▁इंसान 1928
▁बढ़ता 1928
▁दरवाजा 1927
▁अंदाज 1927
▁नज़र 1927
▁आधे 1926
▁अखिल 1926
ंबर 1923
▁बादशाह 1923
ay 1922
▁बृहस्पतिवार 1922
▁कुरान 1922
▁चर 1922
▁सियासत 1921
▁बारह 1921
▁दखल 1919
▁जुल 1919
▁नरम 1918
▁आदिवासी 1918
▁निर्धारण 1918
▁विद्या 1917
▁नारेबाजी 1917
िष 1917
▁टोल 1916
▁जादू 1916
▁सृजन 1916
वासियों 1915
▁सूचित 1915
▁गोपनीय 1914
पास 1914
▁अवगत 1913
▁सच्चा 1913
22 1913
▁रहमान 1912
▁पर्यटकों 1912
▁अमेठी 1912
▁स्मार्ट 1911
▁जाच 1911
ओगे 1911
▁संभालने 1910
▁दुखद 1910
▁माइक्रो 1909
▁प्रदीप 1909
ाउंड 1909
▁स्वीकृति 1908
▁इम 1907
▁छू 1907
▁रविशंकर 1907
▁छापेमारी 1906
▁स्तरीय 1906
▁गहन 1906
▁दुरुपयोग 1906
स्को 1906
अंतरिम 1905
▁व्यय 1905
लत 1905
र्रर 1905
▁जाधव 1904
▁आयतें 1904
▁पुरुषों 1903
▁सिं 1903
इश 1901
▁अप्र 1900
▁कैदियों 1900
ुल्ला 1900
▁गोरखपुर 1900
▁गुरू 1899
▁रूम 1899
▁क्लीन 1899
▁स्वर 1899
▁अंग्रेज 1898
▁घेरे 1897
ऩ 1896
▁क्लि 1896
▁द्वीप 1895
13 1894
▁बाघ 1893
▁डील 1892
▁रेंज 1892
▁मैने 1892
रोध 1891
▁बनाये 1891
▁कवायद 1889
▁इत्यादि 1889
▁लोड 1889
साइ 1888
▁अभिव्यक्ति 1887
▁धनराशि 1886
▁पहलू 1886
▁मरीज 1884
▁प्लान 1883
▁तथ्यों 1883
▁मध्यप्रदेश 1882
म्मा 1881
▁दंगे 1879
▁तस् 1879
▁कामयाबी 1878
▁हार्दिक 1878
▁गिरने 1878
धू 1877
▁बिगाड़ 1877
▁कारोबारी 1876
▁मध्यम 1876
▁कार्यरत 1876
▁मजदूर 1876
▁विहार 1875
▁समन 1875
पिंग 1875
▁शिक्षण 1875
▁दावेदार 1875
▁सहारे 1875
ड़िया 1874
▁कार्यो 1874
▁पट्टी 1874
मोहन 1873
▁स्टे 1872
▁लाते 1872
▁बोलते 1872
▁कार्यकारिणी 1871
▁वंचित 1871
▁प्राइवेट 1871
▁हंस 1870
▁फ्लाइट 1870
▁फैलाने 1870
▁उपकरणों 1870
▁पीढ़ी 1870
फ़्र 1870
िटर 1868
▁चावल 1868
▁दिखाए 1867
▁इंस्टीट्यूट 1867
▁टॉ 1867
▁निरस्त 1867
▁न्यायाधीशों 1867
▁विवेक 1866
▁देखता 1866
▁जूझ 1865
▁रौशन 1865
▁बेंगलूर 1864
▁काशी 1863
यह 1863
▁g 1862
▁प्राप्ति 1862
शक्ति 1861
▁केदारनाथ 1860
▁साफ़ 1860
▁शिवराज 1859
▁गोलाबारी 1859
▁बिता 1859
▁मौलाना 1859
ाणु 1859
▁आइएसआइ 1858
▁चलेगा 1858
▁कॉम 1857
▁दोनो 1857
ad 1857
▁समा 1856
▁उठाना 1854
▁खंडपीठ 1854
▁प्रांत 1854
▁दीर्घ 1854
वस्था 1854
▁बैर 1853
▁यथा 1853
▁अड्डे 1853
▁प्लांट 1853
▁क्राइम 1853
▁बच्चन 1852
▁पांडेय 1852
▁तिरु 1850
▁गुम 1850
▁गुफा 1849
▁अनुसरण 1848
ुष 1847
▁महल 1846
▁ड्यूटी 1846
ॉकि 1846
▁मुक़ाबल 1846
▁पत्रिका 1845
▁रानी 1845
▁बजा 1844
▁उप्र 1843
▁पेट्रोलियम 1843
▁स्ट्राइक 1843
▁स्टार 1842
▁रोम 1842
▁भीषण 1842
क़ा 1842
▁अमीर 1842
▁मशहूर 1842
▁घटक 1842
न्ड 1841
▁तैयारियों 1841
▁मुकाबला 1839
▁अकाउंट 1839
▁लेगा 1838
▁शासक 1837
▁2018 1837
▁सामर्थ्य 1837
चित्र 1836
▁ध्वनि 1835
▁दिग्गज 1835
▁श्रद्धांजलि 1835
▁कर्तव्य 1835
▁पीडीपी 1834
▁चार्जशीट 1834
▁काफिर 1833
डेंट 1831
▁वृक्ष 1831
▁अस्थि 1830
▁बरेली 1829
दूसरे 1829
▁संज्ञान 1828
▁वादे 1826
▁अनुदान 1825
▁एनडीए 1824
▁मंशा 1824
▁प्रतिनिधियों 1824
ंभ 1824
▁फायदे 1824
हु 1822
बाल 1822
डू 1822
▁कमर 1821
▁मथुरा 1821
▁धूप 1821
▁सदा 1821
▁औरतों 1820
17 1819
▁प्रतिष्ठित 1819
▁बेरोजगार 1818
▁सावधान 1818
▁किराया 1817
▁आइएएस 1817
▁बट 1817
▁लिंग 1817
शंस 1817
▁पोत 1817
87 1816
▁दंगा 1816
▁रायपुर 1816
▁किराये 1815
▁फ़ैसला 1815
.30 1813
▁मुशर 1813
▁अगला 1811
▁उद 1811
anand 1811
▁योग्यता 1810
▁दूतावास 1809
▁प्रजाति 1809
▁शीला 1809
▁कैप्टन 1808
ाधीन 1808
त्ल 1806
ndra 1805
▁बॉलीवुड 1805
▁कहे 1805
▁लीक 1805
▁चरित्र 1805
▁raj 1805
▁स्त्रियों 1804
▁कंप 1803
▁ग्रंथ 1803
ुम 1802
▁उपयोगी 1802
ol 1802
▁विष 1802
▁छीन 1801
▁जलवायु 1801
▁धैर्य 1800
▁जिनको 1799
▁पाता 1798
▁सुनकर 1798
▁वेंकैया 1798
▁वर्ण 1798
▁बैंकिंग 1797
▁मज़ा 1797
▁यानि 1796
कार्यकारी 1795
▁बरी 1795
▁शोक 1795
▁चो 1794
▁मछली 1794
▁अमरनाथ 1793
▁आर् 1793
▁फर्म 1792
▁मछुआरों 1791
▁परोक्ष 1791
▁बाध्य 1790
▁38 1788
▁गेंद 1788
▁कुशल 1788
▁रैंक 1788
▁सम्मिलित 1788
▁आर्मी 1788
▁लापरवाही 1788
▁पोस्टमार्टम 1787
▁Ravi 1786
एसआइ 1786
▁लीटर 1785
▁प्रोत्साहित 1784
▁खरीदा 1781
▁वंश 1781
▁अग्रिम 1777
▁कमिश्नर 1776
▁प्रिय 1775
▁बाइक 1775
▁जनसभा 1774
▁प्रारूप 1773
▁पीड़ितों 1772
▁फायर 1772
सीएस 1772
35 1772
▁साक्षात्कार 1772
▁दुर्गा 1771
रीबन 1771
▁टक्कर 1771
▁हादसा 1770
▁अश्लील 1770
▁वचन 1770
▁Sing 1769
▁धो 1769
▁प्रेमी 1769
▁सॉ 1768
▁मजबूती 1768
▁बाला 1767
▁सख्ती 1766
▁शीत 1766
95 1765
▁द्रमुक 1764
िस्तान 1763
र्थियों 1762
▁वारंट 1762
▁सर्जिकल 1762
ग्राम 1761
▁हकीकत 1759
▁वादी 1758
्टे 1758
▁द्वितीय 1757
▁लोन 1757
▁बनना 1757
▁माप 1757
▁तुझे 1757
▁बजाए 1756
▁इसरो 1756
69 1755
▁पिछड़े 1755
▁सतर्कता 1755
▁वकीलों 1755
▁ट्रे 1755
▁पठानकोट 1755
▁1999 1754
▁सर्द 1754
▁अगुवाई 1753
▁गुजार 1753
▁गर्व 1753
तिश 1753
▁हिमालय 1753
▁बचत 1753
िमा 1753
▁न्यायपालिका 1752
टेक 1752
▁चलाई 1751
▁सीसीटीवी 1751
ऱ 1751
▁सहकारी 1751
सीआर 1750
▁शास्त्री 1750
▁पाना 1749
▁सहयोगियों 1749
▁यूनियन 1748
-2 1748
ऐ 1748
▁ख़ूब 1748
▁रोजाना 1747
▁7. 1747
▁खुलकर 1746
वाना 1746
▁पेपर 1745
▁धमक 1745
▁मीर 1744
▁संधि 1743
▁सहेज 1742
▁समर्पित 1742
▁मेहर 1742
▁प्रविष्ट 1742
▁चेत 1741
▁बुरे 1740
▁आइआइटी 1740
▁सिवाय 1740
़गार 1740
▁मानवाधिकार 1739
▁परिस्थिति 1739
▁उलझ 1738
▁योजनाएं 1737
▁pic 1737
▁बंधक 1737
▁ज्ञापन 1737
एमएल 1736
▁संपादक 1736
अत 1736
▁औलाद 1735
▁वाह 1734
▁ऊंची 1733
▁मांगे 1733
▁प्रतिबंधित 1733
▁बाज 1733
▁जख्मी 1733
75 1732
▁रिटायर 1731
16 1731
▁उन्नत 1731
▁सिंध 1730
tul 1730
▁कैसा 1730
▁आला 1730
▁6. 1729
▁धन्यवाद 1729
ावली 1728
▁गड़बड़ी 1727
▁जनजाति 1727
▁2003 1726
▁जानना 1725
▁संक्रमण 1725
▁नीलामी 1724
▁ईसाई 1723
▁जोधपुर 1722
▁निष्कर्ष 1722
▁विरासत 1717
▁मानो 1717
twitter 1715
▁शुरूआत 1715
▁राजकुमार 1714
▁कलकत्ता 1714
▁निरंतर 1714
▁बाधित 1714
▁बर्खास्त 1713
▁43 1710
▁क्षति 1710
▁भागने 1709
▁नयी 1708
▁अक्षम 1708
▁मक्का 1708
▁पुख्ता 1707
▁गौतम 1707
▁छाया 1707
▁आलम 1707
नियम 1706
▁बनता 1706
▁पॉल 1706
▁इंटरनेशनल 1705
▁बेंच 1705
▁वाइ 1705
▁मूल्यांकन 1705
▁पृष्ठभूमि 1703
ायम 1703
▁संस्थापक 1702
▁वकालत 1702
▁बायो 1702
संभव 1701
▁एंटनी 1700
▁त्यागी 1699
▁हिल 1698
▁विद्वान 1697
कुमार 1697
▁समीकरण 1696
▁नस्ल 1694
भूमि 1694
▁सऊदी 1693
▁गवर्नर 1693
मूल 1693
▁मदर 1692
▁अपनाया 1691
▁बड़ 1691
▁रखनेवाल 1691
दयावान 1691
▁प्रवृत्ति 1690
▁रिक्त 1690
▁ईमेल 1690
▁तीर्थ 1690
▁ग़ालिब 1690
▁अपनाने 1689
ास्पद 1689
▁शशिकला 1688
▁मारकर 1688
ट्ठ 1688
▁मेजर 1687
▁आखिरकार 1687
▁47 1687
▁पटरी 1687
▁अनंत 1687
▁उपाध्याय 1686
▁जातियों 1685
वादियों 1685
▁नायक 1685
▁अवकाश 1685
▁अफजल 1684
▁घटनास्थल 1684
▁निकाह 1684
▁आचार 1683
▁मस्तिष्क 1682
ट्रिक 1682
▁श्रमिक 1682
▁विनय 1681
▁वास 1681
डीएफ 1681
▁वसूली 1680
▁हिंदुओं 1680
▁रत्न 1680
▁मुकेश 1678
▁तोड़ने 1678
▁इलेक्ट्रॉनिक 1678
▁प्रभार 1677
▁चाहा 1677
▁औषध 1677
ट्टा 1676
▁केंद्रित 1675
▁चुप्पी 1675
▁झु 1675
▁मजदूरों 1675
हद 1674
▁भो 1674
▁आओ 1673
▁समूहों 1673
▁कृपा 1672
▁निष्पक्ष 1672
▁49 1671
▁गणित 1671
▁रेड 1670
स्थल 1670
▁राइफल 1669
ॉय 1668
▁पब्लिक 1668
▁दलितों 1668
▁वार्ड 1668
ांश 1668
ज़ाहिर 1668
▁चलाए 1667
▁ANI 1667
▁प्रतिनिधिमंडल 1667
▁चिंतित 1666
▁मददगार 1666
▁नाव 1666
▁खिलाड़ी 1665
▁Gupta 1664
ANI 1663
▁तेवर 1663
▁आस्था 1663
▁दृढ़ 1663
▁जानवरों 1662
▁देवेंद्र 1662
▁नकार 1662
▁थोड़े 1662
▁छापे 1661
▁क्यू 1660
पीटीआई 1660
▁करवाया 1660
▁शाही 1659
▁आक्रामक 1659
▁सदी 1659
▁फर 1659
▁मिलियन 1657
धारी 1657
▁राकेश 1657
▁गोलियां 1656
▁आक्रमण 1656
▁मुरादाबाद 1655
▁मुस्लिमों 1655
▁झाड़ 1653
▁अनुपात 1653
▁सूरज 1653
▁मुख्यमंत्रियों 1652
▁प्रकाशन 1651
▁साम्राज्य 1651
▁46 1650
टिया 1650
▁ऑन 1650
▁शुरुआती 1649
▁रथ 1649
ैक्ट 1649
▁हथ 1649
▁मर्द 1649
रेख 1649
▁प्रिंट 1648
▁कैमरे 1647
▁सराहना 1647
▁मील 1647
फ़ा 1647
▁लालकृष्ण 1646
▁अलबत्ता 1646
आरटी 1645
▁मानवीय 1645
▁जाओगे 1645
▁बैल 1644
▁मोटर 1643
▁तप 1643
▁उपराज्यपाल 1642
लु 1642
▁अनुशासन 1642
▁शीर्षक 1642
▁नूह 1642
▁विस 1640
▁पहुंचकर 1640
पोर्ट 1639
▁स्था 1639
▁विश्वविद्यालयों 1639
▁श्रृंखला 1637
▁इल्म 1637
▁प्रयत्न 1637
▁श्रेय 1636
▁बचपन 1636
▁तिब्बत 1636
▁प्रथा 1636
▁मूल्यों 1635
▁पौधे 1635
▁फंसा 1634
▁बढ़े 1634
▁विशेषता 1634
▁छापा 1633
hup 1632
द्वार 1632
▁श्याम 1630
▁सुनते 1630
▁लिस्ट 1629
▁परिचय 1628
▁तिर 1628
▁छिप 1628
ट्रो 1627
▁मोड 1627
▁बटन 1627
▁दाल 1626
▁एजेंसियां 1626
▁समग्र 1622
▁इंद्र 1622
ter 1622
▁घटनाक्रम 1620
▁रहकर 1620
▁गुहार 1620
▁मिलेंगे 1618
▁सटे 1617
▁अलगाववादी 1617
▁लाई 1617
▁हसन 1617
▁स्वाभाविक 1617
▁अंबेडकर 1617
िश्त 1617
▁भावनाओं 1616
▁पाटिल 1616
▁उतरे 1615
▁जन्नत 1614
▁आदत 1613
भू 1613
ाशय 1613
▁सुधारने 1613
▁तस्करी 1612
धर्म 1612
▁प्रसार 1610
सीआई 1610
▁फ्री 1609
▁झूठे 1609
▁पड़ोस 1605
▁युक्त 1605
▁तर्ज 1604
▁इशारा 1603
▁ओवर 1603
ारिक 1603
▁आरटीआइ 1602
▁साहिब 1602
▁मलिक 1600
▁फसलों 1600
▁एनजीओ 1599
▁ब्रांच 1599
▁निस् 1598
▁बनारस 1597
▁नागपुर 1597
▁लव 1597
▁उपायों 1596
▁सैयद 1596
▁कैग 1594
▁पासवान 1594
▁बहरहाल 1593
▁सतीश 1593
▁खोला 1593
; 1592
▁अस्थायी 1592
▁कैदी 1592
▁गणना 1590
▁चक्कर 1590
▁पिला 1588
▁निराशा 1586
▁अधिकृत 1586
▁स्पीकर 1584
▁आरके 1583
▁पेशकश 1582
▁इनाम 1582
▁पद्म 1582
▁पाएंगे 1581
▁सास 1581
▁रहमत 1581
▁धड़ 1580
▁सूखे 1580
▁माओवादियों 1579
▁अंग्रेजों 1579
▁छेड़ 1577
▁यूरोपीय 1577
▁संबद्ध 1577
▁अन्नाद्रमुक 1575
▁फिरऔन 1575
▁दिखे 1573
▁वायरल 1573
▁संलग्न 1572
▁वाणिज्य 1572
▁बवाल 1569
ac 1569
▁फाउंडेशन 1568
▁कालेधन 1568
▁माग 1568
▁माफ 1567
▁निर्दलीय 1567
▁दरबार 1567
▁हिस्सेदारी 1566
ज़ल 1566
▁गिराया 1564
▁विमर्श 1564
▁गिलानी 1564
१ 1563
दाता 1562
डीएम 1562
शब्द 1562
▁इजाफा 1561
▁उठाकर 1560
▁निचले 1560
▁हुर्रियत 1558
▁मौलिक 1558
▁प्रतिष्ठा 1558
▁राजदूत 1557
स्कर 1557
▁समर्थित 1556
▁सजदा 1556
बाग 1555
▁स्वर्ण 1554
▁लक 1554
▁स्वयंसेवक 1554
▁हंगामे 1554
▁गोया 1554
▁लेफ्टिनेंट 1553
▁Nir 1553
anjan 1553
▁राजनेता 1553
▁जुटाने 1552
▁टाइम्स 1552
▁भाइयों 1552
▁उपलब्धि 1551
hit 1550
▁शिमला 1550
ौड़ 1550
▁रखती 1549
▁सुनाया 1548
▁छुपा 1548
▁इंच 1548
▁आतंकवादियों 1547
▁... 1547
स्थान 1546
▁गतिविधि 1546
▁श्रीवास्तव 1545
▁येद्दयुरप्पा 1545
▁हाफिज 1545
▁स्तंभ 1545
* 1545
▁आनन्द 1545
्ज़ 1545
▁थरूर 1544
षण 1543
▁कुर्सी 1543
▁सतर्क 1542
▁छाप 1542
राष्ट्र 1542
▁टुकड़े 1542
▁हिंद 1542
▁शानदार 1541
▁बिन 1541
ोत्तर 1540
▁फेल 1540
▁ब्ल 1540
▁साइकिल 1539
▁मुर्द 1539
▁लेखन 1539
▁चाहें 1539
▁वैसा 1538
▁प्रदर्शनकारियों 1536
▁ग्लोबल 1535
कांग्रेस 1535
▁ट्रायल 1535
▁आंक 1535
म्र 1535
▁विलय 1534
▁क्रमश 1534
▁स्नातक 1534
▁हटकर 1533
J 1532
▁एसआइटी 1531
▁चुनौतियों 1529
▁41 1528
▁फीस 1528
▁ब्रांड 1528
▁सिंगापुर 1528
▁लायक 1527
▁पड़ताल 1527
▁मात 1527
▁लड़ा 1526
▁विद्रोह 1526
▁ज़ा 1526
▁दरवाजे 1525
अमत 1524
▁हिम्मत 1523
▁तालाब 1522
▁फु 1521
▁निवेशकों 1521
_ 1521
एनसीआर 1521
▁देह 1521
▁मश 1521
▁स्थलों 1520
▁दोस्तों 1519
▁बौद्ध 1518
▁संतुलन 1517
▁अंकित 1517
▁इरादा 1516
▁शैल 1516
▁भरत 1516
▁बिलकुल 1514
▁पैदल 1514
▁स्टोर 1513
▁यकीन 1513
▁व्यापारियों 1513
▁मानता 1512
▁नतीजों 1512
इंट 1512
▁अभिनेत्री 1511
▁फिट 1511
▁घड़ 1511
लंब 1511
▁तमिल 1510
▁समानता 1510
▁पंजीकृत 1509
▁ग्रीन 1509
▁एनडी 1509
▁इंड 1508
▁फैसलों 1508
▁कमीशन 1508
▁आवाज़ 1508
▁नोड 1508
▁निर्देशिका 1508
▁समीप 1507
▁उद्धव 1506
▁जेपी 1506
▁काटने 1505
▁वर्क 1505
▁सूर 1505
▁तूने 1505
▁अक्षर 1504
क्ट 1504
▁अन्दर 1504
▁पीछा 1503
▁सुरंग 1503
▁सौंपने 1502
मंत्र 1502
▁बैग 1502
▁उतरने 1501
▁अभिभावक 1501
il 1500
कात 1500
▁रोहित 1498
▁बैठने 1497
▁बताना 1497
▁ब्लाक 1497
▁बुलेट 1497
▁पुस्तिका 1496
एसएल 1495
▁एंटी 1495
▁शिकायतें 1494
▁घबरा 1494
▁उपभोक्ताओं 1494
▁सोसाइटी 1494
र्रा 1494
ुरआन 1494
▁बूथ 1493
▁दिखाता 1493
एआइ 1492
hi 1492
तंत्र 1491
▁नौका 1490
हान 1490
▁छिपे 1489
▁विराम 1489
कर्ताओं 1489
▁ट्रांस 1489
▁बिजनेस 1489
▁विशेषकर 1488
▁अगवा 1488
ैंक 1488
वोल्यूशन 1487
नायक 1486
▁जहन्न 1486
▁कलेक्टर 1485
▁डाउनलोड 1485
▁पहना 1484
▁चौथे 1484
▁अफवाह 1484
hir 1483
▁विविध 1483
▁धारणा 1482
मीटर 1482
▁बुलाने 1481
▁गारंटी 1480
id 1480
▁कड़ 1479
▁कचरा 1479
मुक्त 1478
̈ 1478
▁नूर 1477
▁छल 1477
▁मंडी 1476
▁बीमारियों 1476
▁चरम 1476
▁भेद 1476
▁फतेह 1476
▁बीजेपी 1475
क्रिया 1475
▁जायजा 1474
▁शक्तिशाली 1472
▁संशोधित 1471
▁रघु 1470
q 1470
▁मद्रास 1470
▁सब्र 1470
चीन 1469
▁गुवाहाटी 1469
▁सीमाओं 1468
▁पैनल 1468
व्यवस्था 1468
रोपण 1468
▁संरक्षक 1468
▁आंख 1468
▁मासूम 1467
▁51 1467
▁अटकल 1467
▁जिलाधिकारी 1466
et 1466
डीएस 1465
▁टकरा 1465
▁निहित 1465
▁गहरे 1464
▁l 1464
▁झील 1464
▁निराश 1464
▁400 1463
वाया 1463
▁पचास 1463
▁रामपुर 1463
▁श्रेष्ठ 1463
▁शशि 1462
▁लड़ाकू 1461
स्थिति 1460
यंत्र 1460
▁पारंपरिक 1460
▁राजू 1460
▁त्रिपाठी 1460
▁फूट 1460
▁मसूद 1458
ईडी 1457
▁लौटे 1457
▁विक्रम 1456
▁धरना 1455
▁जोड़े 1455
र्थी 1454
रेटर 1454
▁घुट 1454
▁महेश 1453
▁छिड़ 1452
▁आड़े 1451
▁चिप 1451
▁उद्योगपति 1451
▁अतिथि 1451
▁कपूर 1451
▁भगत 1451
▁रणनीतिक 1450
▁मानकों 1449
▁उर्दू 1449
▁ड्राइव 1449
▁बहिष्कार 1447
▁मुगल 1447
▁क्षण 1447
भव 1446
▁नींद 1446
▁ठुकरा 1446
▁तहसील 1444
▁शौक 1444
▁नकली 1444
शुदा 1443
▁याची 1443
adav 1442
▁ढो 1442
स्तरीय 1442
▁ट्रेनें 1441
▁नकद 1441
▁राशन 1440
▁किराए 1440
▁दिखाते 1440
▁प्लास्टिक 1440
▁टकराव 1440
विक 1439
▁पुनर्विचार 1439
▁दिनेश 1439
▁घन 1438
▁धोखा 1437
▁बेटियों 1437
▁बंटवारे 1437
▁परिवर्तित 1436
▁वर्ल्ड 1436
▁अलीगढ़ 1436
▁फॉर्म 1435
▁Sud 1434
▁Jha 1434
▁डीजी 1434
टिव 1434
▁आक्रोश 1433
▁झंडी 1432
▁जीते 1432
▁त्रिपुरा 1432
▁ख्वाह 1432
▁मार्केट 1431
▁आसार 1431
▁दुबई 1431
▁दरमियान 1431
▁ज़्यादा 1431
▁संभवत 1430
▁बनेगा 1430
▁चाहेंगे 1430
▁52 1429
प्स 1429
ग्ग 1429
ावधि 1429
▁करोगे 1429
ख़बर 1429
प्रिय 1428
▁क्रेडिट 1428
▁चन्द 1428
▁अजीत 1427
विज्ञान 1427
▁लोकतांत्रिक 1426
▁नशे 1425
▁सोनी 1424
anwar 1423
ब्बा 1423
▁ऋषि 1423
▁हरिद्वार 1423
▁संपाद 1423
▁आइपीएस 1422
▁दांव 1422
▁पैरा 1422
▁56 1422
▁सुलझाने 1421
▁आइजी 1421
▁कवर 1421
▁फरिश्त 1421
शाह 1420
▁मातृ 1420
▁इस्लामिक 1419
▁नृत्य 1419
▁शक्तियों 1419
मूद 1418
आइएएनएस 1418
▁पंख 1417
▁ग्रह 1417
▁आरम्भ 1417
▁रिटर्न 1416
▁गणतंत्र 1416
▁अकादमी 1416
▁जानवर 1416
▁पाप 1415
▁अल्पसंख्यकों 1414
▁घोष 1414
▁लैस 1414
▁मजदूरी 1414
▁भोज 1414
▁पोर्ट 1414
▁नकवी 1413
▁समस्याएं 1413
▁तब्दील 1413
▁इतर 1413
▁धारण 1413
५ 1412
▁कर्नल 1411
▁चक 1410
▁अर्जुन 1410
संघ 1410
▁आमिर 1410
▁पंज 1410
▁गवाहों 1409
▁डेरा 1408
▁मुजाहिदीन 1408
योजक 1408
▁सभ्यता 1408
joshi 1407
▁दवाओं 1407
▁साह 1407
▁पदाधिकारियों 1406
▁गंवा 1406
टि 1405
▁पाबंदी 1405
ishor 1405
▁मामूली 1405
▁आगाह 1405
▁दिव्य 1405
▁लॉग 1405
शियल 1404
▁दहशत 1404
▁प्रहार 1403
ec 1402
▁राजनयिक 1401
▁ऑल 1401
नुमा 1400
माला 1400
▁नकारात्मक 1400
▁यंत्र 1400
▁बुखार 1399
▁उपयोक्ता 1399
▁गिनती 1398
▁वोटिंग 1398
▁मेहता 1396
▁अहसास 1396
▁ठहराते 1396
▁धूल 1396
▁एससी 1394
▁मदन 1394
21 1394
▁साझेदार 1394
▁छात्राओं 1393
▁विस्फोटक 1393
▁रसायन 1392
▁परिणामस्वरूप 1392
▁एनएसजी 1391
▁चिर 1391
▁कुदरत 1391
▁कैर 1390
▁पुष्प 1390
▁हटाया 1389
▁पहाड़ों 1389
▁मीरा 1389
▁पौधों 1389
▁म्यांमार 1388
▁ब्लैक 1386
▁सोम 1386
▁चार्ज 1386
▁मरम्मत 1386
▁दर्शक 1386
▁पहलुओं 1386
▁संबोधन 1385
▁कोहरे 1384
▁भरपूर 1384
▁रॉय 1384
▁चोर 1383
▁बदनाम 1382
▁मुश्किलें 1382
▁सपने 1382
▁गायक 1382
▁उन्हे 1381
कर्मियों 1380
▁झूठा 1380
ेरत 1380
ख़िल 1380
▁शैक्षणिक 1379
▁अवज्ञा 1379
▁रिमांड 1378
▁आचरण 1378
▁बुद्ध 1377
65 1377
▁प्रयोजन 1377
▁उत्कृष्ट 1376
▁सिनेमा 1375
▁तंज 1375
▁जयराम 1374
▁कूद 1374
▁रीति 1374
▁प्रशिक्षित 1373
▁सीपी 1373
▁सत्तारूढ़ 1373
▁हाईवे 1373
▁स्वीकृत 1373
▁लड़े 1373
▁अब्बास 1372
▁चिट्ठी 1372
▁इन्होंने 1371
▁गर्भवती 1370
09 1370
▁ट्रेड 1370
▁हेड 1369
▁पट्ट 1369
▁कनाडा 1368
▁कोविंद 1368
▁लेगी 1368
▁कहला 1368
▁झड़प 1367
▁एनजीटी 1367
▁उग्र 1367
▁गैंग 1367
▁उपक्रम 1366
▁क़ब् 1366
▁आपातकाल 1365
▁दर्दनाक 1365
▁सर्च 1365
▁प्रचलित 1365
▁कांस्टेबल 1365
▁भूटान 1364
मारी 1364
▁सर्जरी 1363
▁उत्तार 1362
24 1361
▁टाइम 1361
▁उधार 1361
▁चिह्न 1360
▁रोशनी 1360
निष्ठ 1360
▁किसने 1359
▁डायरेक्टर 1359
▁सीईओ 1359
▁भंडारण 1358
▁फर्क 1358
ir 1358
▁विद्यार्थी 1357
डे़ 1356
▁कार्मिक 1354
▁छि 1353
गुरु 1353
▁निष्क्रिय 1353
▁पीड़ा 1351
▁ओम 1351
ce 1351
▁उज 1351
▁महाजन 1350
▁अद्यतन 1350
▁आईटी 1349
▁पहुँचे 1349
▁दलाल 1348
▁कमांडो 1348
▁1993 1348
▁बापू 1348
▁भ्रष्ट 1348
▁धाराओं 1347
▁पालने 1347
▁तरीकों 1346
▁गुस्से 1346
▁नारा 1346
▁ब्लास्ट 1346
ग़ैर 1346
▁सोसायटी 1343
98 1343
▁सशस्त्र 1343
▁पारदर्शिता 1342
▁शिरकत 1341
▁72 1341
▁120 1341
▁ठिकानों 1341
▁पड़ेगी 1340
▁रास्त 1340
▁करूंगा 1339
▁इकाइयों 1339
▁डीजीपी 1338
▁जैव 1338
क़् 1338
▁ईंधन 1337
▁Bhar 1337
▁चौथा 1337
स्फ 1337
▁पढें 1336
▁मोर 1336
लूत 1336
▁ब्राह्मण 1335
▁लकड़ी 1335
ुअल 1334
आरएफ 1334
▁कारगर 1334
▁नौकरशाह 1333
▁हल्की 1333
▁स्वभाव 1332
▁बकाया 1331
▁पटियाला 1331
▁जोड़कर 1330
▁विकलांग 1329
▁रूपये 1329
▁पूर्ति 1329
▁आर्य 1329
रिश्ते 1329
▁रियायत 1328
▁क्लब 1328
▁अभिषेक 1328
▁क्रियान्वयन 1327
▁तेरी 1327
▁शैक्षिक 1326
▁विश्वसनीय 1325
▁54 1325
▁पर्यटक 1325
▁धोखाधड़ी 1324
▁स्थानांतरित 1324
३ 1324
▁किलोग्राम 1323
ak 1323
▁जेएनयू 1323
▁उतारने 1322
क्ट्र 1322
▁मिड 1320
▁प्राथमिकी 1320
▁मजाक 1319
▁खेतों 1319
▁कसाब 1319
▁तड़के 1318
▁पूछने 1318
▁खर 1318
▁लाकर 1317
▁तंबाकू 1317
▁आपत्तिजनक 1316
▁विद्य 1316
▁भक्ति 1316
▁पाएगा 1315
▁मासिक 1315
▁खोले 1314
प्रेट्र 1313
▁पृथक 1313
▁गुड़गांव 1312
▁घाटा 1311
▁क्षतिग्रस्त 1311
dwaj 1310
▁साइंस 1310
डिय 1310
ादिर 1310
▁रवैया 1309
▁लाहौर 1309
पीएम 1308
▁मैनेजर 1308
▁वृद्ध 1308
▁ऊंचा 1306
▁हरीश 1305
▁सावधानी 1305
▁सीरिया 1305
▁एयरलाइंस 1303
▁निर्दोष 1303
बर्ग 1303
▁दीजिए 1301
▁पंप 1301
▁लंबाई 1300
▁समूच 1300
▁तीव्र 1300
▁दरिया 1300
▁प्रभावशाली 1299
▁छानबीन 1298
▁पाये 1298
▁अन्यथा 1297
▁जागरूक 1297
▁सेनाध्यक्ष 1297
▁आरक्षित 1297
बीह 1297
▁जैश 1296
▁अध्य 1296
स्थापित 1295
▁अलगाववादियों 1295
▁सभापति 1294
▁बलात्कार 1294
धीरे 1293
▁गाल 1293
ation 1293
▁अफसोस 1293
▁खन्ना 1292
▁राणा 1291
▁उपराष्ट्रपति 1291
05 1291
▁बेटों 1291
▁जासूसी 1290
▁सिक्किम 1288
▁रिलीज 1288
▁निभाई 1288
▁एजेंडा 1288
▁स्टेडियम 1287
▁द्रव 1287
▁अनुग्रह 1287
▁कनेक्ट 1286
▁दुरुस्त 1285
▁आमदनी 1285
▁प्रतियोगिता 1284
▁अकेला 1284
▁जिसपर 1282
▁आंसू 1282
▁बनाएँ 1282
▁अनियमितता 1281
01 1281
▁फूंक 1280
▁चन्द्र 1280
▁डोकलाम 1279
▁विविधता 1279
▁दीवान 1278
▁Jagran 1278
▁आशुतोष 1276
▁कुशवाहा 1276
स्पेशल 1275
वर्ग 1275
▁हिला 1275
▁दहेज 1275
▁अवतरित 1275
▁सेवक 1274
▁स्टील 1274
ैश 1274
▁भत्ता 1274
▁बनती 1273
▁झगड़ा 1273
▁फटकार 1272
▁लटका 1272
▁कारावास 1272
▁परिचालन 1271
▁संदीप 1271
पाकिस्तान 1271
▁समझाने 1271
▁लाओ 1271
▁ट्रैफिक 1270
▁नरेश 1270
▁व्यक्तित्व 1270
93 1268
▁मसौदा 1268
▁ट्रांसफर 1268
▁गला 1267
▁सबका 1266
ज़ार 1265
▁कुलपति 1264
▁मीटिंग 1264
▁अंदाजा 1264
▁66 1264
▁62 1264
▁बरसात 1264
▁58 1264
▁चुक 1264
▁छुटकारा 1263
▁जश्न 1263
▁बदमाशों 1263
▁परिचित 1263
▁मौजि 1263
▁छुड़ा 1262
व्यापी 1262
▁हलफनामे 1262
▁पोषण 1262
▁जुलूस 1261
▁आशय 1261
▁इंद्राणी 1261
▁सुरेंद्र 1260
▁अनदेखी 1260
▁व्यापारिक 1260
▁चिड़ 1260
▁2019 1259
▁बढ़ाई 1258
▁उत्सव 1258
▁गहराई 1258
▁साक्षी 1258
लिमों 1258
▁बाँ 1258
news 1257
▁64 1256
▁बस्तियों 1256
▁स्नान 1254
▁आंधी 1254
▁घेरने 1253
▁झोंक 1253
▁सुल्तान 1253
यूँ 1253
▁पीएमओ 1252
▁वायरस 1252
▁सौंपे 1250
▁सरस्वती 1250
▁इच्छुक 1249
▁सहारनपुर 1249
प्शन 1249
▁कठिनाई 1249
▁फौरन 1249
▁पार्टियां 1248
▁रखेंगे 1248
▁अभ्य 1247
▁लिखते 1247
▁लाश 1246
्यूट 1246
▁कार्ति 1246
▁डरो 1246
▁महासागर 1245
▁हॉल 1245
▁कैंट 1245
▁वस्त्र 1245
▁रिज 1244
▁हिकमत 1244
▁पाइप 1243
▁गोविंद 1243
om 1243
ct 1242
व्रत 1242
▁रॉ 1241
▁डिप्टी 1241
▁जितेंद्र 1241
▁बीबी 1241
▁खाड़ी 1240
▁जाकिर 1240
▁हर्ष 1239
▁पर्रिकर 1239
▁भव्य 1239
क़त 1239
▁जागरूकता 1238
▁प्रतिपक्ष 1236
▁अभियोजन 1236
▁1998 1236
▁पनाह 1236
▁मायने 1235
खोर 1234
तैयबा 1231
▁अनिश्चित 1231
▁सेकेंड 1231
▁पुनर्वास 1231
28 1230
08 1230
▁मुकुल 1230
ेगें 1230
▁कष्ट 1229
▁कीजिए 1228
▁लड़का 1228
▁रजिस्टर 1228
टीएस 1227
सिन 1226
▁खुदरा 1226
▁हलफनामा 1224
ेटिव 1224
▁बुकिंग 1224
▁सुनता 1224
▁फ्रंट 1224
▁रवैये 1224
▁आचार्य 1222
▁सप्लाई 1221
▁विजेता 1220
ut 1220
ab 1219
▁उपयोगकर्ता 1219
अहले 1218
▁धीमी 1217
▁पारिवारिक 1216
▁निरोधक 1216
▁फुटेज 1216
▁हाजिर 1216
z 1216
▁बर्दाश्त 1216
▁बदलें 1216
▁पैन 1215
▁परंपरागत 1215
▁53 1215
▁साधते 1214
▁जायेगी 1214
▁प्रसन्नता 1213
▁बंसल 1213
▁ढील 1213
▁कूटनीतिक 1212
▁उम्रकैद 1212
▁खिसक 1212
X 1211
▁बिछा 1211
▁रात्रि 1211
▁खाओ 1211
▁पाटीदार 1210
▁ड्रा 1209
▁अमन 1208
ौफ 1208
▁आश्वस्त 1207
▁तालमेल 1207
▁ऑडियो 1206
▁योगेंद्र 1205
प्रीत 1204
▁ढक 1204
55 1203
▁यश 1203
▁आपसे 1203
▁विनाश 1203
▁सिलेंडर 1203
▁झलक 1202
़़ड 1202
000 1202
▁छोड 1202
ात्मा 1201
फाई 1200
▁कॉपी 1200
गृह 1200
▁इंग्लैंड 1200
▁बंदरगाह 1199
▁समर्पण 1199
मंतर 1198
▁वैकल्पिक 1198
ेयार 1198
▁बेकार 1197
▁मनरेगा 1197
▁बिग 1197
▁समितियों 1197
▁उपेक्षा 1197
▁इशरत 1197
▁अध्यापक 1197
▁श्रद्धा 1197
▁वसुंधरा 1196
निर्देश 1196
▁पाच 1196
▁हवाओं 1196
▁आरबीआइ 1196
लड़कों 1195
▁साय 1195
▁आहार 1195
▁परिभाषा 1194
▁उकसा 1194
▁आर्ट 1193
▁एकदम 1193
▁दाहिन 1192
▁विशेषाधिकार 1191
▁खजाने 1191
▁जिम्मा 1190
▁एयरलाइन 1188
▁द्विवेदी 1187
▁चतुर 1186
▁टैब 1186
ag 1185
▁पड़ते 1184
▁मुख्तार 1183
▁67 1183
▁उठता 1182
▁तिहाड़ 1182
▁एमएम 1182
▁सत् 1181
▁डीएनए 1181
▁भरोसे 1179
▁एजेंडे 1179
▁राधा 1178
▁ईवीएम 1176
▁थक 1176
▁खाई 1176
▁त्वरित 1175
▁बुरहान 1175
▁उदास 1175
▁कट्टरपंथ 1175
07 1175
विमर्श 1174
▁लाइट 1174
▁कार्बन 1174
▁सुर्खिय 1173
▁बंदूक 1172
▁खिंच 1171
▁अजहर 1171
▁निष् 1171
▁डालते 1170
▁संपत्तियों 1169
▁जरुरत 1169
शुल्क 1169
▁1996 1169
▁इकबाल 1169
▁स्टैंड 1169
▁बचाया 1169
▁निष्पाद 1169
▁बताती 1168
▁प्रतिष्ठान 1168
▁कतार 1168
▁तबाह 1167
– 1167
▁क़दम 1167
व्यवस्थित 1166
▁ज़रि 1166
▁पंकज 1165
▁महेंद्र 1165
▁एकत्रित 1165
▁दुर्ग 1165
▁गतिविधियां 1164
▁गश्त 1163
▁विधवा 1163
▁वीरभद्र 1163
▁प्राधिकार 1163
▁टेलीफोन 1161
▁बैच 1161
▁पशुओं 1161
▁बहुतेरे 1161
▁सुलझा 1159
▁अनुचित 1159
▁वारिस 1159
▁चंद्रशेखर 1158
▁झंडे 1158
▁अक्षय 1157
▁विभाजित 1157
▁उपद्रव 1157
▁Mishra 1157
▁जेट 1157
▁संक्षिप्त 1157
▁कोतवाली 1156
▁तादाद 1156
▁बल्लेबाज 1156
▁फैक्ट्री 1155
▁चैन 1155
▁बेटिय 1155
▁कैसी 1155
▁द्वि 1155
▁सुनंदा 1154
▁घातक 1154
िरऔन 1154
श्लेष 1153
▁गणेश 1153
▁बेहोश 1153
▁अंकुश 1152
▁एटीएस 1152
▁ऊंचे 1152
▁चिह्नित 1152
▁उड़ीसा 1151
▁गूंज 1151
▁वितर 1151
▁कच्चे 1151
▁लेनदेन 1150
▁साझीदार 1150
▁प्रसंग 1150
▁जंतर 1149
▁57 1149
▁खैर 1149
▁त्वचा 1149
▁बेहतरीन 1148
▁पढ 1148
▁कार्यान्वयन 1147
▁रिश्ता 1146
32 1146
▁माधव 1146
▁बिक 1146
▁सत्यापन 1146
▁प्रयोगशाला 1145
▁वाणिज्यिक 1145
▁संचालक 1144
▁तिहाई 1144
▁कहानिय 1144
▁मुद्र 1144
▁उत्साहित 1143
▁कैलाश 1143
▁ठिकाने 1142
▁एक्शन 1142
▁मिस्र 1141
▁हलाल 1141
▁नमाज 1141
▁कॉलोनी 1139
▁स्वतः 1139
▁मैसेज 1138
▁विष्णु 1138
▁सर्वश्रेष्ठ 1138
▁सटीक 1137
▁अंतराल 1137
▁अर्पित 1136
▁जरा 1135
▁दिलीप 1135
▁झटके 1135
अपने 1135
ओमप्रकाश 1134
▁पुंछ 1132
▁हैसियत 1132
▁भुला 1132
▁गिल 1131
▁विहिप 1131
▁अजीब 1131
▁जगदीश 1130
▁बौद्धिक 1130
राईल 1130
▁सीनियर 1129
▁बाह्य 1129
▁संतान 1128
▁गाव 1127
▁उत्पा 1126
▁कर्फ्यू 1125
▁गैरकानूनी 1124
▁अर्ध 1124
▁प्रबल 1123
▁पदाधिकारी 1123
▁तख्त 1123
▁पलटवार 1123
▁शिल्प 1123
▁जोड़ें 1123
▁ध्वस्त 1122
▁प्लेट 1122
▁कहेगा 1122
▁ग़ौर 1122
▁डराने 1121
res 1121
▁तीव्रता 1121
▁धर्मनिरपेक्ष 1121
▁पुतल 1120
▁लटक 1120
फेयर 1120
▁सुधर 1120
▁आइए 1120
▁सुझा 1120
लैंगिक 1119
▁पोर्टल 1119
▁ठप 1119
▁ब्रिगेड 1119
26 1118
▁तुर्की 1118
▁कथन 1118
▁यहूदी 1118
▁हिजबुल 1117
मार्ग 1117
▁चाचा 1117
▁धातु 1117
▁हलाक 1117
▁सुब्रमण्यम 1116
▁कचरे 1116
▁पेयजल 1115
▁संगठित 1115
▁कन्या 1115
▁अजित 1114
▁ऑफ़ 1114
▁श्रद्धालु 1113
▁झंडा 1113
▁देखेंगे 1113
▁हल्के 1113
▁संस्थाप 1113
▁मसौद 1112
▁अध्याय 1112
▁नाइक 1111
िंक 1111
▁अंबानी 1111
▁मेगावाट 1111
▁शाखाओं 1110
▁डै 1110
▁मल्टी 1109
▁PM 1108
नारायण 1108
▁युक्ति 1107
▁शिवाजी 1105
27 1105
▁श्वेत 1105
▁शिवपाल 1104
पीठ 1104
▁अपेक्षित 1103
▁आहत 1103
समुचित 1102
▁सीखने 1102
23 1102
▁मज़बूत 1102
▁ट्रिब्यूनल 1101
ho 1100
दाताओं 1099
▁अन्याय 1098
▁आरोपपत्र 1098
गू 1098
AP 1098
▁नरेन्द्र 1097
tion 1097
▁विनियम 1097
▁रसोई 1096
▁आदर 1096
विंदर 1095
▁बंगले 1095
▁मेहमान 1094
▁एफडीआइ 1094
▁खेमे 1093
▁फोरम 1093
▁250 1092
▁शीना 1091
▁दिलाई 1090
▁मुआवजे 1090
वेस्ट 1090
▁पैदावार 1090
▁आंखें 1089
जाब्यू 1088
▁कुफ्र 1088
▁1990 1087
▁नियामक 1087
पुत्र 1086
▁अवमानना 1086
▁इलेक्ट्र 1086
▁बिखर 1085
▁राजपूत 1085
▁सम्भव 1085
▁विरूद्ध 1085
▁स्टॉक 1084
▁किडनी 1084
ap 1083
▁घंटा 1083
▁कस्बे 1083
▁निष्ठा 1083
▁उत्तेज 1082
▁हँस 1082
▁शीतकाली 1081
▁पढ़ते 1080
▁टर्मिनल 1080
▁नौजवान 1079
▁अनुपालन 1079
▁शांतिपूर्ण 1078
▁तोड़फोड़ 1078
▁पॉलिसी 1077
▁गाड़ियों 1076
▁स्पीड 1076
tr 1076
▁बोतल 1076
▁बटालियन 1075
सरकार 1074
▁स्वायत्त 1074
▁दर्शाता 1073
▁वाघेला 1072
▁देखरेख 1072
▁संविदा 1072
▁डीएसपी 1072
▁सरबजीत 1072
▁गर्दन 1072
▁अस्वीकार 1070
▁अकाली 1070
▁दरगाह 1069
▁लड़कियां 1068
▁चौथी 1068
▁दुर्भाग्य 1067
▁तटीय 1067
▁सिंधु 1067
▁खटखटा 1066
he 1066
▁समाप्ति 1066
▁भिड़ 1066
रिश्तों 1066
▁घुमा 1065
▁घूस 1065
▁सस्ती 1065
▁आंशिक 1065
▁विलंब 1064
▁ससुराल 1063
▁संभावनाएं 1063
▁1984 1063
▁कबीर 1062
भ्रष्ट 1062
▁धक्का 1061
▁शिक्षित 1061
ख्तियार 1061
▁इनपुट 1060
▁दुर्भाग्यपूर्ण 1060
▁संभावनाओं 1060
▁पौध 1060
▁डांस 1060
▁कब्र 1060
▁कृत्य 1059
▁मराठी 1059
▁एरिया 1058
▁बनेगी 1058
▁असीम 1058
▁लॉन्च 1057
फिर 1057
▁कारगिल 1056
▁तीर 1056
▁लोकप्रियता 1056
▁निर्वाचित 1056
29 1055
▁अनोख 1054
▁पारदर्शी 1054
▁ऑस्ट्रेलिया 1054
▁दस्ते 1053
▁रोकथाम 1053
▁नीरज 1053
▁दिशानिर्देश 1052
▁दबोच 1052
संख्य 1052
▁प्रतिकूल 1052
▁कैल 1052
ज़बान 1051
▁दावों 1050
▁लिपि 1050
▁साध्वी 1050
▁क़िस्म 1049
▁लैपटॉप 1048
▁कैडर 1048
▁मुजफ्फर 1048
▁मसला 1047
चरण 1047
▁चौंकाने 1047
▁गरिमा 1047
▁स्वचालित 1046
▁अवार्ड 1046
▁निजाम 1046
▁उपहार 1046
▁चह 1045
▁ग्रेनेड 1044
वर्धन 1044
▁अर्जित 1044
▁ठेकेदार 1044
▁ठाणे 1044
▁हेक्टेयर 1043
▁महत्त्वपूर्ण 1043
▁तुम्हे 1043
▁शरारत 1042
▁टेप 1042
▁जायसवाल 1041
▁नक़ल 1041
▁ईस्ट 1040
▁चाकू 1040
▁इंडस्ट्री 1040
▁ग्यारह 1040
▁आदित्यनाथ 1040
▁नींव 1040
▁रवीन्द्र 1040
▁एहसान 1040
▁त्योहार 1040
▁पणजी 1039
▁आपरेशन 1039
▁पांव 1038
▁बॉक्स 1038
▁फिलीस्तीन 1038
90 1037
▁सम्पूर्ण 1037
▁एशियाई 1037
▁इब्राहिम 1037
▁सद्भाव 1036
▁गतिरोध 1036
४ 1036
पूर्ववर्ती 1036
प्रयाग 1035
▁मादा 1035
▁63 1034
▁वाक्य 1034
▁1947 1034
▁माफिया 1033
▁थोप 1033
▁बूझ 1033
▁बिल्डिंग 1032
▁साहित्यिक 1032
▁भूस्खलन 1031
प्रकाश 1031
▁देसाई 1031
▁रिलायंस 1031
▁इरादे 1030
दाद 1030
▁पोजीशन 1030
▁गेम 1029
▁बंगला 1028
▁जायेंगे 1028
▁चट्टान 1028
▁देगें 1028
manoj 1027
▁yadav 1027
वैसी 1026
▁द्वारका 1026
▁संग्राम 1026
▁डीआइजी 1025
▁पीएसी 1024
▁खुदकुशी 1024
▁चौड़ाई 1023
▁मसलन 1022
▁पंद्रह 1021
▁टेक 1020
▁प्रवीण 1020
▁आशीर्वाद 1020
▁पार्षद 1020
▁व्यापम 1020
▁लाइ 1020
▁भुवनेश्वर 1019
▁विनिमय 1019
▁रियल 1019
▁करतूत 1018
▁स्टिंग 1018
▁फूड 1018
▁बैनर 1018
▁अतीत 1018
▁ग्वालियर 1018
▁सहानुभूति 1018
▁संग्रहालय 1018
▁पंचांग 1018
▁आभार 1017
▁गंदगी 1017
▁याकूब 1017
▁ट्यूब 1017
▁खुलासे 1016
▁शाहरुख 1015
▁पीयूष 1014
▁बदौलत 1014
▁रायबरेली 1014
▁सरपरस्त 1014
▁ज़ोर 1014
▁व्यावहारिक 1013
▁एसएमएस 1013
▁दंपति 1013
▁जावड़ेकर 1012
▁बहू 1012
▁प्रतिबद्धता 1011
▁सीबीएसई 1011
▁स्पष्टीकरण 1011
▁ब्रेक 1010
▁Prat 1008
ibha 1008
६ 1008
▁गाधी 1006
▁आकर्षण 1006
▁रामलीला 1006
▁रालोद 1006
▁गुलाब 1006
▁सांप 1006
▁अटक 1006
ॊ 1006
▁तहरीर 1005
02 1005
▁सैफ 1004
▁ध्रुव 1004
▁बांबे 1003
▁नमूने 1003
▁1997 1003
ent 1003
▁जहा 1001
▁पेशेवर 1001
▁असाधारण 1001
04 1001
▁ऊतक 1001
▁उपवास 1001
▁एलओसी 1000
▁समापन 999
▁बगल 999
▁परम्परा 999
▁अवध 999
▁जादूगर 998
पोरा 997
▁ब्यौरा 997
▁बयानबाजी 997
▁रंजीत 997
▁संपादकीय 996
▁जेहाद 996
▁इस्पात 996
▁1991 996
▁खौफ 996
▁पाँच 996
▁एसडीएम 995
▁सिसोदिया 995
▁दांत 995
▁ताजमहल 995
06 995
▁राजकीय 994
▁बुलंद 994
▁अवधारणा 994
▁विपणन 994
▁आजकल 993
▁उपायुक्त 993
▁रोटी 993
▁कुरैशी 992
▁ओबीसी 992
▁अधिवेशन 992
ुबूल 992
▁जैविक 991
▁समावेश 991
▁करुणानिधि 990
▁इमाम 990
शू 989
▁महागठबंधन 989
▁मेनन 989
▁तल्ख 988
▁विराट 987
घोष 986
▁एंबुलेंस 986
▁हुकूमत 986
▁कपड़ा 985
▁आयुर्वेद 985
▁स्थाई 985
▁कर्ण 984
▁देशवासियों 983
▁सतत 983
okh 982
▁लद्दाख 982
▁बराक 982
▁सच्ची 982
▁हिसार 982
▁फुल 982
▁पुलवामा 981
▁उमड़ 981
▁बढ़ेगी 981
▁वित्तमंत्री 980
▁प्रतिभूति 980
▁सहेजें 980
▁सुदृढ़ 979
▁प्रसारित 979
▁टेली 978
▁निलंबन 978
▁नीरव 978
ive 978
▁अपलोड 978
▁शिष्य 977
▁लिप्त 976
▁धोखे 976
riyal 975
▁भांति 974
▁महाभारत 974
▁फारूक 973
▁सिद्धार्थ 973
▁कबूल 972
li 972
▁नमक 972
▁मैनेजमेंट 971
▁कप्तान 971
▁राष्ट्रवादी 971
▁नीतिगत 971
▁प्रतिरोध 970
▁टाइप 970
शत्रुघ्न 969
▁वामपंथी 969
▁दुर्लभ 969
▁ग्रेटर 967
▁निवारण 967
▁नियंत्रक 966
▁लक्ष्मण 966
▁साधु 966
▁खपत 965
▁पनडुब्बी 965
▁ब्राउज 965
▁रमन 964
▁गोगोई 964
▁ख्वाहिश 964
▁इंटरव्यू 963
▁इलाका 963
▁भाकपा 963
▁स्वप्न 963
▁इशारे 963
▁पटनायक 961
▁फाड़ 961
▁रेशम 961
▁जानकारियां 960
▁लांड्रिंग 960
▁खूबसूरत 959
▁रोचक 959
▁नर्मदा 959
▁पलायन 958
▁दिवंगत 957
▁चिंतन 957
▁संवर्धन 957
▁भौगोलिक 956
▁परिभाषित 956
▁ब्लू 956
▁पेरिस 954
▁प्रकोप 954
▁झुलस 954
▁हुड्डा 954
co 954
▁मुर्ग 953
▁नौसैनिक 953
▁अयोग्य 952
▁कराची 952
िज्म 952
▁सत्याग्रह 952
▁प्रतिबद्ध 951
▁प्रक्षेपण 951
▁आज़मा 951
▁for 950
▁बालिका 950
िल्लत 950
▁सिंघवी 950
▁सस्ता 950
▁स्वामित्व 950
▁समकक्ष 950
▁उपमुख्यमंत्री 949
▁स्त्रोत 949
▁लोहा 949
▁उर्वरक 949
गंगा 948
▁इस्लामाबाद 948
▁काटजू 947
▁फेरबदल 947
▁जॉन 945
औ 945
▁आजीवन 945
= 944
▁बुलाए 944
गिर्द 943
▁निर्णायक 943
▁अग्रणी 943
▁खनिज 943
▁दामाद 942
नियोजित 942
▁अभय 940
▁हामिद 939
▁गाइड 939
८ 939
39 938
▁मुंडे 938
▁चमत्कार 938
▁उबर 938
▁उपबंध 938
न्तिम 937
▁अजमेर 936
▁बगावत 936
▁अत्याधुनिक 936
▁हाज़िर 936
▁उभार 935
▁अर्थशास्त्र 935
▁एसटीएफ 934
ॆ 934
▁प्रमोद 933
▁मर्यादा 933
▁600 933
▁आदिवासियों 933
▁कमज़ोर 933
▁जुबान 932
▁संयोग 930
▁आवेदक 930
▁जिन्ना 930
▁अटार 929
▁ब्लॉग 927
▁हादसों 927
▁बरकत 927
ऊंगा 927
▁फंडिंग 926
▁ब्रिक्स 926
▁वाशिंगटन 925
▁दूंगा 925
▁वरुण 925
etwork 925
▁अपेक्षाकृत 925
▁रखरखाव 924
▁मेघालय 922
▁जर्मन 922
▁ध्वज 922
▁वैदिक 922
▁इन्सान 922
जगह 921
▁महंगा 920
▁प्लेटफार्म 920
▁सरगना 920
▁आगमन 920
कॉम 920
▁चह्वाण 919
▁कागजात 919
▁ज़िम्मेदार 919
▁तरुण 918
▁मानहानि 917
▁समर्थ 917
▁फोकस 916
▁शोभा 916
▁जनजीवन 916
▁सलीम 916
▁टेक्नोलॉजी 916
बारूद 915
▁नजरअंदाज 914
▁सम्बंध 914
▁सत्ताधार 914
▁सम्राट 914
▁रूपरेखा 914
▁भुगतन 913
▁आलाकमान 913
▁क्रांतिकारी 913
▁माओवादी 913
▁नमूना 913
▁मोटे 913
▁षड्यंत्र 912
▁निकासी 912
▁पांडे 912
▁रियासत 912
▁जवाबदेही 912
▁एनसीपी 911
▁संवेदना 910
▁स्तन 910
▁वाद्य 909
▁संप्रदाय 908
▁लाठी 908
▁ट्रांसपोर्ट 907
ow 907
▁हिन्दुस्तान 906
▁दंपती 905
est 905
▁तालिबान 904
▁चीख 904
▁चौपा 904
▁दुल्हन 904
▁निमंत्रण 903
▁मंथन 903
▁जगन्नाथ 903
▁हनुमान 903
▁मोटरसाइकिल 903
▁बहुगुणा 903
▁सिक्योरिटी 901
IN 900
ञ 900
डब्लू 900
▁बैंड 899
आउट 898
▁एनकाउंटर 898
▁वरना 898
▁सोमनाथ 898
▁टावर 898
▁हेडली 898
▁उछाल 897
ment 897
▁समायोज 897
▁दुकानदार 896
▁सुराग 894
▁नवजात 894
▁प्रसन्न 894
▁News 893
▁तरक्की 892
पांच 892
▁गोल्ड 892
▁सचमुच 891
▁सरपंच 890
▁घास 890
▁फैक्टर 889
▁सलेम 889
▁फड़नवीस 889
▁एतराज 889
मूल्य 888
▁अनुपस्थित 888
▁पर्सनल 887
▁औरतें 886
▁अतिक्रमण 886
▁सम्पर्क 885
▁बुझा 885
▁प्रजनन 885
▁हड्डिय 885
भ्र 885
▁अंधेरे 884
ऍ 884
▁स्मरण 883
▁त्रिवेदी 883
▁प्याज 883
बरदस्त 883
▁बदायूं 882
▁तिमाही 881
▁देखिए 881
▁रासायनिक 881
▁शकील 880
▁कुबूल 880
▁हनन 879
▁रैकेट 879
▁एस्टेट 879
▁सुरक्षाकर्मियों 879
▁कुचल 879
मोदी 878
ver 878
▁फ्लैग 878
▁रॉकेट 878
▁शुभकामनाएं 877
▁1992 877
▁शस्त्र 877
▁जल्दबाजी 876
▁नापाक 876
▁ब्लड 876
▁साझी 876
▁Ch 875
▁भावुक 875
▁उत्तराधिकारी 874
▁अनंतनाग 874
▁आत्मसमर्पण 873
▁गहलोत 873
▁वक्तव्य 873
▁कृत्र 873
▁वसीयत 873
ुदरत 873
▁अमृत 872
▁प्रणालिय 872
▁यशवंत 871
सूद 871
▁क्ला 870
▁हलचल 869
▁फ़ॉन्ट 869
▁एनआईए 868
▁मौर्य 868
▁पुरूष 868
▁टेलीकॉम 867
▁रिजल्ट 867
▁मोहलत 866
▁बिठा 866
▁रामगोपाल 866
▁हकदार 865
▁कोच्चि 865
▁ऑडिट 865
▁अवशेष 865
▁अवतार 865
▁दुःख 865
▁मनोरंजन 864
▁किनारा 862
▁1995 861
▁पैसों 860
▁भागीदार 860
▁राजभवन 859
▁हेल्थ 858
▁येचुरी 858
▁लानत 858
▁ड्रग्स 856
▁उपाधि 855
▁आजमगढ़ 855
▁घोषणापत्र 854
▁धौ 854
▁मेनका 854
▁टेक्न 853
▁चादर 853
▁नफरत 852
▁झांक 852
▁ओवैसी 852
▁कन्हैया 852
▁वरीयता 852
▁डोनाल्ड 851
▁मानदंड 851
▁सर्वदल 851
▁चिल्ला 851
▁सर्वोत्त 851
कठघरे 851
▁संलिप्त 850
▁असामान्य 850
▁एहसास 850
▁बारीक 850
▁कुत्ते 849
▁जूनियर 849
▁बदमाश 849
▁घेराबंदी 849
▁साउथ 848
▁आकर्षक 848
▁जेठमलानी 847
चार्ज 847
▁शंकराचार्य 845
▁कालाधन 844
▁व्याप्त 844
▁स्त्रिय 844
▁अख्तर 843
▁नाजुक 843
▁उत्सर्जन 843
▁बिल्डर 842
▁रचनात्मक 842
+ 842
▁भविष्यवाणी 841
▁सब्जी 841
▁वांछित 841
▁भ्रूण 840
▁हालाकि 839
▁कम्प्यूटर 839
▁एफआईआर 839
▁बिन्दु 839
क्रिप्ट 838
▁कोयले 837
▁भेड़ 837
▁काउंटर 836
▁राधाकृष्णन 836
▁महासभा 836
▁वाटर 836
▁कैमरा 836
▁जुर्माने 835
ers 834
▁लोहे 833
▁आधुनिकीकरण 831
▁उच्चायुक्त 831
▁सुसाइड 831
▁मार्शल 831
▁तुलसी 830
▁इमरान 830
▁विदाई 830
▁पेमेंट 830
▁एक्सचेंज 829
▁अंदरूनी 829
▁स्वार्थ 828
▁विक्रेता 828
▁प्रगतिशील 827
▁वसंत 827
▁------ 827
९ 826
▁माकन 826
▁डिवीजन 825
▁डिफेंस 825
▁अवरोध 825
▁डिवाइस 825
▁पसंदीदा 824
डि़यों 824
▁दरकिनार 823
▁लाइफ 823
haran 823
▁रजिस्ट्रेशन 822
▁मुखपत्र 822
▁तानाशाह 821
▁पीपुल्स 821
▁हैैं 821
▁Mura 821
▁विवेकानंद 821
▁लुधियाना 820
▁मुरली 820
▁कीर्ति 820
गिरी 820
ाइजेशन 820
▁भतीजे 820
▁स्पेस 820
▁हेलीकाप्टर 819
▁चाँद 819
▁अगुआई 818
▁टेंडर 818
दिल्ली 818
▁संयम 817
▁रोशन 817
▁हल्का 816
फ्रेंड 816
▁फास्ट 815
▁पुरोहित 815
▁भाष् 815
▁दौलत 814
▁भैंस 814
▁खाद्यान्न 814
▁1971 814
▁रामायण 814
▁उत्सुक 813
▁निरीक्षक 813
▁जनप्रतिनिधि 813
▁महोत्सव 813
▁संरक्षित 812
▁यथार्थ 812
वस्तु 811
India 811
▁डोभाल 811
▁तरीक़ 811
▁आकांक्षा 810
▁गर्भपात 810
▁बुंदेलखंड 809
▁ट्रै 809
▁सेटेलाइट 809
▁अभिभाषण 808
▁अहमियत 807
▁कट्टर 807
▁झांसी 807
▁कार्टून 806
▁तेरा 806
▁सेंसर 805
▁कुंभ 805
▁शिकंजा 804
▁विधानमंडल 802
▁रैलियों 802
▁शिफ्ट 802
▁बकौल 802
▁शोपियां 802
पश्चिम 802
डि़या 800
▁प्रायोज 800
▁सकने 800
▁चेहरों 800
▁वर्दी 799
▁प्रसव 799
▁गुंजाइश 799
▁तुझ 799
Name 799
▁सौंदर्य 798
▁प्रारम्भ 798
▁धुंध 798
▁दफन 797
▁दिव्यांग 797
▁उत्तरदायी 797
▁कॉन्फ्रेंस 796
▁भैया 796
▁सस्ते 796
▁बजकर 796
▁बुलंदशहर 796
▁प्रोटीन 796
▁परिवेश 796
▁प्रशंसक 795
▁टाइगर 795
▁आशीष 794
▁जयप्रकाश 794
▁चैतन्य 794
▁कयास 793
▁यूनाइटेड 793
▁मिस्त्री 793
▁बंबई 793
▁चालीस 792
▁सौभाग्य 792
▁सार्थक 791
▁ग्राउंड 791
▁गठजोड़ 791
▁सुकमा 791
▁विन्यास 791
▁प्रीमियम 790
▁गवर्न 790
▁सीताराम 790
ill 790
AT 790
▁विभेद 790
▁बीविय 790
▁सघन 789
▁प्रत्यर्पण 789
▁मतगणना 789
▁सर्किट 788
▁अविश्वास 788
▁एकाउंट 788
▁देहात 788
▁फलस्वरूप 787
थलग 787
▁मलेशिया 786
▁सिद्दीकी 786
▁नीच 786
▁मरियम 786
▁पर्दा 785
७ 785
▁व्यर्थ 784
▁एवज 784
▁अक्तूबर 784
▁समाहित 784
▁सिगरेट 783
▁निविदा 783
▁असंतोष 782
▁पैकेट 782
▁राजौरी 781
▁महत्वाकांक्षी 781
▁कीटनाशक 781
▁बिस्तर 781
▁गंतव्य 781
▁इमरजेंसी 780
वृद्धि 780
सामने 779
▁फ्लोर 779
▁श्रोत 779
▁उत्तरप्रदेश 779
▁प्रोटोकॉल 779
▁अथॉरिटी 778
युद्ध 778
▁सरहद 778
▁लपेट 777
▁फाइनल 776
▁अप्रत्याशित 775
▁पटाख 775
▁शौच 775
▁नाहक 775
▁बॉर्डर 774
अर्चना 773
▁प्रसंस्करण 773
▁चक्रवात 773
▁उखाड़ 771
▁छुट्टिय 771
▁स्विच 771
द्घ 771
▁प्रशासक 771
▁सर्टिफिकेट 770
pl 770
मूर्ति 768
दृश 768
फ्फार 768
▁आस्ट्रेलिया 768
▁कार्यभार 767
▁गुर्जर 767
▁भरपाई 767
▁अंडमान 767
▁हज़ार 767
▁हाइड्रो 765
▁चतुर्वेदी 764
▁प्रासंगिक 764
पद्मावत 763
न्वेषण 763
▁डेवलपमेंट 763
▁मलबे 762
▁नजीब 761
▁युवतियों 760
▁फैजाबाद 760
॰ 760
▁फीड 759
▁तबादला 759
जहां 759
▁टीएमसी 759
▁शर्मनाक 758
▁Art 758
▁सामरिक 758
▁देशद्रोह 758
▁अजीज 757
▁तवज्जो 757
▁नवाब 757
▁रोहिंग्या 757
▁घोटालों 756
▁सुन्दर 756
▁मुकदमों 755
▁प्रदूषित 755
▁न्योता 754
▁कम्युनिस्ट 754
▁वास्तु 754
विरोधी 753
मुझे 753
प्राप्त 753
्थिव 752
▁उद्यान 752
▁पैतृक 752
▁सौहार्द 752
▁चौबीस 752
▁प्लगइन 752
▁उग्रवादी 751
▁यूजीसी 751
▁कार्यान्व 751
▁गद्य 751
▁महिमा 749
▁जलस्तर 749
▁खजूर 749
▁सृष्टि 749
▁रोहतक 748
▁तिरंगा 748
▁धरोहर 748
▁तबीयत 748
▁वयस्क 748
▁कावेरी 747
▁हताश 747
▁निषेध 747
▁नज़दीक 747
▁आवाजाही 746
▁ज्यादती 746
▁क्रोध 746
▁अनजान 745
▁मधुमेह 744
▁पर्रीकर 743
▁सुधीर 743
▁पप्पू 743
▁हड्डी 742
▁छेड़खानी 741
▁वाकिफ 741
▁एलपीजी 741
▁जबलपुर 740
▁मिजोरम 739
▁रोबोट 737
▁लीजिए 736
▁संपदा 736
▁कुपवाड़ा 736
▁खामोश 735
▁फरीदाबाद 735
लॉजी 735
▁वैधानिक 734
▁हर्षवर्धन 734
▁जीडीपी 734
▁सुशासन 734
▁आसिफ 734
▁जनगणना 734
▁समाधि 734
▁कूटनीति 733
▁सृज 733
▁संबध 733
▁विलास 732
▁परिदृश्य 731
▁अफ्रीकी 731
▁आईआईटी 731
▁खंगाल 731
▁गर्ल 730
▁अपडेट 730
▁एडवांस 730
▁डिब्बे 730
▁ताल्लुक 730
▁टैगोर 729
▁प्रयोक्ता 729
▁परिपक्व 728
▁परिश्रम 728
▁आत्मघाती 728
▁घमासान 728
▁सुमित्रा 727
फॉर्म 727
▁कटाक्ष 727
▁तेंदुलकर 726
▁शोधकर्ताओं 726
▁तरजीह 726
▁भगदड़ 725
▁हस्तांतरण 725
▁कपड़ों 724
▁चिकन 724
▁मसीह 724
▁असहिष्णुता 723
▁रॉबर्ट 723
▁बूंद 722
▁ठेका 721
▁साक्षरता 721
▁इंडोनेशिया 721
▁दार्शनिक 721
▁अनुराग 721
▁कृतज्ञता 721
▁डेविड 720
▁बर्बर 719
▁जानलेवा 719
▁न्यूयॉर्क 719
▁इंसाफ 719
▁पिघल 719
▁ऑपरेटर 719
▁नासिक 719
▁बुराइय 718
▁विडियो 718
▁सम्पन्न 717
▁आजीविका 717
▁स्टार्ट 716
▁वनस्पति 715
▁बिजनौर 714
▁अमरीका 714
गुज़ार 714
▁बलिदान 712
▁कस्टम 712
▁गाँव 712
▁वगैरह 711
▁महफूज 711
▁माइक 710
▁शुमार 710
रचना 710
▁भयंकर 709
▁पर्दे 709
▁अय्यर 708
▁तेजस्वी 708
▁इजाज़त 708
▁जीआरपी 708
▁विनिर्माण 708
़ूब 708
▁राघव 707
▁लम्बी 705
▁निजता 703
▁खदेड़ 703
▁घसीट 703
पंथी 702
▁आभास 701
▁उच्चायोग 700
▁एहतियात 699
▁जालंधर 698
▁ऑक्सीजन 698
▁भयानक 697
▁हड़कंप 697
▁खेद 697
▁हेल्पलाइन 697
▁स्वाधीनता 697
▁अभिनय 696
▁दृष्ट 696
▁अपमानजनक 695
▁शूटिंग 695
▁अड़चन 694
,500 694
▁सनातन 694
▁ग्रिड 693
▁ड्रोन 693
▁रुझान 692
Q 692
▁छेद 691
▁मंसूब 691
▁पुजारी 691
▁स्टूडेंट 691
▁कोलेजियम 691
▁औचित्य 691
▁इतालवी 690
द्योगिक 690
▁सब्जियों 689
▁स्नेह 689
▁सीतारमण 689
▁पुडुचेरी 689
▁उग्रवादियों 688
▁सूचकांक 688
▁डकैत 687
▁असहज 687
▁तत्पर 687
▁मॉड्यूल 686
वुड 685
▁उन्मूलन 685
▁स्थानांतरण 685
▁प्रतिज्ञा 685
▁स्पर्श 684
▁सबकुछ 684
▁भूपेंद्र 684
▁गड़बड़ 683
▁एजुकेशन 683
▁पुरातत्व 683
▁हावड़ा 683
▁वैद्य 683
▁हास्य 683
▁वैष्णव 683
▁सनसनीखेज 682
▁असंवैधानिक 682
▁शहादत 682
▁चुटकी 682
▁भारद्वाज 682
▁अड्डों 681
▁दुर्घटनाग्रस्त 681
▁ठोक 681
एजेंसी 680
▁लम्बे 680
▁प्वाइंट 680
▁क्षतिपूर्ति 680
▁प्रोन्नति 680
▁हॉस्टल 679
▁कॉरपोरेट 679
▁दोहरे 679
▁हिमपात 679
▁ख़िलाफ 679
▁मेजबान 678
▁नियोजन 678
▁अप्रत्यक्ष 677
▁एएसपी 677
▁पर्दाफाश 676
▁वडोदरा 676
▁परिक्रमा 676
▁26/11 675
▁खेहर 675
▁सीरियल 675
क्रो 675
▁अटैक 674
▁अभद्र 674
▁मुमकिन 674
▁औरंगाबाद 673
▁जसवंत 673
▁दीपावली 673
▁श्रेणियों 672
▁सीवीसी 671
▁पूरक 671
▁सिपाहियों 671
▁अकेली 670
▁लोहिया 670
▁सुलेमान 670
▁मोर्टार 669
▁खातिर 669
▁मर्जी 669
▁आत्मनिर्भर 669
▁डेमोक्रेटिक 668
▁रिजिजू 668
▁सौदों 668
▁श्लोक 667
▁अभियंता 667
▁जोसेफ 667
तएव 667
▁1962 666
▁अद्भुत 666
▁दरवाज़ 666
▁नामजद 665
▁नाबार्ड 665
▁त्रासदी 664
▁पूर्वाचल 664
▁पत्नियों 664
▁राफेल 664
▁राजभाषा 664
▁अनौपचारिक 663
▁मापदंड 662
▁खिड़की 662
▁निर्भया 662
▁सामुदायिक 661
▁गाड़ियां 661
▁आलोचक 661
▁सर्वसम्मति 660
▁मुंहतोड 660
▁जबर्दस्त 659
▁जिंदल 658
▁राष्ट्रगान 658
▁विश्राम 658
प्रेषण 658
▁ब्राजील 656
▁1948 656
ंगणक 656
▁आरटीआई 655
▁अहिंसा 654
▁सुरजेवाला 654
▁करुणा 654
▁मूर्ख 654
▁काबिज 653
▁बेनामी 653
▁बछड़ 653
▁लाठीचार्ज 652
▁प्रोसेस 651
▁संतुलित 651
▁आरुषि 651
▁सीजफायर 651
▁प्रीति 651
▁अनुभूति 651
▁बच्चियों 650
▁जख्म 650
▁विकेट 650
▁मशक्कत 650
▁कन्नौज 650
▁हिंदुत्व 650
▁एयरबेस 650
▁उम्मत 650
▁खिलाड़ियों 649
▁पीएनबी 649
▁हाईकमान 648
▁अहंकार 648
▁चटर्जी 648
▁हानिकारक 648
▁साहेब 647
▁सपनों 646
▁आज़ाद 646
▁परीक्षक 645
▁टॉयलेट 645
▁पुराण 644
▁उड्डयन 644
▁प्रचंड 643
▁इलेक्ट्रानिक 643
▁चुपचाप 643
▁शरणार्थियों 642
मुंबई 642
▁बूट 642
▁टेलीविजन 641
▁अर्धसैनिक 641
▁नजारा 641
▁माउंट 640
▁नियोक्ता 640
▁प्रिंस 640
▁आमंत्रण 640
▁ड्राफ्ट 639
ancy 639
▁महाप्रबंधक 639
कुशल 639
▁1986 639
उत्तर 638
▁महर्षि 638
▁हेमंत 637
▁2016-17 637
▁थोक 637
▁ज़िम्मे 637
▁बर्तन 636
▁महीना 636
एनआरएचएम 636
▁जुंदाल 636
▁चौटाला 635
▁सिग्नल 635
▁मुबारक 634
▁जत्थे 634
▁राच्य 634
▁कार्यपालिका 634
▁अधिसूचित 633
▁उस्मान 633
▁न्यूयार्क 633
▁उज्जैन 632
▁प्रिंसिपल 632
▁बॉम्बे 632
सेवक 631
▁बलूचिस्तान 631
▁दार्जिलिंग 630
▁अनुपम 630
▁बर्ताव 629
▁पैसेंजर 629
▁महाद्वीप 629
▁रूबरू 628
▁कारतूस 628
▁सिक्के 628
▁घमंड 628
▁संयोजन 628
▁दुर्व्यवहार 627
▁विवेचन 627
▁कार्यकलाप 627
▁अशांत 626
▁पूनम 626
▁अमानत 626
▁कालोनी 625
▁नक्शे 625
▁इन्साफ 625
▁पिस्टल 624
▁प्यास 624
▁स्वेच्छा 624
▁रवींद्र 624
▁बौखला 623
▁अवयव 623
▁ड्रेस 623
▁रस्सी 622
▁मच्छर 622
▁भयावह 622
▁मज़दूर 622
▁ऑर्डर 621
▁खुल्लम 621
▁पूजत 621
▁घृणा 620
▁मुख्यधारा 620
▁हफ्तों 620
▁Dig 620
▁एयरफोर्स 620
▁अनुयायी 619
▁आत्मविश्वास 619
▁उत्तरदायित्व 619
▁कृषक 618
▁सामंजस्य 618
▁आश्रय 617
▁निश्चि 617
▁फील्ड 616
च्छेद 615
▁बत्ती 615
▁अलकायदा 615
▁मोहताज 615
▁अन्जा 615
▁2015-16 614
▁वीआइपी 614
▁कठुआ 613
▁शुभारंभ 612
▁सैटेलाइट 612
▁रेगिस्तान 612
▁तेलुगु 611
▁उन्नाव 611
▁तृतीय 611
▁मेमोरी 611
▁पुनर्गठन 610
▁बिलासपुर 610
▁पुर्तगाल 609
▁सुब्रत 609
` 609
▁किंगफिशर 608
▁शाहजहांपुर 608
▁आरबीआई 608
▁एनएसए 608
▁हॉस्पिटल 607
▁भत्ते 607
▁मित्तल 607
▁सर्जन 607
▁मिजाज 607
▁निष्कासित 607
▁संन्यास 606
▁सोलंकी 605
▁स्ट्रीट 604
▁रडार 604
▁डिफ़ॉल्ट 603
▁बैटरी 602
▁इरफान 602
्योंकि 602
समूह 601
▁क्रॉस 601
▁तोहफा 601
इया 601
▁अड्डा 601
▁कार्ययोजना 600
Manoj 600
▁पूर्वानुमान 600
▁अनावश्यक 599
▁नड्डा 599
% 599
चालक 598
▁शल्य 598
▁फार्मूला 597
▁टिप्पणियों 596
▁दस्तखत 596
▁रिएक्टर 596
▁बांग्ला 596
▁सुपुर्द 596
▁प्लेटफॉर्म 595
▁रोहिणी 594
---------------- 594
▁चौतरफ 594
▁रिवाज 594
▁पराजित 593
▁पैलेस 593
▁युद्धपोत 592
▁इटावा 590
▁एडीजी 590
▁अनुयायियों 590
▁चुनौतियां 589
▁खड़गे 589
▁शिलान्यास 589
▁मर्डर 589
▁लाइब्रेरी 589
▁विटामिन 589
▁इंडिगो 588
▁अश्विनी 588
▁विद्वत 588
$ 574
ळ 529
[ 492
\ 440
EX 342
~ 308
२५ 277
ऎ 262
’’ 244
॥ 240
***** 229
LU 219
Ex 209
९९ 208
‘‘ 206
LE 197
ï 190
#W 185
EE 180
२४ 143
९८ 141
२२ 127
२३ 123
९७ 118
° 116
Ó 113
• 113
२६ 106
| 105
९९९ 102
· 94
७५ 91
९९८ 89
LF 84
३५ 82
९६ 78
EL 75
९९६ 75
í 74
९५ 74
२९ 71
९९७ 70
ॄ 69
२८ 67
२७ 66
Â 65
EF 63
३९ 63
९३ 62
३३ 62
९४७ 60
♪ 59
\\ 56
९३६ 56
९७५ 56
४५ 55
९९२ 55
५६ 55
४८ 53
९८४ 52
¶ 51
६५ 51
९९५ 51
‘’ 51
३४ 50
₹ 49
£ 49
WE 48
EU 47
३२ 47
 47
#U 46
WY 46
⁄ 45
९७९ 45
♫ 45
ऌ 44
९७४ 44
ॠ 43
ZZ 43
९८९ 43
HE 42
३८ 41
#FL 39
३७ 39
८५ 39
॔ 39
५४ 38
É 38
६६ 37
९२ 37
५३ 37
८७ 36
४२ 36
३६ 36
७६ 35
FF 35
५८ 35
ˇ 35
WH 34
× 34
^ 34
☻☻☻☻ 34
Θ 34
μ 33
ø 33
९८२ 33
ऒ 33
#H 32
६४ 32
९४२ 32
९३२ 32
४७ 32
QL 30
२२४ 30
८६ 30
§ 30
LL 29
६८ 29
७२ 29
९८८ 29
ELE 29
९८७ 29
२२६ 29
९७३ 27
९७७ 27
८४ 27
Þ 26
YL 26
@H 26
xz 25
EY 25
९८५ 25
हरें 25
°F 25
९८३ 25
५५ 25
८९ 25
९४८ 25
४६ 25
९४ 24
६७ 24
२६४ 24
HU 23
९७६ 23
७८ 23
९६८ 23
६२ 23
Ч 23
HH 22
FL 22
ö 22
५७२ 22
९३७ 21
४४ 21
५६३ 21
९५६ 21
ő 21
LH 20
>< 20
zz 20
Hz 20
XY 20
८५७ 20
९२४ 20
̧ 20
५२ 19
++ 19
ॐ 19
८८ 19
८३ 19
QX 19
ऽ 19
५९ 19
९३९ 19
९८६ 19
८२ 19
̇ 19
ň 19
■ 19
FE 18
@U 18
EW 18
Xz 18
७७ 18
± 18
☻☻☻ 18
९३३ 18
९९३ 18
९७८ 18
९९४ 18
४९ 18
@F 17
** 17
̃ 17
५५६ 17
५६२ 17
९७२ 17
९५२ 17
८९८ 17
őĹş 17
#E 16
ZE 16
UE 16
YE 16
७४ 16
॰ऍ 16
९३४ 16
९६५ 16
५५५ 16
९६३ 16
é 15
YY 15
ú 15
ॣ 15
ò 15
५७७ 15
९४५ 15
९२५ 15
५६६ 15
ии 15
HEL 14
६३२ 14
९४४ 14
☺ 14
८८५ 14
‡ 14
ů 14
#L 13
HQ 13
☻☻☻☻☻ 13
ZZZ 13
८६२ 13
९५५ 13
७९ 13
४३ 13
९३८ 13
√ 13
XF 12
LZ 12
FH 12
Eq 12
९६६ 12
९२९ 12
७७८ 12
॑ 12
′ 12
Ę 12
EH 11
UY 11
@Q 11
LY 11
९६९ 11
८९५ 11
९४९ 11
३७५ 11
२६३ 11
३६५ 11
ñ 11
ÉÉ 11
̋čţ 11
̋ţÓ 11
xÉ 11
ţ 11
******* 10
*** 10
#F 10
YU 10
>& 10
UF 10
५७ 10
७३ 10
© 10
९६२ 10
☻☻☻☺ 10
४९८ 10
५२५ 10
८५३ 10
८८९ 10
७७६ 10
५३५ 10
८९३ 10
६४८ 10
८४५ 10
५८५ 10
८४८ 10
Exx 10
९६४ 10
॒ 10
—‘ 10
🇮🇳 9
८८८ 9
६५३ 9
९४३ 9
⇒ 9
५८३ 9
 9
९५४ 9
८९७ 9
५६४ 9
५८४ 9
४८२ 9
̊ 9
Eň 9
ιώ 9
@L 8
YF 8
Xq 8
UL 8
QU 8
EQ 8
ü 8
xH 8
xxx 8
FU 8
HF 8
π 8
९५७ 8
५७४ 8
८४६ 8
५९९ 8
५२८ 8
८७९ 8
☻☻ 8
५६५ 8
९२८ 8
८४२ 8
६९४ 8
ş 8
ÉŇ 8
̋ţ 8
FW 7
ॅॅ 7
xU 7
LX 7
UH 7
👉 7
XX 7
øø 7
XH 7
→ 7
\\\\ 7
४६८ 7
३४३ 7
५८६ 7
६३ 7
८२९ 7
६८८ 7
७७४ 7
८२६ 7
२३४ 7
̨ 7
८८३ 7
६९ 7
̈É 7
Éä 7
́É 7
─ 7
Т 7
̋éţ 7
WX 6
Uz 6
xF 6
UX 6
HW 6
UZ 6
xx 6
ZF 6
Zz 6
UU 6
HL 6
HEX 6
£३ 6
६३३ 6
९५८ 6
२५२ 6
२५८ 6
३६६ 6
“F 6
२७२ 6
ā 6
४३८ 6
२३३ 6
८३३ 6
५४७ 6
४५५ 6
¬ 6
ऴ 6
९२२ 6
९४६ 6
९६७ 6
७३७ 6
’— 6
иии 6
С 6
éþ 6
EZ 5
Hx 5
WU 5
WEE 5
Wz 5
Yq 5
zQ 5
Lz 5
YW 5
WW 5
WF 5
QH 5
qE 5
XL 5
xE 5
Ž 5
zU 5
HZ 5
Wq 5
Uq 5
LQ 5
qW 5
qH 5
qQ 5
QE 5
الإسلام 5
५४२ 5
८५९ 5
७८७ 5
२७३ 5
५५२ 5
२९३ 5
६६८ 5
£८ 5
७८८ 5
६५२ 5
EYU 5
६२३ 5
५७३ 5
८६९ 5
५७५ 5
६२२ 5
३९८ 5
☻☻☻☻☺ 5
४८३ 5
९२६ 5
३८९२ 5
२८५ 5
२३५ 5
५८७ 5
३७२ 5
२२५ 5
२२२ 5
८६५ 5
७६५ 5
সুভাষ 5
চন্দ্র 5
বসু 5
☻ 5
२४४९ 5
८४९ 5
“X 5
५४५ 5
६७५ 5
६८७ 5
८६४ 5
८° 5
२° 5
中國 5
९५९ 5
५९८ 5
القرآن 5
२४८ 5
८३९ 5
β 5
÷ 5
− 5
३९७ 5
२९५ 5
८७८ 5
–– 5
̋ 5
š 5
ÉčŽú 5
Ć 5
ŞÉ 5
̈Éé 5
९॰५ 5
̈ÉéxÉä 5
ZU 4
@E 4
🙏 4
Qq 4
zW 4
QQ 4
qZ 4
ZX 4
Fz 4
YZ 4
† 4
ZQ 4
zY 4
**** 4
EEE 4
WL 4
@W 4
Hq 4
😂😂 4
Fq 4
qq 4
ZY 4
Qz 4
FQ 4
qx 4
» 4
FY 4
¥ 4
३६६२८८५ 4
३२६२ 4
२४५ 4
४८८ 4
५८२ 4
“z 4
ó 4
२९३३ 4
८६३ 4
“U 4
२७७ 4
२३६४५ 4
२८५४ 4
८२२ 4
५७६ 4
३७८८९ 4
५९५ 4
ī 4
秦 4
९२३ 4
८८४८ 4
६५६ 4
५२६ 4
६६६६ 4
६२३८ 4
\“ 4
२५९९७९ 4
२३८५६६ 4
२९९ 4
“E 4
EYEQU 4
४७८ 4
WELL 4
४३५६ 4
́ 4
४४२ 4
८७७ 4
४५२ 4
७७५ 4
७५७ 4
८२७ 4
—“ 4
ŚÉÉŽú 4
̋ţÉä 4
̈Éĺ 4
́ÉÉ 4
θώ 4
Éĺ 4
LW 3
qU 3
Qx 3
😀 3
Wx 3
Ez 3
#Y 3
QZ 3
qX 3
QF 3
YQ 3
છે 3
@Y 3
ZL 3
LLE 3
२७८ 3
#q 3
Yz 3
Lx 3
xX 3
&z 3
xQ 3
xq 3
😂😂😂 3
LEE 3
XU 3
XE 3
WQ 3
WWE 3
XQ 3
🇮🇳❤ 3
>> 3
π∕ 3
LUE 3
YYYY 3
ULL 3
EFE 3
७३५ 3
➣ 3
تاج 3
محل 3
७२२ 3
५२७ 3
، 3
५३४ 3
२५३ 3
￼ 3
রবীন্দ্রনাথ 3
ঠাকুর 3
६३४ 3
७८९ 3
७७२ 3
६६५५४४ 3
३२५ 3
„ 3
२५५ 3
WWW 3
८४४ 3
EXE 3
â 3
¤ 3
≤ 3
Ω 3
६५८ 3
८९२ 3
२८४ 3
३७६ 3
४६७ 3
३५७ 3
३२३ 3
φ 3
τ 3
८८७ 3
Δ 3
ä 3
EQU 3
 3
ąÉÉ 3
ÉÉä 3
şÉÉĘ 3
Eäň 3
ÉÉŽú 3
şÉ 3
ŽúÉ 3
EňŇ 3
¤É 3
९२७ 3
 3
३॰ 3
 3
ŽúÉš 3
őĹŇŞÉ 3
ÉÚ 3
ÉÇ 3
ÉąÉÎ¤ 3
ÉŞÉÉĺ 3
xL 2
xW 2
qF 2
WEF 2
xHWH 2
છું 2
વાત 2
ની 2
👍 2
ã 2
ॢ 2
$$$$ 2
Zx 2
Xx 2
⛈ 2
Q& 2
@YU 2
LLY 2
ê 2
FEW 2
Ux 2
😇 2
🤔 2
ગુજરાતના 2
હર્ષિદાબેન 2
રહેશે 2
–L 2
zq 2
xWH 2
EEZ 2
YXQqZ 2
zX 2
zF 2
👏 2
******** 2
qY 2
zx 2
XXX 2
QY 2
‐ 2
XW 2
Lq 2
HX 2
Zq 2
YH 2
#Q 2
WZ 2
UFz 2
XZ 2
 2
 2
LZW 2
ELEX 2
LEX 2
“W 2
७२९ 2
६४४ 2
८८४ 2
३९२३ 2
£२ 2
FFL 2
४८७ 2
“L 2
७२३ 2
३७९ 2
८३२ 2
६७७ 2
३५२ 2
FQUE 2
२६८३ 2
५६७ 2
२६३५३५ 2
६२५ 2
२८९७ 2
xxxx 2
२६९ 2
५२३ 2
ULE 2
ऽऽ 2
EYW 2
२३२ 2
३९५ 2
६४५ 2
ZH 2
४५९ 2
८६५४ 2
FX 2
⏎ 2
२९८ 2
३५६ 2
६२८ 2
८७५ 2
८५८ 2
― 2
á 2
६२४ 2
२९४ 2
ː 2
२६५ 2
३६४ 2
३२४ 2
५३६ 2
३३३२ 2
३३२ 2
३२८ 2
८३५ 2
३५४ 2
८९४ 2
२६६ 2
२९२ 2
३३६ 2
४४९ 2
Λ 2
७४३ 2
Δ′ 2
® 2
ν 2
€ 2
—‘‘ 2
XXY 2
â 2
â 2
â 2
ÇĽÉäŽúŇ 2
ŽúÉä 2
ÉŇŞÉ 2
̋ţŇ 2
ŚÉŇ 2
̈ÉŇ 2
ÉEÇň 2
̈ÉÉÇ 2
Ç 2
ÉşÉ 2
̈ÉEň 2
ŞÉÖ 2
९३५ 2
९॰६ 2
९॰२ 2
У 2
ऽऽऽ 2
ииии 2
ж 2
ÉEň 2
őŇ 2
−− 2
́ÉšÉÉç 2
÷ä÷ 2
ÉxÉ 2
ÉŽú 2
́ÉˇÉ 2
è 2
â 2
â 2
ïï 2
Z+ 2
EW& 2
LWF 1
LWL 1
LYX 1
Yx 1
UqF 1
XYU 1
YWE 1
宇宙忍者 1
⭐ 1
☆☆☆ 1
👌🏼💃💪 1
HXZ 1
WLW 1
YXq 1
FQWU 1
 1
HHq 1
WZqW 1
zYq 1
ZXx 1
L< 1
Xxq 1
Wzxz 1
₹५ 1
============= 1
વિસનગર 1
કોર્ટ 1
માં 1
આવ્યો 1
ન્યાયતંત્ર 1
પર 1
મને 1
પૂરો 1
ભરોષો 1
પણ 1
એક 1
નથી 1
સમજાતી 1
કે 1
કેસો 1
પાછા 1
ખેંચાયા 1
તો 1
પછી 1
વોરન્ટ 1
કેમ 1
નીકળ્યું 1
🏅🎖🏅🎖🏅🎖🎖 1
QEE 1
✔ 1
xLY 1
ULQ 1
HzF 1
à 1
XQQ 1
YLE 1
FZZ 1
✋ 1
EWH 1
xXFq 1
🙏🙏 1
YFz 1
ZW 1
YLXEFW 1
xFq 1
$$$$$ 1
@z 1
#EU 1
♡ 1
qEF 1
zZ 1
qQx 1
WQW 1
YHYL 1
💙💙💜💜 1
🤣🌺 1
QWq 1
HxL 1
UW 1
FzL 1
ì 1
🙏🏽 1
😒 1
zXU 1
********** 1
😀😀😀 1
😊 1
LUx 1
HZz 1
UZx 1
👇😂 1
XQq 1
🙏🏻🙏🏻 1
L& 1
FHW 1
ELx 1
F# 1
zUHE 1
EzL 1
YEY 1
ZYzU 1
પીઢ 1
પાર્શ્વગાયિકા 1
રાવળની 1
ચીર 1
વિદાયથી 1
દુઃખ 1
અનુભવું 1
સંગીતક્ષેત્રે 1
તેમનું 1
પ્રદાન 1
આગામી 1
પેઢીઓ 1
માટે 1
હમેંશા 1
યાદગાર 1
સાથે 1
વર્ષો 1
જૂનો 1
પરિચય 1
રહ્યો 1
૩૦ 1
૩૫ 1
વર્ષ 1
અગાઉ 1
મારી 1
કાવ્ય 1
રચનાઓને 1
તેમણે 1
આપેલો 1
સ્વર 1
સદાય 1
સ્મરણીય 1
EWFU 1
@@ 1
qxQ 1
👏👏 1
ULF 1
FZ 1
LWE 1
بالاكريشنا 1
EXZX 1
QWL 1
YLL 1
qQZ 1
😂😂😂😂 1
#எங்கதலபோலவருமா 1
👉🇮🇳 1
👑 1
💃 1
🇵🇰 1
== 1
HYq 1
XxH 1
Hû 1
WxE 1
LxX 1
#اور 1
دھرنا 1
ختم 1
ہوگیا 1
😏 1
🙏😊 1
💍👫💍 1
👍😁☑😝💯 1
חג 1
שמח 1
חברים 1
EEz 1
સૌ 1
ભાઈબહેનોને 1
નૂતન 1
વર્ષની 1
હ્રદયપૂર્વકની 1
શુભકામના 1
zE 1
 1
FLW 1
|| 1
३६३ 1
❤ 1
qxx 1
UZq 1
EFQ 1
zL 1
ZzYz 1
ZYH 1
QWF 1
ZLqZ 1
ᆬ 1
EWx 1
&H 1
YEQW 1
YHU 1
QQQH 1
ELq 1
zYZ 1
ZQx 1
#LH 1
#EX 1
HEz 1
xWYx 1
LHQ 1
UQ 1
🙂 1
UqQX 1
и 1
ZqY 1
FUH 1
👋 1
qUWL 1
qqF 1
😎 1
͊ 1
E&Y 1
xWF 1
“@ 1
xZYEZ 1
FHQ 1
👏👏👏 1
qWE 1
qULq 1
HUL 1
UZF 1
WHX 1
xYL 1
WQY 1
XWz 1
YYq 1
WWQ 1
–“ 1
HFE 1
✂ 1
🇮🇳👍 1
zQE 1
QQz 1
YUU 1
Fqx 1
FUU 1
ÓÞ 1
HxW 1
Индия 1
приветствует 1
Вас 1
Президент 1
Путин 1
Желаем 1
Вам 1
получить 1
незабываемые 1
впечатления 1
от 1
пребывания 1
в 1
Индии 1
çõ 1
Í 1
zHW 1
HWx 1
🙏🏻❤ 1
EWELL 1
QHx 1
EZHY 1
QZWQ 1
θ° 1
θ 1
FULL 1
EHL 1
FYE 1
LLEQ 1
HY 1
ELLE 1
UFFE 1
HEE 1
२८९ 1
६६६ 1
\x 1
॓ 1
£२५ 1
ı 1
३२६ 1
३२७६७ 1
LLF 1
“Z 1
६६७ 1
२६९६२६ 1
६४३ 1
८४३ 1
£५ 1
२५७ 1
६९३ 1
“Ex 1
LEF 1
४३२ 1
२९६ 1
७२८ 1
६५५३५ 1
५३३ 1
५५६७६३ 1
Hü 1
५४५५ 1
ZZZZ 1
४९२ 1
९२८९५ 1
EWU 1
७४५ 1
३४७४ 1
६७८ 1
\L 1
\U 1
 1
“Q 1
EFL 1
EUL 1
३८४ 1
ʼ 1
γ 1
κ 1
FEL 1
XXXXXXXX 1
YYYYYYYY 1
∨ 1
∞ 1
λ 1
३५५ 1
EXY 1
Âł 1
Î 1
ELL 1
続 1
ľ 1
२x 1
Π 1
≥ 1
८७३ 1
६३८ 1
–‘ 1
५५४ 1
२५९ 1
–७ 1
४– 1
६३९ 1
६७९ 1
४२४ 1
Lí 1
६६२ 1
ॡ 1
ਦਿੱਲੀ 1
دلی 1
̪ɪ 1
९२६९५२ 1
५६३–४८३ 1
३२९ 1
९५३ 1
બાપુ 1
३४७ 1
२६९७ 1
३९९ 1
२६२९ 1
३४२ 1
२८८ 1
६७२ 1
३४२७ 1
२३८ 1
३९२ 1
४७५ 1
२३५७ 1
४३४ 1
८९९ 1
३५७७८ 1
५६९२ 1
७८६३ 1
७८६४ 1
३३७ 1
३३४ 1
२८९६ 1
७५६ 1
८७२ 1
२७५ 1
४६७६८ 1
२२४५ 1
२२५५ 1
९३४४५२ 1
३४८ 1
३७४ 1
५४७८९ 1
३५३ 1
८६६ 1
३७८४ 1
४४६ 1
४८५३ 1
४२५ 1
४७३ 1
६७६ 1
४२७ 1
७४४३ 1
८५४९ 1
३४८८ 1
३२६९ 1
३३७९ 1
७३२ 1
३६२ 1
४४५२ 1
८२४ 1
४५३ 1
η 1
७७७ 1
६४२ 1
ɓ 1
堀 1
׃ 1
EE’ 1
¡ 1
ďťż 1
XYY 1
×Z 1
а 1
є 1
‘U’ 1
ŕĽ 1
ŕ¤ž 1
॰॰ 1
∂ψ 1
Hψ 1
∂ 1
ŕ¤Ż 1
ֹ 1
Ѕию 1
̧É 1
̈ÉÉÄ 1
ŽúÉäąÉÉÄ 1
Ç¤ÉäŽúŇ 1
ÉÉĆ 1
÷Ň 1
ÉäŽúŇ 1
ŽúŇ 1
ÉxÉąÉ 1
EňxÉÉÇ 1
őEň 1
EňÉěĘąÉ 1
ą 1
EňŽú 1
şÉxÉ 1
́ÉĘÉš 1
̋ţÎ 1
ŞÉEň 1
őxÉÉ 1
ÉĘ 1
́ÉŞÉ 1
EňÉ 1
̋ţÉäxÉä 1
ůÉ 1
́Éä 1
ŽĆ 1
̈ÉÉ 1
Ö 1
́ÉÉąÉä 1
̈ÉÇ 1
Ąň 1
őEňÉŽú 1
ÉÖÉÉ 1
şÉÉ 1
ůÉÄ 1
Éć 1
̋ţŽúÉ 1
ŽĆú 1
̋ţx 1
Úů 1
̈ÉÉş 1
̋ţÉxÉŇ 1
÷ä 1
ää 1
ŕ¤Ťŕ¤ż 1
̋ţÉ 1
žţ 1
ůŞÉ 1
५६९ 1
ळळ 1
७९८ 1
३२७ 1
ÉÖEňÉŽú 1
şÉŇ 1
८५२ 1
֦ 1
८५४ 1
ł 1
८८६ 1
Ă 1
ř 1
८९६ 1
९॰ 1
॰३ 1
८९॰ 1
९॰७ 1
иииии 1
५॰ 1
९२॰ 1
९३॰ 1
२॰॰ 1
 1
७॰ 1
८॰९ 1
५४९ 1
८४७ 1
८२८ 1
४॰ 1
ÉÉŞÉä 1
¤ÉÉĘŽúśÉ 1
Д 1
═ 1
śÉ 1
३८७ 1
४४३ 1
ĘşÉĄňÉĘŽúśÉ 1
¤ÉŇ 1
Ô 1
ĘEňŞÉÉ 1
EňÉŞÉÇ 1
şÉĚ 1
́ÉşÉ 1
Ś 1
ĆśÉ 1
ůąÉĺ 1
ţţ 1
ÉÉĘ 1
̋ţŞÉä 1
ÉÉŞÉ 1
şÉĆ 1
ůEň 1
őĘŽúŞÉÉĺ 1
̈ÉÉŽúŇ 1
xÉEňÉä 1
ůąÉ 1
Éč 1
ÉäĘ 1
Ę¤Éx 1
Öů 1
ŻűEňŇ 1
́ÉĆ 1
ÉÉç 1
́ÉÓ 1
YÉÉ 1
şÉEäň 1
Žú 1
̋äţ 1
Éx 1
̋ţÉĺxÉä 1
şÉĆśÉÉä 1
äşÉŇ 1
EňÉĘşÉ 1
ÉÉéşÉ 1
ůŽú 1
şÉąÉ 1
Č 1
Ě 1
̈Éč 1
ÉąÉÉä 1
ÉxÉÉ 1
řäř 1
Éš 1
ůÉŽú 1
ÉÖxÉÇĘxÉ 1
ŞÉÉäĘEň 1
÷ĂÉäşÉŇ 1
ůÉç 1
ý 1
¤ÉxÉĺ 1
xÉÉ 1
́ÉŢÎš 1
ŚÉŽúÉäşÉä 1
EňąÉ 1
ÉĆ 1
设 1
ÚĆů 1
ÉŞÉÉÇ 1
Ę¤É 1
ÉąÉŇ 1
ůśÉEň 1
̋ţÉĺ 1
̈ÉÉĆ 1
̋čţĘEň 1
ÖÆþ 1
õ 1
¶É¤ 1
ùÉå 1
Eò 1
öÉä®ú 1
ÉÉè®äú 1
Éè®ú 1
Ê 1
Âõ 1
ö±É 1
òÉÆÊ 1
ÉÆ 1
 1
२४७ 1
२४९ 1
२५४ 1
२६८ 1
२७४ 1
२७६ 1
४६२ 1
४६३ 1
४६९ 1
Š 1
❤❤😍 1
❤❤😍😍 1
❤❤❤ 1
😍 1
WqL 1
HELL 1
zUH 1
WLF 1
UxE 1
&F 1
LUQ 1
QUQ 1
zLx 1
ヒ 1
😁 1
😂😂😂😂😂😂😂😂😂😂 1
આપ 1
સૌને 1
ઉતરાયણ 1
પર્વ 1
હાર્દિક 1
શુભકામનાઓ 1
মাঘ 1
বিহুৰ 1
এই 1
পৱিত্ৰক্ষণত 1
অসমবাসীলৈ 1
মোৰ 1
আন্তৰিক 1
শুভেচ্ছা 1
জনাইছো৷ 1
என் 1
தமிழ் 1
நண்பர்கள் 1
அனைவருக்கும் 1
மகிழ்ச்சியான 1
மற்றும் 1
ஆசி 1
நிறைந்த 1
பொங்கல் 1
வாழ்த்துகள் 1
qLLX 1
👇🏼 1
EHLqZ 1
HFF 1
HQX 1
xY 1
› 1
🇮🇳🏆 1
🥊 1
xxE 1
Fxq 1
🙏🙏🙏 1
EYz 1
HYz 1
WUFq 1
@Z 1
FUq 1
HzZ 1
XYZ 1
WzY 1
YqZ 1
ç 1
QEWQ 1
XZLq 1
@XH 1
FLQX 1
🎊🎉 1
Ezz 1
qz 1
xWL 1
madeupword0000 0
madeupword0001 0
